#version: 0.2
こ と</w>
す る</w>
か ら</w>
こ の</w>
よ う</w>
こ れ</w>
た ち</w>
し ょ</w>
そ れ</w>
で き</w>
そ の</w>
も の</w>
し て</w>
そ して</w>
ら れ</w>
考 え</w>
世 界</w>
た め</w>
ん な</w>
だ け</w>
自 分</w>
ど う</w>
そ う</w>
必 要</w>
さ ん</w>
ま で</w>
し か
問 題</w>
よ り</w>
しか し</w>
ッ ト</w>
こ こ</w>
っ と</w>
人 々</w>
た り</w>
こ う</w>
か っ</w>
そ こ</w>
我 々</w>
な ら</w>
リ カ</w>
同 じ</w>
ま り</w>
多 く</w>
イ ン
と て
可 能</w>
とて も</w>
人 間</w>
く れ</w>
ッ ク</w>
研 究</w>
時 間</w>
0 0</w>
し ま</w>
ュ -</w>
な た</w>
分 か</w>
始 め</w>
あ なた</w>
実 際</w>
ほ ど</w>
ス ト</w>
と き</w>
取 り
こ ろ</w>
な ど</w>
ら し</w>
ラ ン
起 こ</w>
女 性</w>
つ け</w>
ま た</w>
だ っ</w>
イ ン</w>
ス テ
重 要</w>
全 て</w>
し れ</w>
彼 女</w>
な ぜ</w>
社 会</w>
方 法</w>
と ころ</w>
ア メ
け れ</w>
子 供</w>
プ ロ
コ ン
拍 手</w>
大 き
アメ リカ</w>
く だ
くだ さ</w>
も う</w>
見 え</w>
大き な</w>
科 学</w>
場 所</w>
わ か</w>
新 し</w>
技 術</w>
本 当</w>
こ んな</w>
理 解</w>
1 0</w>
シ ョ
- ル</w>
- ト</w>
仕 事</w>
変 え</w>
つ まり</w>
ジ ェ
ン グ</w>
素 晴
最 も</w>
情 報</w>
か け</w>
写 真</w>
も し</w>
素晴 らし</w>
デ ィ
意 味</w>
地 球</w>
入 れ</w>
ア イ
ど の</w>
- タ</w>
た だ</w>
結 果</w>
与 え</w>
非 常</w>
な が
受 け</w>
え ば</w>
ラ イ
い つ</w>
も っと</w>
上 げ</w>
存 在</w>
わ け</w>
関 係</w>
- ド</w>
言 葉</w>
テ ィ
以 上</w>
生 物</w>
テ ィ</w>
人 生</w>
べ て</w>
す べて</w>
少 し</w>
ン ト</w>
ショ ン</w>
ス ト
最 初</w>
変 化</w>
続 け</w>
ッ プ</w>
答 え</w>
影 響</w>
- ム</w>
さ ら
ど んな</w>
ど こ</w>
グ ラ
リ ア</w>
場 合</w>
なが ら</w>
シ ステ
っ て</w>
た ら</w>
そ んな</w>
システ ム</w>
ア フ
理 由</w>
現 在</w>
小 さ
細 胞</w>
生 活</w>
小さ な</w>
今 日</w>
1 9
経 済</w>
2 0
大 き</w>
環 境</w>
さら に</w>
宇 宙</w>
- ン</w>
2 0</w>
起 き</w>
ド ル</w>
ま だ</w>
例 えば</w>
よ く</w>
ま ず</w>
あ る</w>
- ジ</w>
デ ザ
行 動</w>
- ク</w>
出 来</w>
活 動</w>
す れ</w>
デ -タ</w>
見 せ</w>
め て</w>
ま れ</w>
解 決</w>
ス タ
ク リ
ち ら</w>
見 つけ</w>
ネ ル
思 い
経 験</w>
コン ピ
生 き</w>
サ イ
か り</w>
と ん
エ ネル
エネル ギ</w>
状 況</w>
学 校</w>
ど も</w>
違 い</w>
わ り</w>
し か</w>
政 府</w>
教 え</w>
アフ リカ</w>
地 域</w>
アイ デ
子 ども</w>
最 後</w>
都 市</w>
あ り
通 り</w>
変 わ</w>
付 け</w>
ほ とん
ほとん ど</w>
時 代</w>
好 き</w>
と も</w>
家 族</w>
自 然</w>
キ ャ
男 性</w>
か か</w>
ッ ク
自 身</w>
た く
動 物</w>
患 者</w>
主 義</w>
5 0</w>
想 像</w>
コンピ ュ-</w>
様 々</w>
たく さん</w>
年 間</w>
興 味</w>
も ち
説 明</w>
利 用</w>
さ て</w>
ら い</w>
ち ょ
デザ イン</w>
生 まれ</w>
教 育</w>
大 学</w>
部 分</w>
ク ト</w>
ゆ る</w>
全 く</w>
ン ス</w>
政 治</w>
ニ ュ-</w>
タ イ
な ん
と う</w>
感 じ</w>
も ら</w>
引 き
発 見</w>
簡 単</w>
あり が
遺 伝</w>
フ ォ
アイデ ア</w>
実 験</w>
物 語</w>
状 態</w>
フ ィ
質 問</w>
ろ ん</w>
ネ ット</w>
す ご</w>
もち ろん</w>
あ ら
ッ ド</w>
ミ ュ
フ ァ
一 緒</w>
ウ ェ
ど れ</w>
ありが とう</w>
3 0</w>
治 療</w>
組 織</w>
音 楽</w>
人 類</w>
サ ン
ジ ャ
選 択</w>
う ち</w>
い け</w>
ず っと</w>
み んな</w>
あら ゆる</w>
伝 え</w>
現 実</w>
会 社</w>
ッ ト
す ぐ</w>
初 めて</w>
全 体</w>
成 功</w>
機 能</w>
価 値</w>
一 方</w>
難 し</w>
わ せ</w>
未 来</w>
い く</w>
開 発</w>
プロ ジェ
く らい</w>
成 長</w>
は ず</w>
効 果</w>
求 め</w>
中 国</w>
電 話</w>
複 雑</w>
受 け
ジ ョ
プロジェ クト</w>
さ え</w>
異 な</w>
シ ャ
一 番</w>
なん て</w>
テ ク
映 画</w>
文 化</w>
こ そ</w>
作 品</w>
歴 史</w>
健 康</w>
ア ル
1 00</w>
く る</w>
合 わせ</w>
あ まり</w>
企 業</w>
能 力</w>
コ ミュ
コミュ ニ
バ イ
ック ス</w>
自 由</w>
調 査</w>
じ ゃ</w>
ニ ア</w>
生 命</w>
け ど</w>
マ イ
一 部</w>
た い</w>
ト ル</w>
意 識</w>
ら か</w>
な り</w>
ディ ア</w>
気 づ</w>
ロ ジ</w>
ベ ル</w>
過 去</w>
物 質</w>
進 化</w>
作 り
デ ル</w>
チ ャ
食 べ</w>
ロ ボ
ちょ っと</w>
特 に</w>
向 け</w>
参 加</w>
ブ ラ
テク ノ
規 模</w>
テクノ ロジ</w>
ら く</w>
組 み</w>
イン ド</w>
世 紀</w>
イン タ</w>
こ ちら</w>
助 け</w>
ス タ</w>
ひ と</w>
事 実</w>
モ デル</w>
太 陽</w>
完 全</w>
反 応</w>
少 な</w>
ロボ ット</w>
感 情</w>
言 え</w>
運 動</w>
す ぎ</w>
面 白</w>
十 分</w>
シ ン
神 経</w>
一 人</w>
ル ス</w>
も たら</w>
年 代</w>
医 療</w>
グ ル
ご 覧</w>
あ の</w>
正 し</w>
フ ェ
ス ク</w>
み 出</w>
ま ま</w>
う ま</w>
立 ち
基 本</w>
T E
ラン ド</w>
当 時</w>
そ れ
個 人</w>
1 人</w>
り 返</w>
言 語</w>
紹 介</w>
最 近</w>
エ ン
下 さ</w>
病 気</w>
ビ デ
取り 組</w>
セ ン
ぞ れ</w>
それ ぞれ</w>
1 5</w>
- プ</w>
プロ グラ
向 か</w>
互 い</w>
上 が</w>
美 し</w>
提 供</w>
始 ま</w>
レ ス</w>
同 時</w>
関 わ</w>
覚 え</w>
同 様</w>
構 造</w>
機 械</w>
ば かり</w>
空 間</w>
く な</w>
新 た</w>
危 険</w>
安 全</w>
- ス</w>
決 め</w>
調 べ</w>
ソ ン</w>
週 間</w>
ト ン</w>
組 み
集 め</w>
ち ゃ
ラ ム</w>
実 現</w>
お か
ま さ
友 人</w>
リ ン
ビデ オ</w>
惑 星</w>
障 害</w>
立 て</w>
明 らか</w>
リ スト</w>
レ ン
20 0
専 門</w>
ウ ィ
ラ ン</w>
な ん</w>
- ズ</w>
名 前</w>
計 画</w>
機 会</w>
最 大</w>
相 手</w>
大 切</w>
種 類</w>
セ ス</w>
投 資</w>
プ ル</w>
認 識</w>
止 め</w>
生 み出</w>
自 ら</w>
持 ち</w>
精 神</w>
ズ ム</w>
か なり</w>
コミュニ ティ</w>
文 字</w>
動 き</w>
リ ン</w>
生 産</w>
飛 行</w>
い は</w>
戦 争</w>
記 憶</w>
議 論</w>
知 識</w>
画 像</w>
ロ ン</w>
ネ ス</w>
表 現</w>
や す</w>
離 れ</w>
小 さ</w>
ア ン
あ る
植 物</w>
ある いは</w>
建 物</w>
体 験</w>
生 き
0 00</w>
建 築</w>
普 通</w>
4 0</w>
ギ リ
マ ン</w>
将 来</w>
人 口</w>
まさ に</w>
の 子</w>
原 因</w>
み たい</w>
ク ラ
目 的</w>
TE D</w>
保 護</w>
部 屋</w>
民 主</w>
創 造</w>
芸 術</w>
自 己</w>
支 援</w>
過 ぎ</w>
物 理</w>
最 高</w>
数 学</w>
イ ス
現 れ</w>
感 覚</w>
ご ざ</w>
ネ ット
使 用</w>
オ ン</w>
化 学</w>
楽 し</w>
一 般</w>
分 野</w>
協 力</w>
ブ ル</w>
タ ル</w>
プログラ ム</w>
周 り</w>
レ ベル</w>
暴 力</w>
フ ラン
い か
移 動</w>
瞬 間</w>
チ ン</w>
課 題</w>
世 代</w>
記 録</w>
シ ュ
感 染</w>
ヶ 月</w>
デ ィ</w>
6 0</w>
疑 問</w>
ロ ッ
1 2</w>
作 業</w>
み な</w>
N A</w>
ビ ジ
装 置</w>
市 場</w>
い ろ
学 生</w>
チ -ム</w>
単 純</w>
毎 日</w>
大 変</w>
プ ラ
増 え</w>
メ ディア</w>
中 心</w>
特 定</w>
自 動</w>
理 論</w>
携 帯</w>
発 展</w>
マ ン
現 代</w>
巨 大</w>
流 れ</w>
リ ア
持 ち
市 民</w>
使 え</w>
た と
幸 せ</w>
注 意</w>
忘 れ</w>
プ レ
要 素</w>
リ -</w>
つ か</w>
電 気</w>
予 測</w>
生 徒</w>
ン ド</w>
- チ</w>
8 0</w>
全 員</w>
D NA</w>
欲 し</w>
カ メ
責 任</w>
身 体</w>
以 前</w>
2 人</w>
終 わ</w>
っ た</w>
集 団</w>
気 候</w>
分 子</w>
信 頼</w>
過 ご</w>
母 親</w>
ビジ ネス</w>
上 手</w>
方 向</w>
米 国</w>
消 費</w>
メ ッ
確 か</w>
ス ペ
病 院</w>
宗 教</w>
チ ャ</w>
お そ
ニ ュ</w>
何 百</w>
設 計</w>
おそ らく</w>
セ ント</w>
気 付</w>
領 域</w>
過 程</w>
加 え</w>
共 有</w>
テ レ
平 均</w>
つ な
映 像</w>
管 理</w>
ハ イ
数 字</w>
機 関</w>
ひ ど</w>
ま る
手 術</w>
以 外</w>
代 わり</w>
最 終</w>
く り</w>
出 来
注 目</w>
ら え</w>
カメ ラ</w>
ウ ス</w>
ッ チ</w>
あ げ</w>
困 難</w>
段 階</w>
ど ちら</w>
つ つ</w>
が ん</w>
繰 り返</w>
役 割</w>
学 習</w>
まる で</w>
ト ラ
ゲ -ム</w>
シ ュ</w>
恐 怖</w>
ブ ロ
期 待</w>
国 家</w>
ス ピ
ま っ
チ ェ
来 る</w>
資 金</w>
反 対</w>
友 達</w>
原 子</w>
失 敗</w>
ネット ワ
比 べ</w>
半 分</w>
パ タ
クリ ス</w>
限 り</w>
評 価</w>
ちゃ ん</w>
製 品</w>
労 働</w>
計 算</w>
革 命</w>
発 明</w>
受け 入れ</w>
テレ ビ</w>
な る</w>
目 標</w>
撮 影</w>
7 0</w>
改 善</w>
希 望</w>
多 様</w>
リ スク</w>
ジョ ン</w>
ア ラ
先 生</w>
ビ ル</w>
こ え</w>
か つ
決 定</w>
息 子</w>
動 か</w>
タ ン</w>
メッ セ</w>
し み</w>
いか に</w>
関 心</w>
医 師</w>
ほ ん
国 際</w>
共 通</w>
1 1</w>
進 歩</w>
貧 困</w>
処 理</w>
グ ロ</w>
かつ て</w>
2 5</w>
結 婚</w>
ほ し</w>
手 段</w>
グル -プ</w>
キャ ン
た く</w>
越 え</w>
特 別</w>
聞 こえ</w>
大 事</w>
リ ズム</w>
サイ ト</w>
用 い</w>
炭 素</w>
関 連</w>
ソ フ
が り</w>
尋 ね</w>
唯 一</w>
ケ ット</w>
視 覚</w>
優 れ</w>
認 め</w>
超 え</w>
イ メ
ア プ
た った</w>
ロッ パ</w>
若 者</w>
分 析</w>
仕 組み</w>
様 子</w>
9 0</w>
運 転</w>
切 り
ビ ス</w>
エ ル</w>
エ イ
他 人</w>
テ スト</w>
間 違い</w>
気 持ち</w>
両 親</w>
い ただ</w>
利 益</w>
ダ イ
カ リ
o o
広 が</w>
比 較</w>
思い 出</w>
危 機</w>
作り 出</w>
ギリ ス</w>
ほ ぼ</w>
近 く</w>
概 念</w>
産 業</w>
心 臓</w>
合 い</w>
破 壊</w>
有 名</w>
き り</w>
イ ギリス</w>
基 づ</w>
ン ダ</w>
捉 え</w>
思 考</w>
大 量</w>
キ ロ</w>
ご と</w>
おか げ</w>
意 見</w>
真 実</w>
ほん の</w>
恐 れ</w>
変 動</w>
行 為</w>
プロ セス</w>
心 配</w>
終 わり</w>
い ろ</w>
飛 び
正 確</w>
信 号</w>
まっ たく</w>
な し</w>
地 図</w>
いろ いろ</w>
自 体</w>
既 に</w>
ル ド</w>
間 違</w>
定 義</w>
観 察</w>
デ ジ
す ら</w>
育 て</w>
土 地</w>
タ ン
女 の子</w>
確 認</w>
バ ル</w>
公 開</w>
統 領</w>
対 象</w>
ラ イン</w>
ず か</w>
大 統領</w>
ア ク
突 然</w>
人 物</w>
仲 間</w>
パタ -ン</w>
し ろ</w>
デジ タル</w>
存 知</w>
イ ル</w>
資 源</w>
準 備</w>
わ ずか</w>
判 断</w>
スタ ン</w>
イス ラム</w>
ま と
ン ド
シ ャ</w>
っ くり</w>
訪 れ</w>
程 度</w>
犯 罪</w>
権 利</w>
集 ま</w>
攻 撃</w>
ガ ス</w>
や り</w>
沢 山</w>
シ ア</w>
つな が</w>
銀 河</w>
英 語</w>
制 御</w>
ウ イ
現 象</w>
何 千</w>
ネットワ -ク</w>
政 策</w>
打 ち
単 に</w>
出来 事</w>
通 常</w>
当 然</w>
豊 か</w>
直 面</w>
構 成</w>
訓 練</w>
特 徴</w>
ウイ ルス</w>
イン フ
増 加</w>
暮 ら</w>
づ け</w>
再 び</w>
ビ ア</w>
拡 大</w>
思 え</w>
イ ツ</w>
け れ
位 置</w>
革 新</w>
進 め</w>
家 庭</w>
お り</w>
空 気</w>
対 応</w>
人 工</w>
ガ ン</w>
けれ ど</w>
会 話</w>
ラ リア</w>
分 け</w>
出 せ</w>
っ かり</w>
結 び
制 度</w>
あ と</w>
主 張</w>
赤 ちゃん</w>
内 容</w>
人 種</w>
さ せ</w>
記 事</w>
食 べ
5 00</w>
医 者</w>
ヒ ト</w>
挙 げ</w>
医 学</w>
効 率</w>
抱 え</w>
キ ュ
は じ
ッ グ</w>
っ きり</w>
い っ
予 想</w>
で に</w>
再 生</w>
亡 くな</w>
- マ</w>
道 路</w>
レ イ
食べ 物</w>
貧 し</w>
試 み</w>
法 律</w>
ト リ
シ ェ
ケ -</w>
な れ</w>
しか も</w>
リ ング</w>
国 民</w>
ハ ッ
ク ロ</w>
選 挙</w>
触 れ</w>
心 理</w>
全 部</w>
ト ロ
ティ ブ</w>
出 会</w>
作 用</w>
大 好き</w>
形 成</w>
メ ン
す でに</w>
火 星</w>
連 れ</w>
ラ ス</w>
言 い
i n
証 拠</w>
共 同</w>
乗 り
たと えば</w>
電 子</w>
落 ち</w>
ク タ</w>
1 8</w>
取 り</w>
ナ イ
ん と</w>
警 察</w>
期 間</w>
し ば
- ビス</w>
銀 行</w>
コ ン</w>
や め</w>
見 つか</w>
作 れ</w>
発 生</w>
エン ジ
スト レス</w>
毎 年</w>
近 づ</w>
不 安</w>
黒 人</w>
集 中</w>
統 計</w>
ス チ
距 離</w>
作 り</w>
せ い</w>
- ト
パ ン
診 断</w>
ジ ア</w>
残 念</w>
わ た</w>
タイ プ</w>
コ スト</w>
粒 子</w>
教 師</w>
努 力</w>
や り
捨 て</w>
物 事</w>
ステ ィ
あ り</w>
2 00</w>
必 ず</w>
引き 起こ</w>
痛 み</w>
同 僚</w>
も らえ</w>
燃 料</w>
思 い</w>
ち ゃ</w>
伝 統</w>
石 油</w>
疾 患</w>
団 体</w>
条 件</w>
支 配</w>
刺 激</w>
安 定</w>
平 和</w>
上 昇</w>
は っきり</w>
の み</w>
追 い
ま し</w>
い え</w>
演 奏</w>
ネ ル</w>
シン プル</w>
完 璧</w>
直 接</w>
成 果</w>
ル ト</w>
絶 対</w>
時 期</w>
持 続</w>
ツ -ル</w>
ろ し</w>
な さ</w>
一 体</w>
バ ス</w>
達 成</w>
会 場</w>
結 局</w>
証 明</w>
構 築</w>
検 査</w>
傾 向</w>
ワ ク
- プ
投 票</w>
イン タ
ちょ う
適 切</w>
本 質</w>
セン タ</w>
イ ス</w>
指 導</w>
も っ
まと め</w>
道 具</w>
大 気</w>
何 十</w>
食 料</w>
避 け</w>
ア ン</w>
表 面</w>
登 場</w>
平 等</w>
シ ン</w>
も り</w>
リ ティ</w>
メ ント</w>
グラ フ</w>
奇 妙</w>
も と</w>
日 常</w>
思い やり</w>
か し</w>
ク リ</w>
テ ロ</w>
提 案</w>
ハ ン
消 え</w>
回 復</w>
ル -ル</w>
モ ン</w>
ちょう ど</w>
開 け</w>
更 に</w>
パ ン</w>
苦 し</w>
減 ら</w>
ブ ル
ず つ</w>
落 と</w>
か く</w>
本 物</w>
大 人</w>
ド イツ</w>
権 力</w>
ッ シュ</w>
キ ング</w>
か か
難 民</w>
時 点</w>
強 力</w>
ラン ス</w>
魅 力</w>
当 て</w>
建 設</w>
対 処</w>
地 元</w>
先 ほど</w>
デ ン</w>
ウェ ア</w>
1 6</w>
1 4</w>
施 設</w>
挑 戦</w>
メ -ル</w>
組み 合わせ</w>
範 囲</w>
実 行</w>
二 人</w>
ヨ -ク</w>
込 み</w>
次 元</w>
フラン ス</w>
日 本</w>
依 存</w>
フォ ル
か 月</w>
製 造</w>
維 持</w>
公 共</w>
ご く</w>
お よ
授 業</w>
グ ル</w>
情 熱</w>
ウ ン
決 して</w>
遂 げ</w>
押 し
初 期</w>
つ れ</w>
酸 化</w>
残 り</w>
イ ナ</w>
ど ん
イメ -ジ</w>
き っと</w>
, 000</w>
ウ ォ
e r
操 作</w>
感 謝</w>
国 々</w>
l e</w>
ヴ ィ
試 験</w>
ペ -ジ</w>
戦 略</w>
交 通</w>
事 業</w>
誕 生</w>
根 本</w>
自 転</w>
ス ポ
つ もり</w>
い に</w>
恐 ろし</w>
役 立</w>
視 点</w>
向 上</w>
刑 務</w>
ダ ム</w>
決 断</w>
事 故</w>
た が</w>
法 則</w>
最 悪</w>
換 え</w>
排 出</w>
と り</w>
速 度</w>
偉 大</w>
被 害</w>
少 女</w>
繋 が</w>
番 組</w>
ワ イ
マ ス</w>
衝 突</w>
症 状</w>
ニ ック</w>
講 演</w>
アル ゴ
話 題</w>
今 後</w>
事 件</w>
プ ト</w>
セ ックス</w>
o n
デザ イナ</w>
す ば
年 齢</w>
ジ オ</w>
もっ とも</w>
I V</w>
あ たり</w>
援 助</w>
細 菌</w>
気 分</w>
信 じ</w>
農 業</w>
支 え</w>
ス キ
と おり</w>
キ シ
フ ィ</w>
ジ ョ</w>
食 事</w>
博 士</w>
アルゴ リズム</w>
り 込</w>
当 たり</w>
建 て</w>
H IV</w>
理 想</w>
ノ ム</w>
減 少</w>
商 品</w>
今 度</w>
ニ ング</w>
ソ -</w>
ク ス</w>
19 9
高 め</w>
費 用</w>
書 き</w>
工 場</w>
始 まり</w>
バ ン
ど ん</w>
父 親</w>
ミ ング</w>
ジ ュ
知 れ</w>
フォル ニア</w>
抜 け</w>
基 準</w>
会 議</w>
タイ ム</w>
ク ル</w>
どん どん</w>
喜 び</w>
ブラ ック</w>
ナ ル</w>
テ ン
広 げ</w>
観 客</w>
費 や</w>
絶 滅</w>
犠 牲</w>
後 ろ</w>
変 革</w>
周 囲</w>
カ ン
イ ラ
り 出</w>
落 ち
発 表</w>
幸 福</w>
ジャ -</w>
カリ フォルニア</w>
い わ
素 材</w>
相 互</w>
生 態</w>
教 授</w>
はじ め</w>
酸 素</w>
業 界</w>
料 理</w>
地 下</w>
単 なる</w>
た し</w>
すば らし</w>
目 指</w>
死 亡</w>
幸 運</w>
奴 隷</w>
チャ ンス</w>
立 場</w>
物 体</w>
栄 養</w>
思 議</w>
o r
1 3</w>
発 電</w>
測 定</w>
意 図</w>
い た
高 校</w>
ライ ド</w>
し く
途 上</w>
差 別</w>
ギ ャ
監 視</w>
ウ ン</w>
かか わ</w>
貢 献</w>
生き 物</w>
供 給</w>
な か</w>
が ち</w>
適 応</w>
衛 星</w>
無 理</w>
当 た</w>
ト レ</w>
込 め</w>
確 率</w>
収 入</w>
出 身</w>
両 方</w>
美 術</w>
秘 密</w>
活 用</w>
極 めて</w>
取り 出</w>
要 因</w>
ゲ ノム</w>
な くな</w>
所 有</w>
不 思議</w>
ンド ン</w>
ティ ング</w>
コミュニ ケ</w>
o u
止 ま</w>
中 央</w>
シャ ル</w>
2 1</w>
遊 び</w>
色 々</w>
手 法</w>
出 し</w>
ブ リ
ト ロ</w>
サン ゴ</w>
ガ ニ
a t
論 文</w>
回 転</w>
及 ぼ</w>
何 故</w>
ペ ン
や か</w>
競 争</w>
不 足</w>
突 き
森 林</w>
テ -マ</w>
アク セス</w>
e r</w>
知 能</w>
満 足</w>
機 器</w>
取り 上げ</w>
下 が</w>
ロ ンドン</w>
パ ク</w>
哲 学</w>
長 期</w>
迎 え</w>
果 た</w>
ス カ
ず れ</w>
限 界</w>
文 明</w>
放 射</w>
資 本</w>
丈 夫</w>
アフ ガニ
日 々</w>
向 き</w>
無 視</w>
決 ま</w>
以 来</w>
タン パク</w>
イ ノ
アフガニ スタン</w>
1 7</w>
通 信</w>
述 べ</w>
生 存</w>
浮 か</w>
以 下</w>
ス コ
ジ ル</w>
自 信</w>
少 年</w>
工 学</w>
素 敵</w>
画 面</w>
パ ラ
も しく
もしく は</w>
あ れ</w>
用 意</w>
問 い</w>
も の
報 告</w>
卒 業</w>
ム ズ</w>
ト ップ</w>
ッ ション</w>
つ く</w>
た び</w>
腫 瘍</w>
汚 染</w>
ヴ ァ
プ ライ
G oo
裁 判</w>
新 聞</w>
古 代</w>
リ オ</w>
ゼ ロ</w>
i t
戦 い</w>
パ イ
テ ル</w>
カ ナ
支 持</w>
\ /</w>
検 索</w>
大 半</w>
ウ ェ</w>
1 9</w>
- ナ</w>
結 論</w>
深 刻</w>
作り 上げ</w>
活 性</w>
ほ う</w>
観 測</w>
意 思</w>
完 成</w>
不 可
ド ラ
イノ ベ</w>
a c
道 徳</w>
起 業</w>
ロ ス</w>
マ ウス</w>
ア ジア</w>
あ た</w>
読 み
統 合</w>
国 内</w>
Goo g
数 百</w>
呼 び
体 内</w>
ス テ</w>
わ ち</w>
な わち</w>
し め</w>
大 丈夫</w>
取り 組み</w>
価 格</w>
テ ン</w>
ソフ ト
イン ト</w>
っ かけ</w>
英 国</w>
紛 争</w>
共 感</w>
ベ ン
性 質</w>
バ ン</w>
確 信</w>
パ ス</w>
ア リ</w>
か つ</w>
う が</w>
筋 肉</w>
昨 年</w>
明 確</w>
呼 吸</w>
割 合</w>
作 成</w>
一 生</w>
ミ ン</w>
ホ ル
ジ ャ</w>
興 奮</w>
受け 取</w>
勉 強</w>
今 年</w>
モ ン
ウェ ブ</w>
魔 法</w>
思 いつ</w>
か せ</w>
掛 け</w>
手 紙</w>
基 礎</w>
制 作</w>
プ ロ</w>
ケ ア</w>
り 着</w>
重 力</w>
広 告</w>
同 士</w>
エ ジ
わ たし</w>
白 人</w>
学 者</w>
ソフト ウェア</w>
認 知</w>
男 の子</w>
ワク チン</w>
表 示</w>
替 え</w>
ベ ッド</w>
ト ラン
っ ち</w>
いた だけ</w>
材 料</w>
引 っ
増 や</w>
兵 士</w>
予 定</w>
な く</w>
つ なが
見 出</w>
備 え</w>
今 回</w>
パ ワ</w>
つ め</w>
た だ
選 手</w>
発 達</w>
椅 子</w>
内 部</w>
ス ライド</w>
す なわち</w>
2 4</w>
確 実</w>
申 し
大 陸</w>
厳 し</w>
フ レ
アプ ロ</w>
知 的</w>
勇 気</w>
ライ ト</w>
ポ イント</w>
ッ タ</w>
ッ ジ</w>
に く</w>
アイ ディア</w>
ア ド
職 場</w>
ぶ ん</w>
つなが り</w>
い や</w>
a n
設 置</w>
崩 壊</w>
リア ル</w>
は や</w>
有 効</w>
原 理</w>
ド ア</w>
a r
S A</w>
成 績</w>
導 入</w>
取 引</w>
サイ ズ</w>
た ど
く ら</w>
従 来</w>
対 話</w>
チ ュ
と に
き っかけ</w>
重 ね</w>
象 徴</w>
応 用</w>
初 め</w>
ブラ ジル</w>
ト イ
テ ロ
とに かく</w>
て は
-ト ナ</w>
訴 え</w>
解 明</w>
生 息</w>
改 革</w>
バイ ス</w>
つ き</w>
臓 器</w>
砂 漠</w>
教 室</w>
ウェ ブ
ウ ム</w>
諸 国</w>
満 た</w>
望 遠</w>
明 る</w>
寄 せ</w>
取 れ</w>
下 げ</w>
およ そ</w>
高 速</w>
行 き</w>
現 場</w>
マ ラリア</w>
フ ル</w>
ダ ン</w>
ア ップ</w>
正 直</w>
予 防</w>
モ ノ</w>
ダ ンス</w>
む しろ</w>
は る
Goog le</w>
爆 発</w>
ン ティ
セ ル</w>
グル -</w>
ク ション</w>
側 面</w>
倫 理</w>
チ ョ
ス コ</w>
カナ ダ</w>
オ ス</w>
膨 大</w>
取り 入れ</w>
マ ル
スト ン</w>
たと え</w>
観 点</w>
真 ん
混 乱</w>
我 が</w>
差 し
主 要</w>
ゆ っくり</w>
複 数</w>
公 園</w>
ア レ
4 00</w>
運 営</w>
透 明</w>
満 ち</w>
日 間</w>
ダ メ</w>
シ ップ</w>
インタ ビ
真ん 中</w>
温 度</w>
流 行</w>
数 十</w>
把 握</w>
優 し</w>
レン ジ</w>
ティ スト</w>
3 00</w>
舞 台</w>
兄 弟</w>
事 態</w>
ン ・</w>
インフ ラ</w>
ふ れ</w>
海 洋</w>
含 め</w>
働 き</w>
偶 然</w>
解 釈</w>
所 得</w>
多 数</w>
ロ シア</w>
なん か</w>
高 度</w>
解 放</w>
モ リ</w>
カ ル
遅 れ</w>
振 り返</w>
加 速</w>
到 達</w>
き 込</w>
い くら</w>
20 00</w>
詳 細</w>
切 れ</w>
部 品</w>
話 し
結 合</w>
コ ロ
雇 用</w>
行 き
抵 抗</w>
単 語</w>
コ -ド</w>
イ ル
約 束</w>
祖 母</w>
届 け</w>
寿 命</w>
国 境</w>
削 減</w>
個 々</w>
ブロ ック</w>
はる か</w>
5 千</w>
電 力</w>
逃 げ</w>
制 限</w>
出 版</w>
脅 威</w>
生 成</w>
教 会</w>
外 科</w>
報 道</w>
優 秀</w>
マ シン</w>
フォ -ド</w>
バ ランス</w>
ッ カ</w>
ス キャ
ク ロ
現 状</w>
メ -</w>
自 閉</w>
移 民</w>
移 植</w>
た い
し っかり</w>
お け</w>
トイ レ</w>
テ リア</w>
イラ ク</w>
イ ラン</w>
だ り</w>
4 5</w>
調 整</w>
良 く</w>
皮 膚</w>
独 立</w>
地 上</w>
占 め</w>
動 作</w>
バ ク
も はや</w>
e n
終 え</w>
旅 行</w>
才 能</w>
弁 護</w>
ジェ リア</w>
ガ ラス</w>
隠 れ</w>
検 討</w>
探 査</w>
広 め</w>
国 連</w>
化 石</w>
キャン プ</w>
アプ リ</w>
わ れ</w>
い ずれ</w>
重 大</w>
浮 か
取り 除</w>
ニ -</w>
ま あ</w>
さ ま
a l
西 洋</w>
手 助け</w>
予 算</w>
イス ラ
i P
e s
故 郷</w>
仕 方</w>
世 の
ティ ア</w>
ま え</w>
あ あ</w>
世の 中</w>
ンティ ティ</w>
ホル モン</w>
ッ キ</w>
シュ タ
アイデ ンティティ</w>
1 8
金 融</w>
無 料</w>
次 第</w>
怒 り</w>
パン ジ</w>
き 合</w>
k m</w>
- ツ</w>
設 立</w>
要 求</w>
行 け</w>
悲 し</w>
バ チ</w>
セン サ</w>
ア ル</w>
しば らく</w>
衛 生</w>
特 許</w>
対 称</w>
入 り</w>
ラ ル</w>
ウェブ サイト</w>
き 出</w>
購 入</w>
詳 し</w>
焦 点</w>
数 え</w>
報 酬</w>
回 路</w>
去 年</w>
借 り</w>
体 重</w>
ル タ</w>
プラ スチ
ハ リ
エジ プト</w>
さ ら</w>
さ あ</w>
ぐ らい</w>
遠 く</w>
無 駄</w>
最 新</w>
展 開</w>
否 定</w>
劇 的</w>
プラスチ ック</w>
イスラ エル</w>
臨 床</w>
実 践</w>
スキ ル</w>
背 景</w>
直 感</w>
現 地</w>
接 続</w>
展 示</w>
人 気</w>
交 換</w>
ワ -</w>
ホ -</w>
テ キ
ソフ ト</w>
エ リ
ら せ</w>
黄 色</w>
願 い</w>
連 絡</w>
血 液</w>
立ち 上げ</w>
療 法</w>
男 女</w>
合 成</w>
住 民</w>
サ ル</w>
もの すご</w>
練 習</w>
数 値</w>
急 速</w>
き ち
追 跡</w>
大 抵</w>
場 面</w>
た ―</w>
説 得</w>
激 し</w>
学 び</w>
作 家</w>
一 致</w>
メ キシ
ト -ク</w>
お 前</w>
いろ んな</w>
販 売</w>
昆 虫</w>
レ ン</w>
フィ ス</w>
ゴ ミ</w>
ア ウ
つ いに</w>
軌 道</w>
担 当</w>
折 り
投 げ
代 表</w>
事 例</w>
ワ -ド</w>
規 制</w>
暮 らし</w>
容 易</w>
乗り 越え</w>
フ リ</w>
エンジ ン</w>
ア リ
わ し</w>
し 遂げ</w>
電 池</w>
議 会</w>
特 性</w>
尽 く</w>
分 解</w>
再 現</w>
メン バ</w>
コン トロ</w>
め 込</w>
きち んと</w>
睡 眠</w>
当 ては
寄 付</w>
他 者</w>
ン ズ</w>
メキシ コ</w>
プレ ゼ
トラ ック</w>
セ ット</w>
スト ラリア</w>
と り
静 か</w>
見 事</w>
薬 物</w>
聴 衆</w>
耐 え</w>
独 自</w>
温 暖</w>
成 し遂げ</w>
主 に</w>
メ ス</w>
フラン シ
サイ クル</w>
か れ</w>
おか し</w>
- バ</w>
運 命</w>
洞 窟</w>
典 型</w>
ラ ク
ブロ グ</w>
シ ナ
し ゃ
食 糧</w>
祖 父</w>
対 策</w>
好 奇</w>
基 盤</w>
ボ -ル</w>
ブ ランド</w>
フ ロ
シン トン</w>
i c
I T</w>
被 験</w>
以 内</w>
フ ァ</w>
ッ プ
し ば</w>
長 年</w>
結び つけ</w>
バ ック</w>
ナ ス</w>
な に</w>
し も</w>
進 行</w>
血 管</w>
眺 め</w>
看 護</w>
指 示</w>
批 判</w>
慣 れ</w>
幸 い</w>
バク テリア</w>
イ ド</w>
イ タ
や が
驚 き</w>
史 上</w>
候 補</w>
体 制</w>
ワ シントン</w>
アラ ブ</w>
せ よ</w>
す ―</w>
繋 がり</w>
意 義</w>
傾 け</w>
交 流</w>
イ エ
やが て</w>
高 齢</w>
配 列</w>
正 義</w>
兵 器</w>
ボ ラン
デ イ
サン プル</w>
り 合</w>
も そ
話 し</w>
恒 星</w>
妊 娠</w>
ト ル
音 声</w>
金 属</w>
論 理</w>
動 機</w>
具 体</w>
一 連</w>
19 8
部 門</w>
真 剣</w>
廃 棄</w>
交 渉</w>
オ フィス</w>
イ ッチ</w>
もそ も</w>
永 遠</w>
ジャ ン
たど り着</w>
しば しば</w>
設 定</w>
衝 撃</w>
編 集</w>
液 体</w>
水 中</w>
標 準</w>
性 的</w>
取り 戻</w>
分 類</w>
ネ ズ
ツ イ
れ い</w>
降 り</w>
自 殺</w>
習 慣</w>
放 出</w>
嫌 い</w>
優 先</w>
ミ ニ
ブ レ
や っと</w>
っ し
ざ る</w>
駐 車</w>
食 物</w>
経 営</w>
笑 い</w>
入 力</w>
免 疫</w>
ア マ
ちゃ んと</w>
そ もそも</w>
き ゃ</w>
7 5</w>
皮 質</w>
モ ア</w>
ボラン ティア</w>
途 中</w>
知 覚</w>
時 々</w>
地 区</w>
一 種</w>
ジ ラ</w>
シ リ
ク レ
ま い</w>
き れい</w>
融 合</w>
支 払</w>
マイ ル</w>
よ う
じ ゃ
開 始</w>
野 生</w>
延 び</w>
図 書</w>
吸 収</w>
保 存</w>
ミ ツ
バ ラ
ト ン
1 50</w>
外 れ</w>
中 東</w>
マイ クロ</w>
ク ジラ</w>
ざ ま</w>
え え</w>
N A
退 屈</w>
祖 先</w>
溢 れ</w>
民 族</w>
左 右</w>
ゲ イ</w>
ゲ -</w>
ウィ ン</w>
イ ト</w>
み 込</w>
量 子</w>
禁 止</w>
特 殊</w>
普 段</w>
恋 愛</w>
地 面</w>
単 位</w>
ス マ</w>
シ ョ</w>
カ -ド</w>
o m
- ティ</w>
適 用</w>
知 性</w>
時 計</w>
分 間</w>
保 障</w>
ス パ
サ ウ
ギリ シャ</w>
解 析</w>
見 解</w>
相 当</w>
推 測</w>
対 立</w>
勝 利</w>
先 端</w>
付 き</w>
不可 欠</w>
ポ リ
ナイ ジェリア</w>
h e
1 000</w>
組み 込</w>
数 千</w>
印 刷</w>
ヘ ル
ビ ッグ</w>
シュタ イン</w>
殺 人</w>
損 傷</w>
小 説</w>
地 方</w>
収 集</w>
動 画</w>
ミツ バチ</w>
ほ か</w>
ひ とり</w>
っ ぽ</w>
さま ざま</w>
顧 客</w>
質 量</w>
海 岸</w>
未 だ</w>
恩 恵</w>
実 施</w>
加 わ</w>
信 念</w>
スペ -</w>
スタ イル</w>
ジェ ンダ</w>
サ メ</w>
雑 誌</w>
議 員</w>
表 情</w>
異 常</w>
循 環</w>
哺 乳</w>
公 平</w>
レ スト
ト リ</w>
ただ し</w>
正 常</w>
悲 劇</w>
多 分</w>
周 辺</w>
右 側</w>
印 象</w>
人 権</w>
ユ ダ
ユダ ヤ</w>
プ リン
フォ -</w>
スペ イン</w>
ど う
農 家</w>
武 器</w>
合 理</w>
以 降</w>
ス キ</w>
シ ミュ
ウ ッド</w>
階 級</w>
格 差</w>
改 良</w>
抗 議</w>
抑 え</w>
扱 い</w>
左 側</w>
変 異</w>
境 界</w>
仮 想</w>
バイ オ
か し
- ラ</w>
近 所</w>
教 訓</w>
孤 独</w>
回 り</w>
原 則</w>
主 な</w>
一 人
フ ォ</w>
ピ ア
エ レ
つ な</w>
考 え
有 機</w>
文 章</w>
外 国</w>
フ ラ
ス ク
た ぶん</w>
こ ん
規 則</w>
見 つめ</w>
脳 内</w>
脂 肪</w>
発 言</w>
浮か べ</w>
未 知</w>
スタ ン
ぱ い</w>
顕 微</w>
面 積</w>
爆 弾</w>
デ モ</w>
スピ -ド</w>
グ リ</w>
考 慮</w>
熱 帯</w>
方 々</w>
ノ ル
ステ ップ</w>
r e
-プ ン</w>
群 れ</w>
屋 根</w>
嬉 し</w>
埋 め</w>
例 外</w>
低 下</w>
レスト ラン</w>
クラ ス</w>
イタ リア</w>
誤 解</w>
肥 満</w>
確 保</w>
獲 得</w>
民 間</w>
探 索</w>
採 用</w>
匂 い</w>
先 進</w>
伝 達</w>
並 べ</w>
ラ クタ</w>
チェ ック</w>
ズ ル</w>
コンピ ュ
検 証</w>
検 出</w>
成 り
悪 化</w>
恵 まれ</w>
光 景</w>
ベ -ス</w>
フランシ スコ</w>
ピ ア</w>
や く</w>
ま れ
許 可</w>
文 書</w>
懸 念</w>
徐 々</w>
同 意</w>
共 和</w>
追 求</w>
自 宅</w>
生 まれ
望 み</w>
バ ラ</w>
バ マ</w>
ナ リスト</w>
ま す</w>
ど ころ</w>
立 ち</w>
生 涯</w>
殆 ど</w>
天 然</w>
力 強</w>
ボ タン</w>
ト ム</w>
キ リスト</w>
よう やく</w>
6 00</w>
-プ ン
繁 栄</w>
探 検</w>
少 数</w>
伸 ば</w>
乗 り</w>
ッ ツ</w>
ス ピ</w>
コンピュ -タ</w>
イル カ</w>
っし ゃ</w>
いっ ぱい</w>
いっ たい</w>
e b
輸 送</w>
見 かけ</w>
切 り</w>
偏 見</w>
ル -</w>
ブ ック</w>
フ ト</w>
バイ オ</w>
カ ッ
アラ ビア</w>
ア イン
いわ ゆる</w>
連 邦</w>
翻 訳</w>
組み 立て</w>
最 適</w>
密 度</w>
合 衆</w>
北 極</w>
修 復</w>
保 険</w>
サン フランシスコ</w>
ク ライ
エンジ ニア</w>
A I</w>
連 続</w>
苦 しみ</w>
続 き</w>
収 め</w>
出 かけ</w>
一 瞬</w>
ファ イ
ヒ ント</w>
サ イン</w>
ケ ニア</w>
クリ ック</w>
アイン シュタイン</w>
で も</w>
3 5</w>
食 品</w>
閉 じ</w>
置 き
生 じ</w>
気 づ
振 動</w>
感 動</w>
大 戦</w>
変 わり</w>
問 い
住 宅</w>
ベ ル
ビ ン</w>
足 り</w>
誇 り</w>
積 み
発 想</w>
生き 延び</w>
楽 しみ</w>
壊 れ</w>
分 裂</w>
ル ズ</w>
ラ ジオ</w>
ス ロ</w>
シ ティ</w>
な み</w>
身 近</w>
皮 肉</w>
水 素</w>
慈 善</w>
地 帯</w>
力 学</w>
ス マ
コ レ
イ ズ</w>
た り
s t
部 位</w>
逃 れ</w>
知 恵</w>
無 限</w>
探 求</w>
恐 らく</w>
姿 勢</w>
国 立</w>
入 手</w>
マ ッ
グ リ
ち なみ</w>
階 段</w>
通 り
航 空</w>
抜 け
変 更</w>
反 射</w>
伸 び</w>
チ ップ</w>
ジ ェ</w>
や つ</w>
飛 ば</w>
貴 重</w>
振 る
区 別</w>
停 止</w>
ン ソン</w>
マ ラ
バ シ</w>
D P</w>
職 業</w>
社 員</w>
恐 竜</w>
安 心</w>
依 頼</w>
伝 わ</w>
仮 説</w>
プレゼ ン</w>
ド ロ
ス ウェ</w>
ほ ら</w>
じゃ あ</w>
製 作</w>
柔 軟</w>
広 ま</w>
リ ベ
ポ -ト</w>
コ -</w>
ゲ ン</w>
あ ふれ</w>
経 路</w>
細 か</w>
生 理</w>
氷 河</w>
最 低</w>
拡 張</w>
博 物</w>
世 話</w>
ス リ
て い</w>
こん に
- ケ
苦 労</w>
移 行</w>
欠 け</w>
愛 情</w>
女 子</w>
レ -</w>
ユ ニ
スキャ ン</w>
い た</w>
u b
Y ou
G DP</w>
F ac
駆 け
風 景</w>
監 督</w>
発 作</w>
生 体</w>
欧 州</w>
本 来</w>
政 権</w>
推 進</w>
奇 跡</w>
大 勢</w>
冒 険</w>
人 体</w>
マ ンス</w>
ニ ス</w>
ゾ ン</w>
ステ -ジ</w>
クリ ス
だ め</w>
き 回</w>
高 ま</w>
真 似</w>
楽 観</w>
暗 号</w>
当ては ま</w>
変 換</w>
受 容</w>
信 用</w>
プライ バシ</w>
ファ ン</w>
ファ -</w>
グラ フィ
エイ ズ</w>
かし ら</w>
2 千</w>
配 置</w>
夢 中</w>
南 アフリカ</w>
分 離</w>
克 服</w>
ル エン
ルエン ザ</w>
マイ ク</w>
ビ ジョン</w>
パ ソ
パ -</w>
チ ュ-</w>
インフ ルエンザ</w>
アン ダ</w>
い ま</w>
I S
究 極</w>
矛 盾</w>
珍 し</w>
明 日</w>
抽 象</w>
悲 しみ</w>
向 こう</w>
出 会
一 歩</w>
テロ リスト</w>
インタビ ュ</w>
し た</w>
on e</w>
違 法</w>
絶 え</w>
立ち 上が</w>
回 答</w>
受 賞</w>
サイ バ</w>
イメ -</w>
ア ニ
か め</w>
oo k</w>
9 9</w>
郊 外</w>
載 せ</w>
資 産</w>
複 製</w>
義 務</w>
書 き
ル ク</w>
ネズ ミ</w>
コ メント</w>
カ ン</w>
ら め</w>
す っかり</w>
肉 体</w>
真 っ
楽 器</w>
投 稿</w>
レン ズ</w>
ピ ン
ピ ック</w>
ド ライ
ケ ン
だ ら
頻 繁</w>
録 音</w>
過 剰</w>
濃 度</w>
形 式</w>
南 極</w>
ミ ス</w>
ベ ント</w>
パソ コン</w>
つ ま</w>
貿 易</w>
目 覚
由 来</w>
当 たり
反 映</w>
ミ ュ-</w>
フォ ン</w>
たい てい</w>
l e
閉 じ
振 り
安 価</w>
学 べ</w>
委 員</w>
地 点</w>
南 部</w>
ホ テル</w>
フェ イス</w>
ハ エ</w>
スタ ッ
ギ ン</w>
ウォ -</w>
っ こ</w>
話 せ</w>
文 学</w>
持 て</w>
手 が
態 度</w>
壮 大</w>
冗 談</w>
不 満</w>
ヴ ェ
ラ ボ</w>
ス ケ</w>
エ ンス</w>
い ら
h one</w>
需 要</w>
追 加</w>
節 約</w>
移 住</w>
番 号</w>
形 態</w>
外 交</w>
勧 め</w>
保 守</w>
事 務</w>
ロ ケット</w>
ポ ジ
ハ ム</w>
ク シ</w>
ま す
ます ます</w>
TE D
NA SA</w>
Fac eb
過 激</w>
買 い
蓄 積</w>
着 陸</w>
漫 画</w>
注 射</w>
強 制</w>
圧 力</w>
取り 付け</w>
ネット ワ</w>
シ -ン</w>
オ ラン
じ く</w>
r o
麻 痺</w>
神 話</w>
照 明</w>
渡 り</w>
彫 刻</w>
引 用</w>
タ リ</w>
セ キュ
コ ウ
キャン ペ
ア ッ
が た</w>
C O
純 粋</w>
申し 上げ</w>
性 別</w>
幼 児</w>
介 入</w>
不 幸</w>
一 定</w>
ペン ギン</w>
ピ ング</w>
パ リ</w>
ダ ウン
タイ ムズ</w>
ジ ュ-</w>
キャ ラクタ</w>
イ ベント</w>
200 8</w>
関 与</w>
話し 合</w>
継 続</w>
立ち 向か</w>
気づ き</w>
曲 線</w>
方 程</w>
得 意</w>
大 型</w>
働 き
ボ -ド</w>
バ ッ
ハ ウス</w>
ショ ック</w>
部 族</w>
負 け</w>
空 港</w>
普 及</w>
恥 ず
定 め</w>
収 穫</w>
到 着</w>
乗 せ</w>
一 時</w>
プ リ
ん 坊</w>
iP hone</w>
財 団</w>
解 剖</w>
懸 命</w>
恥ず かし</w>
当たり 前</w>
寄 り</w>
上 がり</w>
ダ ン
シ リア</w>
た ま</w>
し 出</w>
い いえ</w>
Faceb ook</w>
麻 薬</w>
赤 ん坊</w>
用 語</w>
既 存</w>
思い 浮かべ</w>
出 産</w>
パ -ト</w>
タ イ</w>
ステ ィ</w>
スタッ フ</w>
コ ピ</w>
キ スタン</w>
た ま
通 過</w>
石 炭</w>
正 当</w>
地 位</w>
合 法</w>
分 布</w>
具 合</w>
信 仰</w>
ペ ット</w>
ド リ
ゴ -ル</w>
しか け</w>
し ょ
E D</w>
20 10</w>
2 2</w>
高 価</w>
語 り
記 者</w>
腐 敗</w>
耐 性</w>
緑 色</w>
箇 所</w>
独 裁</w>
災 害</w>
標 的</w>
最 善</w>
平 方</w>
個 体</w>
主 人</w>
ロ ット</w>
レ ット</w>
ピア ノ</w>
ス イッチ</w>
シミュ レ</w>
転 換</w>
田 舎</w>
無 し</w>
歩 行</w>
極 端</w>
指 摘</w>
思 想</w>
固 定</w>
制 約</w>
内 側</w>
全 然</w>
ワ イン</w>
スピ -チ</w>
ス ポ</w>
ス ケ-</w>
ガ ンダ</w>
カ ゴ</w>
オ バマ</w>
どう ぞ</w>
と ど
だら け</w>
あ ち
集 まり</w>
踏 み
警 告</w>
花 粉</w>
熱 心</w>
有 害</w>
最 中</w>
形 作</w>
市 長</w>
告 げ</w>
同 性</w>
同 じく</w>
傷 つけ</w>
スポ -</w>
ケ ル</w>
グラ ム</w>
キ ン</w>
ガ ン
し な</w>
さ ま</w>
お もち
2 3</w>
野 菜</w>
逮 捕</w>
軍 事</w>
納 得</w>
従 業</w>
取り 込</w>
儀 式</w>
ポ スタ</w>
ハイ マ</w>
チャ ン
いわ ば</w>
r a
辞 書</w>
落ち 着</w>
登 録</w>
染 色</w>
大 いに</w>
圧 倒</w>
ラン ダム</w>
ホ ワイ
テン ツ</w>
ス ケ
ジ ック</w>
グ レ</w>
関 節</w>
苦 痛</w>
秩 序</w>
留 ま</w>
枠 組み</w>
採 取</w>
投 与</w>
問い かけ</w>
プ ス</w>
パ ネル</w>
返 し</w>
確 立</w>
温 室</w>
放 送</w>
摂 取</w>
抑 制</w>
成 人</w>
実 用</w>
厄 介</w>
勢 い</w>
利 点</w>
促 進</w>
不 正</w>
一 杯</w>
ス カ</w>
アル ツ</w>
こ な</w>
こ ち</w>
おもち ゃ</w>
いら っしゃ</w>
- ブ</w>
軍 隊</w>
解 読</w>
目 撃</w>
意 志</w>
地 震</w>
前 進</w>
事 柄</w>
ベ ルト</w>
パ フォ</w>
ニ ズム</w>
セキュ リティ</w>
カ イ
エ ク
ア カ
つ い</w>
い し</w>
P S</w>
計 測</w>
結 構</w>
素 早</w>
砂 糖</w>
眠 り</w>
後 悔</w>
冷 た</w>
保 証</w>
ワ ク</w>
レ オ</w>
リン ク</w>
エ ラ</w>
アニ メ</w>
やり 取り</w>
さ っ
M IT</w>
聖 書</w>
確 かめ</w>
招 待</w>
外 部</w>
土 壌</w>
周 波</w>
向 き合</w>
公 衆</w>
ポ ケット</w>
ボ -ト</w>
パ キスタン</w>
ノ ン</w>
ゾ ウ</w>
コン テンツ</w>
ub e</w>
c o
締 め
昨 日</w>
後 半</w>
妨 げ</w>
命 令</w>
トロ -ル</w>
サ ス</w>
キャ リア</w>
キ ロ
オラン ダ</w>
こ っち</w>
う つ</w>
19 7
連 携</w>
老 化</w>
笑 顔</w>
競 技</w>
生 殖</w>
独 特</w>
汚 職</w>
気 温</w>
指 標</w>
指 揮</w>
持ち 込</w>
当 初</w>
居 住</w>
名 付け</w>
や ら</w>
っ たり</w>
じ め</w>
o n</w>
詰 め</w>
積 極</w>
指 数</w>
戦 闘</w>
分 泌</w>
体 系</w>
中 毒</w>
ハ チ</w>
デ バイス</w>
ス クリ</w>
ぜ ひ</w>
こ の
e t
6 5</w>
韓 国</w>
豊 富</w>
発 揮</w>
片 方</w>
権 威</w>
契 約</w>
回 避</w>
レ イ</w>
サ ン</w>
コン ゴ</w>
カ 国</w>
な か
とて つ</w>
緊 急</w>
緊 張</w>
発 信</w>
海 底</w>
最 小</w>
暗 闇</w>
救 急</w>
囚 人</w>
ワク ワク</w>
リア ン</w>
ミ リ</w>
ミ ッション</w>
パ ズル</w>
トリ ック</w>
グ ランド</w>
アド バイス</w>
おか しな</w>
3 千</w>
- ン
起 源</w>
裕 福</w>
繊 維</w>
絶 望</w>
抽 出</w>
前 提</w>
出会 い</w>
公 正</w>
例 え</w>
メ カ
ボ ラ</w>
バ ンド</w>
タ グ</w>
ス クリ
り 合い</w>
なか なか</w>
な お</w>
e d
7 00</w>
麻 酔</w>
金 持ち</w>
目 の</w>
手 伝</w>
尊 厳</w>
受け 継</w>
公 表</w>
元 気</w>
修 正</w>
一 員</w>
ッ ド
シャ ツ</w>
あち こち</w>
あ が</w>
骨 格</w>
非 難</w>
賛 成</w>
解 き
糖 尿</w>
普 遍</w>
強 化</w>
取 得</w>
収 容</w>
乾 燥</w>
ロ ック</w>
ライ オン</w>
フェ ミニ
シ カゴ</w>
ク レ</w>
ガ ル</w>
カ ロ
ウ ド</w>
i s
雨 林</w>
重 視</w>
詩 人</w>
携 わ</w>
提 示</w>
捧 げ</w>
半 数</w>
北 部</w>
便 利</w>
ン グ
マ マ</w>
ポジ ティブ</w>
ボ ストン</w>
バ ル
タ ス</w>
サン ド
サ ム</w>
アマ ゾン</w>
ふ う</w>
だ い
が い</w>
か な</w>
か い</w>
You T
集 合</w>
訪 ね</w>
血 圧</w>
虐 待</w>
疲 れ</w>
留 め</w>
海 水</w>
沈 黙</w>
欲 求</w>
広 大</w>
出 現</w>
ワ ット</w>
レイ プ</w>
レ ンス</w>
プ ラン
フォ -ム</w>
ビ ッド</w>
バ レ</w>
ニ ア
ナ ノ</w>
エ ア</w>
だ れ</w>
々 し</w>
G O</w>
C E
C A</w>
19 80</w>
結び つ</w>
渋 滞</w>
最 良</w>
捕 食</w>
抗 生</w>
巻 き込</w>
名 誉</w>
合 意</w>
公 式</w>
一 言</w>
ル フ</w>
プレ イ</w>
ショ ナル</w>
コウ モリ</w>
イエ ス</w>
ふ さ
か ね</w>
か け
R I</w>
G PS</w>
- ル
講 義</w>
笑 い
無 知</w>
死 刑</w>
大 胆</w>
各 国</w>
可 視</w>
元 々</w>
ロ サン
ラ ラ
ボ ン</w>
ト ゥ
スト リ</w>
YouT ube</w>
近 代</w>
見 出し</w>
膨 張</w>
給 料</w>
相 談</w>
抜け 出</w>
強 調</w>
営 利</w>
切 断</w>
傷 つ</w>
人 材</w>
ピ ク
シ ア
200 7</w>
2 7</w>
長 生き</w>
財 産</w>
記 述</w>
紫 外</w>
早 期</w>
形 状</w>
尊 敬</w>
大 した</w>
値 段</w>
侵 入</w>
人 道</w>
三 角</w>
リ チャ</w>
マ ップ</w>
コ レ</w>
クリス マス</w>
エ ル
ひ と
M S</w>
馬 鹿
買 え</w>
英 雄</w>
自 問</w>
流 れ
毎 週</w>
次 々</w>
掛 か</w>
払 い</w>
小 型</w>
司 法</w>
分 散</w>
人 形</w>
ボ ックス</w>
ホワイ ト</w>
プリン タ</w>
デ ン
サ ル
クラ ウド</w>
エ ド
ウィ ルス</w>
t er</w>
遥 か</w>
訪 問</w>
角 度</w>
老 人</w>
絵 画</w>
潜 水</w>
治 験</w>
有 用</w>
数 々</w>
投 げ</w>
悲 惨</w>
復 活</w>
従 事</w>
天 体</w>
判 明</w>
入 り
休 暇</w>
ポ ル
プログラ ミング</w>
ヒ -</w>
テキ スト</w>
セン チ</w>
スタ ジオ</w>
キャンペ -ン</w>
オ ペ
エ ット</w>
200 9</w>
部 隊</w>
読 者</w>
相 対</w>
模 型</w>
有 益</w>
掲 載</w>
分 かれ</w>
保 健</w>
使 命</w>
交 わ</w>
プロ ト
ジ ム</w>
シ ル
グラフィ ック</w>
ア -ト</w>
この 世</w>
う つ
諦 め</w>
話 しかけ</w>
見 分け</w>
活 発</w>
引き 出</w>
太 平</w>
天 井</w>
埋 め込</w>
原 始</w>
出 発</w>
伝 染</w>
予 期</w>
ワ ン</w>
ボ トル</w>
ビ ット</w>
ニ -ズ</w>
ナ ノ
ダ ウン</w>
コロ ン
クリ エイ
オ リン
い まだ</w>
3 2</w>
表 れ</w>
置き 換え</w>
植 え</w>
根 拠</w>
教 科</w>
失 調</w>
外 側</w>
世 間</w>
メ ン</w>
マ グロ</w>
ポ ンド</w>
ハ ラ</w>
ナ ルド</w>
トン ネル</w>
ジ ン</w>
カ ウン
ま だ
項 目</w>
遭 遇</w>
調 和</w>
診 察</w>
視 野</w>
自 国</w>
統 治</w>
生 え</w>
敬 意</w>
成り 立</w>
帝 国</w>
器 具</w>
商 業</w>
中 間</w>
タイ ミング</w>
クラ ブ</w>
は り</w>
は い</w>
驚 異</w>
途 方</w>
自 律</w>
背 中</w>
無 線</w>
洗 練</w>
捕 まえ</w>
尊 重</w>
嫌 悪</w>
大 幅</w>
伐 採</w>
ロ -</w>
マイ ケル</w>
トル コ</w>
オ レンジ</w>
や はり</w>
じ っと</w>
\ &</w>
CO 2</w>
繰 り
立 派</w>
愚 か</w>
子 孫</w>
天 文</w>
代 謝</w>
ポ -</w>
バ リ
シリ コン</w>
り 物</w>
ゆ え</w>
と らえ</w>
M RI</w>
青 年</w>
都 会</w>
構 想</w>
成 分</w>
慈 悲</w>
応 え</w>
勇 敢</w>
代 替</w>
不 快</w>
リ ス</w>
ハ イ</w>
8 00</w>
19 90</w>
飲 み
閉じ 込め</w>
行 進</w>
行 な</w>
著 作</w>
神 秘</w>
直 線</w>
消 化</w>
本 日</w>
本 人</w>
客 観</w>
姉 妹</w>
好 み</w>
作 物</w>
任 せ</w>
ニ ュ
ト ラ</w>
ア ナ
わ ざ
ふさ わし</w>
き れ</w>
およ び</w>
19 6
19 50</w>
首 相</w>
関 わり</w>
邪 魔</w>
繁 殖</w>
格 好</w>
宣 伝</w>
働き かけ</w>
バ カ</w>
ハイ チ</w>
セ ンス</w>
コン セ
コ メ
カ ル</w>
ま わ</w>
ば あ</w>
と れ</w>
頑 張</w>
設 備</w>
記 号</w>
親 し</w>
見 い
背 後</w>
着 け</w>
無 数</w>
無 人</w>
海 外</w>
売 買</w>
午 後</w>
創 作</w>
仮 定</w>
交 差</w>
争 い</w>
不 要</w>
メカ ニズム</w>
ベ スト</w>
プラ ット
ネットワ -</w>
ト レ
ス ラム</w>
まだ まだ</w>
さ さ
p p
C D</w>
馬鹿 げ</w>
賃 金</w>
読 め</w>
職 員</w>
漁 業</w>
沿 岸</w>
曲 が</w>
必 死</w>
処 方</w>
全 国</w>
人 数</w>
上 司</w>
フィ ア</w>
チョ コレ</w>
シ ング</w>
カロ リ</w>
ア パ-ト</w>
馬 鹿</w>
路 上</w>
正 解</w>
本 能</w>
常 識</w>
対 抗</w>
器 官</w>
内 戦</w>
光 栄</w>
仕 掛け</w>
ワ ンダ</w>
ロ バ</w>
パ レ
バ イ</w>
セ ル
アウ ト</w>
そ ば</w>
200 5</w>
重 な</w>
送 信</w>
資 料</w>
虐 殺</w>
莫 大</w>
脅 か</w>
精 度</w>
照 ら</w>
栽 培</w>
工 業</w>
売 春</w>
培 養</w>
勿 論</w>
切り 離</w>
余 地</w>
任 務</w>
マ リア</w>
フ ェ</w>
バ ナ
ハリ ウッド</w>
ド リ</w>
ゼ ルス</w>
ク ト
か わ
1 ,000</w>
- タ
風 力</w>
連 鎖</w>
負 担</w>
見 な</w>
翌 日</w>
性 能</w>
大 衆</w>
地 理</w>
別 れ</w>
健 全</w>
一 見</w>
ラ テン</w>
マン モ
ヘ リ
ブル -</w>
コンセ プト</w>
コン トロ-ル</w>
ゲ ット</w>
グラ ス</w>
オ タ
ウィ キ
ひ っ
こんに ち
9 5</w>
- ズ
電 球</w>
電 波</w>
逃 げ
農 場</w>
軍 人</w>
警 官</w>
試 合</w>
設 け</w>
笑い 声</w>
発 症</w>
永 久</w>
手 順</w>
想 定</w>
延 ば</w>
大き さ</w>
大 体</w>
ロサン ゼルス</w>
ラ リ</w>
シェ ア</w>
オ ロ
r i
T w
20 11</w>
頻 度</w>
隣 人</w>
試 作</w>
舞 い</w>
胎 児</w>
目覚 め</w>
発 光</w>
理 性</w>
極 め</w>
幻 覚</w>
天 才</w>
基 金</w>
個 性</w>
テ リ</w>
テ ク</w>
タ バ
タ ウン</w>
ジョ -</w>
コ カ
ギャ ップ</w>
カ ラ
オ フ</w>
ウ ォ</w>
イ ヤ</w>
イ ア</w>
ア ダム</w>
の ぼ</w>
とど ま</w>
うつ 病</w>
2 8</w>
飢 餓</w>
習 得</w>
海 面</w>
洗 濯</w>
水 準</w>
欲 望</w>
機 構</w>
接 触</w>
性 格</w>
幅 広</w>
寛 容</w>
宣 言</w>
孤 立</w>
夕 食</w>
地 表</w>
吹 き
リ サイクル</w>
ファ イル</w>
ネ コ</w>
ニ ン</w>
ナ ム</w>
オ リ
ウ マ</w>
と も
う れ
o l
c m</w>
N GO</w>
20 15</w>
2 50</w>
1 0
面 倒</w>
蔓 延</w>
脊 髄</w>
聴 覚</w>
網 膜</w>
生 か</w>
死 者</w>
検 知</w>
教 わ</w>
打ち 上げ</w>
広 がり</w>
各 地</w>
取 材</w>
叔 父</w>
不 明</w>
ペ ン</w>
ヘ ン
ビ リ</w>
ツイ ッタ</w>
シャ ル
コン クリ</w>
ケ -ス</w>
て ―</w>
つな げ</w>
こんにち は</w>
k g</w>
階 層</w>
訴 訟</w>
記 念</w>
親 友</w>
神 聖</w>
生き 残</w>
比 喩</w>
模 様</w>
明 け</w>
搭 載</w>
掲 げ</w>
排 除</w>
急 激</w>
忙 し</w>
増 殖</w>
四 角</w>
収 益</w>
レ ッ
ライ フ</w>
ノル ウェ</w>
スティ ン</w>
ク モ</w>
キ ッ
キ ス</w>
イ カ</w>
の り</w>
あ ん
CE O</w>
19 5
開 催</w>
金 額</w>
辞 め</w>
診 療</w>
考 案</w>
書 類</w>
断 片</w>
拒 絶</w>
徹 底</w>
待 ち
入 り込</w>
下 り</w>
一 切</w>
ロ グ</w>
マ ネ</w>
ポ ン
ベ ット</w>
バラ バラ</w>
バ レ
デ ス</w>
ソ リン</w>
ス イス</w>
ガ ソリン</w>
ま わり</w>
i r
19 70</w>
頭 蓋</w>
頭 脳</w>
聞 き
直 前</w>
洞 察</w>
欠 陥</w>
明 白</w>
押 し</w>
広 場</w>
帽 子</w>
出来 上が</w>
使 い</w>
何 者</w>
ラ ミ
デ -ト</w>
チャ レンジ</w>
タイ トル</w>
スクリ -ン</w>
ク マ</w>
お 腹</w>
- グ</w>
都 合</w>
道 のり</w>
送 り</w>
詰 ま</w>
親 戚</w>
職 人</w>
水 分</w>
横 断</w>
感 知</w>
心 地</w>
地 質</w>
唱 え</w>
住 人</w>
付 け
付 き
マン ハッ
マンハッ タン</w>
ト ランス</w>
テキ サス</w>
サイ ド</w>
サ ポ-ト</w>
クリ ン</w>
エ リア</w>
ぶ つか</w>
か き
うれ し</w>
あ い
飛び 込</w>
震 え</w>
野 球</w>
落ち 込</w>
膨 ら</w>
短 期</w>
直 し</w>
推 定</w>
意 欲</w>
意 外</w>
多 少</w>
吸 い
即 座</w>
化 合</w>
動 脈</w>
前 頭</w>
冷 蔵</w>
児 童</w>
リベ ラル</w>
リ ック</w>
ヘ ルス</w>
バ リ</w>
ナ ン
スト リ
シナ リオ</w>
コ マ</w>
カ ス</w>
る 気</w>
よ し</w>
I D
電 車</w>
追い かけ</w>
持ち 帰</w>
大 西</w>
外 見</w>
先 週</w>
リン ゴ</w>
ヒ ッ
ハッ カ</w>
ネ イ
ス ラ</w>
サ ハラ</w>
キ -</w>
オ カ
エ ボラ</w>
エ ピ
とり わけ</w>
き つけ</w>
Tw it
19 60</w>
論 争</w>
親 切</w>
補 助</w>
腎 臓</w>
縮 小</w>
社 交</w>
直 後</w>
生 み
深 海</w>
流 出</w>
拒 否</w>
快 適</w>
小 屋</w>
前 向き</w>
事 象</w>
両 者</w>
レ ゴ</w>
ル ド
マイ ナス</w>
ポ リオ</w>
ベ ト
プ レ</w>
プ タ</w>
ゴ ン</w>
ウ ガンダ</w>
や れ</w>
お いし</w>
P C</w>
2 9</w>
飛 躍</w>
潜 在</w>
染 み</w>
果 て</w>
憲 法</w>
引っ 張</w>
女 王</w>
合 計</w>
勝 手</w>
劇 場</w>
代 わ</w>
ル ワンダ</w>
プラット フォ-ム</w>
プ ラン</w>
ピ ン</w>
ビ ング</w>
ダ ル</w>
つ ま
っ ぱ
だい たい</w>
き 声</w>
R IS
B I</w>
頂 点</w>
限 定</w>
言い 換え</w>
見 上げ</w>
複 合</w>
深 め</w>
浴 び</w>
朝 鮮</w>
支 出</w>
投げ かけ</w>
宿 題</w>
周 期</w>
修 理</w>
中 身</w>
上 位</w>
ラ ット</w>
ム ス</w>
ボ ル
ペ -</w>
バッ テリ</w>
ネ ガ
ジェ イ
ジ ット</w>
カッ プル</w>
こ だ
1 20</w>
騒 音</w>
疑 い</w>
率 直</w>
父 母</w>
木 々</w>
天 気</w>
初 頭</w>
保 持</w>
レン ド</w>
ベ リ</w>
ブリ ッジ</w>
バイ ク</w>
バイ ア
タ リ
スト ロ
カ バ</w>
オロ ギ</w>
ぴ ったり</w>
o t
飛び 出</w>
警 備</w>
視 聴</w>
西 欧</w>
窒 素</w>
産 物</w>
武 装</w>
時 速</w>
損 な</w>
家 具</w>
多 大</w>
呼び かけ</w>
先 程</w>
倒 れ</w>
個 別</w>
ロ -マ</w>
リ ソ-</w>
マ シ</w>
ベト ナム</w>
バ ッグ</w>
しょ う</w>
く っ
Twit ter</w>
3 6</w>
20 12</w>
2 6</w>
1 80</w>
類 似</w>
遺 産</w>
識 別</w>
諸 島</w>
調 理</w>
結 核</w>
精 子</w>
無 力</w>
混 ぜ</w>
水 面</w>
明 か</w>
整 理</w>
慎 重</w>
役 目</w>
引き 上げ</w>
国 籍</w>
原 動</w>
内 向</w>
使 い
ラミ ッド</w>
マ スタ</w>
ベ ン</w>
ブラ ウン</w>
ファ ッション</w>
ピ ラミッド</w>
ナ ミ
スタ -ト</w>
シ ック</w>
ク トル</w>
カ 月</w>
ん ざ
や る気</w>
あ んな</w>
a g
W e
貯 蓄</w>
示 唆</w>
知 らせ</w>
特 有</w>
洪 水</w>
殺 害</w>
未 満</w>
採 掘</w>
技 能</w>
実 在</w>
大 脳</w>
創 り出</w>
処 女</w>
作 曲</w>
メ タ
ペ -ス</w>
パレ スチ
パレスチ ナ</w>
ドラ ッグ</w>
ト マ
ト フォン</w>
スティ -</w>
コロン ビア</w>
カ タ
エ キ
も と
i v
4 7</w>
通 貨</w>
迅 速</w>
立ち 止ま</w>
新 生</w>
損 失</w>
抑 圧</w>
天 国</w>
回 収</w>
協 会</w>
人 格</w>
一人 一人</w>
リ ダ</w>
ライ フ
バ タ</w>
タバ コ</w>
スタン フォ-ド</w>
ザ メ</w>
キッ チン</w>
エ コ
ウェ イ</w>
ウィキ ペ
はじ めて</w>
し たが</w>
e s</w>
6 千</w>
200 4</w>
高 等</w>
阻 止</w>
違 え</w>
返 事</w>
誘 惑</w>
見 知</w>
著 し</w>
秘 め</w>
症 候</w>
波 長</w>
気 味</w>
慢 性</w>
恋 人</w>
子 育て</w>
子 宮</w>
大 臣</w>
固 有</w>
喪 失</w>
同 一</w>
加 工</w>
作 動</w>
企 画</w>
介 護</w>
モ ニ
マ ジック</w>
ブ ン</w>
ブ ド
フロ リダ</w>
ビ -チ</w>
ディ ング</w>
コ イン</w>
グラ マ</w>
グ ス</w>
イン ド
アイ ル
ん だ
で き
そ り</w>
e c
4 千</w>
駄 目</w>
養 殖</w>
通 し</w>
賭 け</w>
誤 り</w>
試 行</w>
見 渡</w>
行 政</w>
肝 臓</w>
瞑 想</w>
目 立</w>
滞 在</w>
法 的</w>
歓 迎</w>
敏 感</w>
掃 除</w>
手が かり</w>
尽 き</w>
小 児</w>
塩 基</w>
受 信</w>
下 ろ</w>
上 下</w>
一 貫</w>
レ シ
ミ ルク</w>
フィ ン</w>
ナイ フ</w>
ドラ マ</w>
ド ン</w>
ディ -</w>
ツイ -ト</w>
ット ル</w>
タ スク</w>
サイ エンス</w>
キ ノ
カ ット</w>
インタビ ュ-</w>
アイル ランド</w>
わ さ</w>
り 上げ</w>
やり とり</w>
さっ き</w>
さ か
お い</w>
除 去</w>
避 難</w>
近 隣</w>
財 政</w>
証 言</w>
火 山</w>
溶 け</w>
歩 き回</w>
模 索</w>
方 針</w>
専 用</w>
執 筆</w>
団 結</w>
同 等</w>
医 薬</w>
別 々</w>
侵 害</w>
不 全</w>
ラ シ</w>
ブ タ</w>
フィ ルタ</w>
フィ ル
ト ・</w>
テ ナ</w>
ック ス
セ ン</w>
ジェ ット</w>
サ ラ
コ ネ
ク レイ
つ き
た ん</w>
co m</w>
馴 染み</w>
錯 覚</w>
野 心</w>
贈 り物</w>
調 節</w>
税 金</w>
演 劇</w>
模 倣</w>
操 縦</w>
探 し</w>
折り 紙</w>
家 畜</w>
季 節</w>
ロ -ド</w>
ピン ク</w>
パタ -</w>
ネガ ティブ</w>
ッ サ</w>
ジ ュ</w>
オリン ピック</w>
オ キシ
ウェ ル</w>
ウィキペ ディア</w>
アル バ
ア ント</w>
んだ ん</w>
そ ろ</w>
P R</w>
200 6</w>
解 け</w>
知 り合い</w>
率 い</w>
海 賊</w>
決 意</w>
歩 道</w>
曖 昧</w>
承 認</w>
巻 き
存 続</w>
妊 婦</w>
助 言</w>
判 決</w>
全 身</w>
入 院</w>
保 全</w>
ロ -プ</w>
ル -ト</w>
マ -</w>
ホ -ル</w>
ビ -ル</w>
ネ シア</w>
ナ ショナル</w>
テ ゴ
ス -</w>
ショ ッ
エ チ
お も
i d
-タ ベ-ス</w>
- ア</w>
遺 体</w>
遠 ざ
身 の
賢 明</w>
買い 物</w>
調 達</w>
規 範</w>
著 書</w>
緩 和</w>
系 統</w>
相 関</w>
男 子</w>
欧 米</w>
整 え</w>
教 員</w>
実 質</w>
夫 婦</w>
夜 中</w>
収 縮</w>
単 一</w>
午 前</w>
ホ ッ
ヘン リ</w>
ブ ライ
フェミニ スト</w>
パ クト</w>
トラ ウマ</w>
デ ュ
テ ント</w>
ッ ツ
スト ラ</w>
サ ッカ</w>
コ ル
わ ざ</w>
っ ち
O K</w>
5 000</w>
鳴 ら</w>
頭 痛</w>
電 極</w>
遠 隔</w>
資 格</w>
謙 虚</w>
視 力</w>
蒸 気</w>
盲 目</w>
特 権</w>
燃 え</w>
欠 かせ</w>
様 式</w>
根 絶</w>
核 心</w>
支 払い</w>
振る 舞い</w>
年 寄り</w>
展 覧</w>
売 れ</w>
地 中</w>
受け 止め</w>
半 ば</w>
割 り
余 裕</w>
体 温</w>
マ リ</w>
ショ ップ</w>
ゴ ス</w>
クリエイ ティブ</w>
ガ イ
オ オカ
ア イ</w>
んざ り</w>
な る
とん でも</w>
だ んだん</w>
た ど</w>
た え</w>
う んざり</w>
h a
-プン ソ-</w>
電 源</w>
閉 鎖</w>
近 年</w>
誠 実</w>
表 紙</w>
脆 弱</w>
福 祉</w>
植 民</w>
掘 り
少 々</w>
対 照</w>
実 証</w>
失 業</w>
大 使</w>
切り 替え</w>
プ ラ</w>
フィ リ
ファ レンス</w>
チ ック</w>
スマ ホ</w>
スピ レ</w>
ク ッキ</w>
キノ コ</w>
あ て</w>
頼 り</w>
面 目</w>
離 婚</w>
金 曜</w>
身の 回り</w>
見 直</w>
背 負</w>
直 径</w>
狩 り</w>
牧 師</w>
権 限</w>
圧 縮</w>
合 わさ</w>
勢 力</w>
処 置</w>
些 細</w>
世 論</w>
レ ム</w>
マ ク
ポ -ル</w>
プリ ント</w>
ノ イズ</w>
ド キュ
ト ニ</w>
テゴ リ</w>
チ リ</w>
ダ ニ</w>
カ テゴリ</w>
イン スピレ</w>
イ デ
ぶ り</w>
さら なる</w>
頂 上</w>
退 役</w>
近 づけ</w>
行 え</w>
蛍 光</w>
老 い</w>
演 説</w>
死 因</w>
捜 査</w>
振る 舞</w>
打 ち</w>
心 拍</w>
建 造</w>
山 脈</w>
基 地</w>
因 子</w>
喫 煙</w>
北 朝鮮</w>
再 建</w>
入 れ
ブ ッシュ</w>
デ レ
キロ メ</w>
カ エル</w>
び っくり</w>
たま たま</w>
た て</w>
こ し</w>
l i
a l</w>
P T
8 5</w>
黄 金</w>
順 番</w>
降 り
違 反</w>
進 展</w>
趣 味</w>
評 判</w>
見 込み</w>
見 方</w>
蓄 え</w>
著 者</w>
聞 き</w>
秘 訣</w>
毎 朝</w>
拷 問</w>
思い 込</w>
思 春</w>
彗 星</w>
張 り</w>
引 き</w>
実 感</w>
好 まし</w>
列 車</w>
主 導</w>
上 空</w>
ロ ビ</w>
ラン プ</w>
ブ ラ</w>
バ -ド</w>
ジ シャ
コン サ</w>
オオカ ミ</w>
ア シ
き らめ</w>
o f
F BI</w>
C A
-ケ ティング</w>
- キ
送 り込</w>
身 長</w>
空 中</w>
祈 り</w>
津 波</w>
死 体</w>
正 面</w>
業 者</w>
来 年</w>
曲 げ</w>
暖 か</w>
昼 食</w>
投 入</w>
快 楽</w>
必 須</w>
強 烈</w>
定 期</w>
大 い
大い なる</w>
売 り</w>
努 め</w>
伸 べ</w>
休 み</w>
リ カン</w>
ペ ル
ブ リ</w>
パ ミン</w>
ディ アン</w>
グラ フィ</w>
カ ップ</w>
こ も</w>
あ っ</w>
l d
L A</w>
I n
3 7</w>
3 3</w>
20 50</w>
高 層</w>
頂 け</w>
闘 争</w>
話し 合い</w>
総 合</w>
穀 物</w>
真 面目</w>
燃 や</w>
毎 回</w>
楽 しめ</w>
暴 動</w>
文 句</w>
救 え</w>
描 写</w>
探 し
拡 散</w>
度 合い</w>
夢 見</w>
即 興</w>
出 席</w>
内 面</w>
先 祖</w>
先 住</w>
僅 か</w>
伝 説</w>
予 言</w>
上 回</w>
ン トン</w>
レ オ
メ ロ
プログラ マ</w>
パイ ロット</w>
バン ク</w>
バイア ス</w>
トラン プ</w>
ト シン</w>
デイ ビッド</w>
デ ルタ</w>
テ -プ</w>
スケ ッチ</w>
ゲ イツ</w>
イ ラ</w>
200 3</w>
200 1</w>
- グル</w>
高 級</w>
香 り</w>
食 い
音 響</w>
読み 書き</w>
観 念</w>
製 薬</w>
精 密</w>
研 修</w>
着 手</w>
発 行</w>
消 防</w>
決 心</w>
標 識</w>
朝 食</w>
待 ち</w>
媒 体</w>
変 容</w>
信 条</w>
今 夜</w>
乗 客</w>
一 旦</w>
マ リ
ホ ット</w>
ヘ ビ</w>
ハイ テク</w>
ニ コ
ディ ン</w>
ティ ック</w>
チャン ネル</w>
セ ラ
スペ クトル</w>
シナ プス</w>
シ ロ
ゴ ム</w>
クラ ゲ</w>
オキシ トシン</w>
ア ポ
か 所</w>
あん た</w>
ありが た</w>
L ED</w>
防 止</w>
開 放</w>
貴 方</w>
課 程</w>
覚 ま</w>
蚊 帳</w>
育 ち</w>
祖 父母</w>
画 家</w>
独 創</w>
済 み</w>
流 通</w>
検 閲</w>
寄 生</w>
孤 児</w>
妥 協</w>
均 衡</w>
協 働</w>
分 割</w>
付 き合</w>
ラク ダ</w>
ライ ブ</w>
ミ ックス</w>
ポン プ</w>
プレ イヤ</w>
ビ -</w>
ヒ ュ-</w>
テ スラ</w>
チ ュ</w>
シ フト</w>
コメ ディ</w>
オ ックス
ウィ リア
ウ ンド</w>
アカ デ
も ん</w>
ば つ</w>
つ か
っ ぷ
S t
- リ</w>
魅 了</w>
音 波</w>
霊 長</w>
防 衛</w>
酵 素</w>
選 べ</w>
軽 減</w>
責 め</w>
言 及</w>
衝 動</w>
行 い</w>
血 流</w>
美 味
美味 し</w>
繰り 返し</w>
繋 げ</w>
終 了</w>
細 部</w>
突き 止め</w>
病 原</w>
清 掃</w>
毎 晩</w>
株 式</w>
新 種</w>
政 党</w>
据 え</w>
手 続き</w>
引き 寄せ</w>
帰 宅</w>
差し 伸べ</w>
勝 ち
付け 加え</w>
乳 がん</w>
並 み</w>
不 能</w>
メ ディ
マ インド</w>
フィ -</w>
フ ロ</w>
ヒ ット</w>
タ ミン</w>
シ グ
ク マ
オ ピア</w>
エチ オピア</w>
ど おり</w>
づ くり</w>
おも しろ</w>
e t</w>
ID S</w>
A T
逃げ 出</w>
許 容</w>
解 像</w>
落 下</w>
航 海</w>
聞 かせ</w>
法 案</w>
整 備</w>
怯 え</w>
微 妙</w>
小 麦</w>
地 形</w>
味 方</w>
味 わ</w>
務 め</w>
公 民</w>
ワ イ</w>
リ -ド</w>
ボ ブ</w>
ホ モ</w>
フレ -ズ</w>
ヒ ョ
ト ゥ</w>
ス ル</w>
クライ アント</w>
ウ バ
イデ オロギ</w>
ア ナ</w>
つ ら</w>
く り
が け</w>
い や
あり ふれ</w>
h o
T he
S F</w>
送 り
踏み 入れ</w>
解 消</w>
統 一</w>
玄 関</w>
特 異</w>
泳 ぎ</w>
殺 虫</w>
格 子</w>
本 気</w>
景 色</w>
接 種</w>
我 慢</w>
悪 魔</w>
怪 我</w>
履 歴</w>
学 位</w>
双 方</w>
及 び</w>
区 画</w>
判 事</w>
公 的</w>
伝 い</w>
他 国</w>
事 項</w>
ワイ ヤ</w>
メン タリ</w>
メ リ
ホ ロ
ベ イ</w>
フラン ク</w>
ピ -ス</w>
デ -</w>
テ ッド</w>
ア ミ
ひ げ</w>
ね え</w>
と こ</w>
a s
N SA</w>
19 0</w>
隔 離</w>
間 違え</w>
辿 り着</w>
車 輪</w>
越 し</w>
見 極め</w>
荷 物</w>
肥 料</w>
経 過</w>
等 し</w>
無 くな</w>
注 入</w>
料 金</w>
提 出</w>
成 立</w>
失 礼</w>
国 中</w>
全 米</w>
全 土</w>
入 学</w>
一 面</w>
レ ッド</w>
リ ットル</w>
メ ット</w>
マラ ソン</w>
マ ット</w>
ビデ オ
ハッ キング</w>
ドキュ メンタリ</w>
ド ラム</w>
ッ サ
タリ バン</w>
スティ ック</w>
スコ ット
ジシャ ン</w>
シュ -ト</w>
コン ド</w>
コ プタ</w>
エン トロ
エ ゴ</w>
の け</w>
とも かく</w>
た た</w>
あ く
in g</w>
- ルド</w>
鳴 き声</w>
順 調</w>
障 壁</w>
鉄 道</w>
遊 び
連 合</w>
辺 り</w>
農 民</w>
輸 出</w>
路 線</w>
脱 出</w>
義 足</w>
書 け</w>
日 光</w>
振 り</w>
抜 き</w>
手 伝い</w>
工 程</w>
岩 石</w>
妄 想</w>
国 会</w>
可 愛</w>
作 戦</w>
余 分</w>
他 方</w>
中 流</w>
レン マ</w>
メ モリ</w>
ベン チャ</w>
ニ エル</w>
ドライ バ</w>
ッ パ</w>
タ クシ</w>
カン ファレンス</w>
オックス フォ-ド</w>
オ ブ</w>
アルバ ム</w>
ア ム</w>
ま ぁ</w>
く わ
l o
We b</w>
4 8</w>
飢 え</w>
順 位</w>
開 拓</w>
遣 い</w>
退 職</w>
返 り</w>
走 り
賛 同</w>
突 如</w>
渡 し</w>
流 動</w>
注 文</w>
死 滅</w>
明 かり</w>
文 献</w>
披 露</w>
所 属</w>
当 局</w>
引っ 越</w>
干 ばつ</w>
工 夫</w>
同 情</w>
匿 名</w>
北 京</w>
創 出</w>
前 後</w>
兆 候</w>
余 剰</w>
主 観</w>
ヵ 月</w>
メ ガ
マ スク</w>
ブ ロ</w>
ビ ル
パラ ダイ
ド ナ</w>
デ ル
デ ラ</w>
ダ メ
スコット ランド</w>
ス リン</w>
ス ランド</w>
ス ノ</w>
ジャ ック</w>
ジェ -</w>
ジ レンマ</w>
コ ップ</w>
グ レ
エイ ミ</w>
アメ リカン</w>
ア トラン
と う
そ ろ
し く</w>
さ ほど</w>
あ きらめ</w>
t h
W or
4 2</w>
雰 囲
雰囲 気</w>
貯 蔵</w>
見 れ</w>
西 側</w>
装 飾</w>
考え 出</w>
紀 元</w>
発 掘</w>
用 途</w>
生 地</w>
爆 撃</w>
活 気</w>
欠 如</w>
散 歩</w>
提 唱</w>
感 じ
必 然</w>
専 攻</w>
密 接</w>
学 術</w>
品 質</w>
収 ま</w>
原 油</w>
単 独</w>
半 球</w>
削 除</w>
出 演</w>
元 素</w>
事 前</w>
一 層</w>
ロ ゴ</w>
レシ ピ</w>
リ ラ</w>
ミ シ
ボ ル</w>
ブル ッ
デレ ク</w>
テロ メ
ダイ エット</w>
セ ミ
スト ロ</w>
スコ ア</w>
グ ロ
オタ ク</w>
エ スト</w>
インド ネシア</w>
ら われ</w>
め き</w>
ま つ
ふ た</w>
さ し</w>
いか なる</w>
あ わせ</w>
u n
1 7
1 30</w>
飲 み込</w>
通り 抜け</w>
踏 み出</w>
経 歴</w>
素晴 し</w>
簡 潔</w>
空 想</w>
症 例</w>
狩 猟</w>
浸 透</w>
法 廷</w>
気 球</w>
残 酷</w>
有 罪</w>
是 非</w>
新 規</w>
文 脈</w>
持ち 合わせ</w>
慣 習</w>
忍 耐</w>
役 者</w>
崩 れ</w>
嫉 妬</w>
大 地</w>
困 惑</w>
受 精</w>
北 米</w>
出 力</w>
保 管</w>
人 身</w>
モ バイ
メ タン</w>
ブライ アン</w>
フィル ム</w>
バ ブル</w>
ドロ -ン</w>
ッ シャ</w>
チェ ス</w>
ダン サ</w>
ダウン ロ-ド</w>
タン ク</w>
セ ロ
ジャン グル</w>
シン ボル</w>
アカデ ミ</w>
ひ も</w>
ず い
ずい ぶん</w>
ぐ る
あ え
i g
A pp
集 会</w>
連 れ
赤 外</w>
詰 め込</w>
親 密</w>
見 せ
結 末</w>
着 地</w>
獲 物</w>
業 績</w>
案 内</w>
暴 行</w>
文 法</w>
持ち 上げ</w>
後 押し</w>
幼 稚</w>
合 え</w>
包 括</w>
動 き回</w>
分 断</w>
保 有</w>
交 尾</w>
主 体</w>
ワ -ク</w>
ライ ナ</w>
ピ -ク</w>
ビ ン
パ ニック</w>
ドライ ブ</w>
ジャン プ</w>
ショッ ピング</w>
ゴ ル
コレ クション</w>
クレ ジット</w>
キ ット</w>
もと もと</w>
まっ すぐ</w>
ず る</w>
じ み</w>
く り返</w>
か ん</w>
RIS PR</w>
P A</w>
C RISPR</w>
A R
20 14</w>
首 都</w>
金 銭</w>
負 荷</w>
西 部</w>
衰 え</w>
血 球</w>
自 覚</w>
肯 定</w>
肝 心</w>
締め く
祖 国</w>
画 期</w>
申 請</w>
灰 色</w>
欠 点</w>
構 え</w>
柔 らか</w>
更 新</w>
時 空</w>
救 い</w>
持ち 主</w>
戻 り</w>
強 い</w>
就 職</w>
反 論</w>
参 考</w>
厳 密</w>
俳 優</w>
住 居</w>
事 情</w>
ヴ ァ</w>
レ -ト</w>
モバイ ル</w>
メ ラ
ペ ニス</w>
ペ イ
ベ ス</w>
ヘ ッド
ピク セル</w>
チ ェ</w>
ダメ -ジ</w>
ステ レオ</w>
スコ ット</w>
ス ミス</w>
シャ -</w>
オ ル
エド ワ-</w>
エ マ</w>
ウ ント</w>
イン グランド</w>
アッ プル</w>
ア ム
ま とも</w>
ち な</w>
こ いつ</w>
かわ い</w>
いか が</w>
W i
- キ</w>
電 磁</w>
財 務</w>
見 逃</w>
移 り
磁 気</w>
知 ら</w>
真 っ</w>
疾 病</w>
生 後</w>
理 念</w>
決 まり</w>
新 鮮</w>
役 人</w>
奏 で</w>
周 回</w>
口 座</w>
取り 囲</w>
半 年</w>
共 存</w>
充 電</w>
乗り 物</w>
ンド ラ</w>
ライフ スタイル</w>
メ イン</w>
ブド ウ</w>
パ ルス</w>
パ -ツ</w>
バン グラ
ハ ワイ</w>
ハ リ</w>
タイ ル</w>
ゼ ン
スポ ット</w>
スキャ ナ</w>
ジェ フ</w>
シャ ワ</w>
シェ ル</w>
ら ん</w>
め ん</w>
は ま</w>
す ぐ
さか のぼ</w>
i on</w>
5 5</w>
駆 使</w>
週 末</w>
通 訳</w>
賄 賂</w>
読 書</w>
装 着</w>
薬 剤</w>
自 尊</w>
肖 像</w>
結び つき</w>
突 っ
穏 やか</w>
発 音</w>
焼 け</w>
消 滅</w>
果 物</w>
撲 滅</w>
投 獄</w>
戦 士</w>
懐 疑</w>
妨 害</w>
協 調</w>
前 線</w>
共 産</w>
先 入</w>
備 わ</w>
依 然</w>
会 計</w>
今 朝</w>
不 法</w>
ロ ウ
ル -プ</w>
モ ノ
ミ ン
マン デラ</w>
ブルッ クリン</w>
フェ -ス</w>
バイ ト</w>
バ ク</w>
ハッ ピ</w>
ハ -ド</w>
タ ッチ</w>
シリ -ズ</w>
コ -チ</w>
オ イル</w>
エレ ベ</w>
エリ ック</w>
イ ク</w>
アリ スト
ア テ
り つ</w>
まつ わ</w>
u r
a b
A IDS</w>
配 慮</w>
過 ち</w>
農 村</w>
観 光</w>
視 線</w>
見い だ</w>
要 約</w>
行 使</w>
融 資</w>
葬 儀</w>
繊 細</w>
粘 土</w>
汚 れ</w>
比 率</w>
方 形</w>
数 多く</w>
探 し出</w>
抱 き
手が け</w>
惹 きつけ</w>
思い 起こ</w>
幾 何</w>
平 ら</w>
容 器</w>
媒 介</w>
善 良</w>
協 定</w>
光 線</w>
光 子</w>
借 金</w>
ラ マ</w>
メ モ</w>
ム レス</w>
ミ ネ
ベ レ
フィ クション</w>
パイ プ</w>
パ イ</w>
ド ウェア</w>
テ レス</w>
チ キン</w>
カ -</w>
ウ ル</w>
イン ク</w>
アリスト テレス</w>
アイ スランド</w>
ふ と</w>
ば か
つ ぶ</w>
っぷ り</w>
だ い</w>
ご めん</w>
ぎ 込</w>
e l
S D</w>
3 8</w>
飛び 回</w>
難 題</w>
難 問</w>
闘 い</w>
過 酷</w>
通 話</w>
送 り出</w>
見 当</w>
裏 付け</w>
署 名</w>
積み 重ね</w>
眠 れ</w>
爆 破</w>
服 用</w>
有 利</w>
放 棄</w>
戦 場</w>
悲 観</w>
思い 込み</w>
復 元</w>
大 会</w>
土 星</w>
合 格</w>
各 々</w>
切 除</w>
先 延ば</w>
優 位</w>
会 合</w>
上 部</w>
レ バ
ラ ックス</w>
モ ンド</w>
モ ラル</w>
マン ガ</w>
ヘリ コプタ</w>
パラダイ ム</w>
ト ウ
ツ ア</w>
セ ラ</w>
スタ ンド</w>
サンド イッチ</w>
ク -ル</w>
カ フェ</w>
エントロ ピ</w>
め ぐ</w>
ね ぇ</w>
く じ</w>
か ら
あ そこ</w>
20 16</w>
-ト ・</w>
長 寿</w>
長 官</w>
長 け</w>
適 合</w>
追 放</w>
解き 放</w>
菌 類</w>
草 原</w>
直 観</w>
清 潔</w>
水 平</w>
民 衆</w>
横 切</w>
有 色</w>
有 力</w>
曰 く</w>
日 中</w>
擁 護</w>
幼 少</w>
幻 想</w>
巧 み</w>
外 向</w>
増 大</w>
執 行</w>
埋 葬</w>
回 数</w>
囚 われ</w>
取り 残</w>
取り 巻</w>
反 乱</w>
匹 敵</w>
助 手</w>
ロ -ン</w>
ユニ ット</w>
ブ ラン
パ パ</w>
ディ ス
チェ -ン</w>
タ コ</w>
シ -</w>
エ リ</w>
エ ア
ウ ィ</w>
アン テナ</w>
わざ わざ</w>
り 立て</w>
り ゃ</w>
ば ら
は な</w>
そ っくり</w>
o w
E U</w>
D C</w>
-キ ンソン</w>
隙 間</w>
隔 て</w>
連 想</w>
送 れ</w>
追い 出</w>
赤 色</w>
葛 藤</w>
義 手</w>
罪 悪</w>
称 え</w>
着 目</w>
活 力</w>
業 務</w>
有 毒</w>
拠 点</w>
強 み</w>
平 面</w>
審 査</w>
官 僚</w>
変 形</w>
売 り
台 無し</w>
勤 務</w>
前 立</w>
利 他</w>
代 償</w>
享 受</w>
上 海</w>
レバ ノン</w>
ム シ</w>
マ サ
ボ ノ
ベン ジャ
ベンジャ ミン</w>
バ ック
ド ナルド</w>
スリ ム</w>
スポ ン
スピ ア</w>
シグ ナル</w>
シ -ト</w>
ザ ン
ケン ブリッジ</w>
ケ ネ
グ ラ</w>
ガ リ
カ プ
イン パクト</w>
イン スリン</w>
イ リ
イ ク
ア ブラ
ふ り</w>
け 合</w>
か え</w>
う け</w>
T h
防 御</w>
録 画</w>
鉛 筆</w>
通り 過ぎ</w>
追い や</w>
諜 報</w>
調 子</w>
親 指</w>
薬 品</w>
苦 悩</w>
苦 しめ</w>
自 立</w>
育 成</w>
綺 麗</w>
立ち 上がり</w>
独 り</w>
温 か</w>
混 沌</w>
海 域</w>
条 約</w>
明 快</w>
新 興</w>
拘 束</w>
成 熟</w>
座 席</w>
尻 尾</w>
学 問</w>
図 形</w>
古 典</w>
卒 中</w>
動 産</w>
割 れ</w>
出 血</w>
中 学</w>
中 世</w>
一 環</w>
ラ テン
ラ ップ</w>
メン タル</w>
ポ スト</w>
ボノ ボ</w>
ペ ル</w>
ベ ア</w>
バナ ナ</w>
ド ロ</w>
トマ ト</w>
ト ソン</w>
タ ブ</w>
ストリ -ト</w>
シア トル</w>
ザ ック</w>
クリ ニック</w>
ギ タ</w>
カ ラ</w>
エ ビ</w>
イ ヌ</w>
アイ ス</w>
わ り
り 付け</w>
ゅ う</w>
こ と
2 ,
1 60</w>
-ケ ストラ</w>
- ム
静 止</w>
錯 誤</w>
追 いつ</w>
規 定</w>
考 察</w>
空 腹</w>
眼 鏡</w>
生まれ つき</w>
無 事</w>
漁 師</w>
活 か</w>
気 象</w>
歩 け</w>
機 体</w>
標 本</w>
教 材</w>
提 起</w>
挨 拶</w>
承 知</w>
廃 止</w>
平 凡</w>
娯 楽</w>
墓 地</w>
国 外</w>
台 所</w>
反 響</w>
危 惧</w>
区 域</w>
分 か
処 刑</w>
入り 口</w>
先 日</w>
充 実</w>
偉 業</w>
中 華</w>
一 目</w>
ヶ 国</w>
ヴァ ン</w>
ル トン</w>
リ ビア</w>
ラク ティブ</w>
メ リ</w>
ミ ラ</w>
マ ニュ
ポル ト
ヘル メット</w>
ビ アン</w>
ティ ン</w>
コン テスト</w>
ギャ ビ</w>
キュ ラム</w>
ガ イド</w>
カリ キュラム</w>
インタ ラクティブ</w>
ア ザ
ら げ</w>
と って</w>
っ ぽ
た わ</w>
う え</w>
い れ</w>
in g
V D</w>
D VD</w>
4 4</w>
3 000</w>
19 30</w>
1 40</w>
騒 ぎ</w>
顕 著</w>
適 当</w>
通 勤</w>
足 跡</w>
起 こ
見 回</w>
致 命</w>
自 治</w>
線 維</w>
稼 働</w>
神 々</w>
破 綻</w>
疎 通</w>
無 く</w>
海 中</w>
毎 月</w>
正 式</w>
木 星</w>
敵 対</w>
控 え</w>
押し 付け</w>
憧 れ</w>
思い 描</w>
廊 下</w>
工 科</w>
婦 人</w>
垂 直</w>
地 獄</w>
割り 当て</w>
利 き</w>
倉 庫</w>
会 え</w>
人 的</w>
ワ トソン</w>
ワ シ</w>
ロ ライナ</w>
モニ タ</w>
プラ ス</w>
ブ リン</w>
フォ -
ビデオ ゲ-</w>
バングラ デ
ド ゥ</w>
テロメ ア</w>
ダイ ナミ
ジ ナル</w>
カリ ブ</w>
アレ ク
ア ス
ま と</w>
っ そり</w>
た ち
そ ら</w>
が え</w>
a d</w>
B A</w>
3 4</w>
飲 料</w>
重 量</w>
配 布</w>
連 中</w>
犯 人</w>
演 技</w>
流れ 込</w>
氷 山</w>
歓 声</w>
歌 手</w>
検 診</w>
木 材</w>
有 権</w>
暗 黒</w>
握 手</w>
後 退</w>
引 力</w>
奥 深</w>
受 刑</w>
助 か</w>
功 績</w>
利 己</w>
下 位</w>
一 流</w>
レ -ス</w>
ラ ベル</w>
モ ル
メ アリ</w>
ミ -ム</w>
ボ ン
ピ ザ</w>
ビ タミン</w>
ヒッ グス</w>
ネ アン</w>
ニ クス</w>
ド レス</w>
トラ ブル</w>
ディ ズ
ティ ム</w>
チュ ア</w>
セ リ
セ コ
ス ン</w>
ジ ング</w>
シ ュ-</w>
ザ ニア</w>
コロ ニ</w>
クリ ップ</w>
オリ ジナル</w>
オペ ラ</w>
オ ブ
エン タ</w>
アレ ックス</w>
アトラン タ</w>
ぼ れ</w>
なる ほど</w>
と め</w>
た め
た か
じ っくり</w>
こんに ち</w>
が 家</w>
o d</w>
i t</w>
a m
R NA</w>
B C</w>
鮮 明</w>
飼 育</w>
面 接</w>
青 色</w>
電 流</w>
鉱 山</w>
視 界</w>
菌 糸</w>
自 発</w>
祝 福</w>
破 滅</w>
熱 意</w>
火 事</w>
横 たわ</w>
模 範</w>
東 部</w>
望 まし</w>
救 助</w>
折 れ</w>
我 が家</w>
微 小</w>
復 興</w>
復 帰</w>
寸 前</w>
寝 室</w>
寂 し</w>
完 了</w>
奨 学</w>
大 国</w>
夜 空</w>
多 額</w>
噴 出</w>
和 解</w>
告 発</w>
合 せ</w>
勝 て</w>
動 詞</w>
初 日</w>
分 配</w>
休 憩</w>
今 週</w>
中 断</w>
一 気</w>
リン ダ</w>
ライ ラ</w>
ライ ス</w>
モ スク</w>
モ ジュ-</w>
ポルト ガル</w>
ブ レ</w>
フィ ラ
ファ ンド</w>
フ リ
ハリ ケ-</w>
ゼン チン</w>
スク -</w>
ス ケット</w>
ザ ベス</w>
サ ラ</w>
コ -ス</w>
グ マ</w>
クリ ントン</w>
アル ゼンチン</w>
アポ ロ</w>
わ くわ
わくわ く</w>
も ろ</w>
み 合</w>
ひっ くり返</w>
て ん
ず ら</w>
ご らん</w>
か ぶ</w>
お こ</w>
om e</w>
i p
a p
a n</w>
N Y</w>
- ロ</w>
風 船</w>
願 望</w>
順 応</w>
阻 害</w>
遮 断</w>
転 が</w>
踊 り</w>
走 行</w>
貯 金</w>
貨 幣</w>
討 論</w>
見 通し</w>
見 積
藻 類</w>
落 書き</w>
落 と
苦 手</w>
脊 椎</w>
育 児</w>
聞 け</w>
考え 直</w>
結 晶</w>
組 合</w>
競 合</w>
突 起</w>
百 科</w>
狙 い</w>
片 付け</w>
沿 い</w>
死 に</w>
楽 譜</w>
時 折</w>
新 薬</w>
故 障</w>
持ち 出</w>
技 師</w>
手 足</w>
手 本</w>
当ては め</w>
引き 継</w>
座 り</w>
展 望</w>
尺 度</w>
対 面</w>
寺 院</w>
委 ね</w>
増 幅</w>
受 粉</w>
動 かせ</w>
労 力</w>
公 立</w>
作り 出せ</w>
仏 教</w>
事 典</w>
ロ マン
ラテン アメリカ</w>
ブラ ウ
フェ ル
ビ ュ-</w>
ビ エ
パ ル
タン ザニア</w>
ジョ ンソン</w>
ジャ ズ</w>
シ ウム</w>
ウィリア ム</w>
アザ ラシ</w>
る 所</w>
も れ</w>
まさ しく</w>
ま み
な じみ</w>
たま に</w>
し まい</w>
こ う
くっ つ</w>
t o
t er
i l
a d
M A</w>
C T</w>
4 3</w>
20 20</w>
20 13</w>
- キング</w>
骨 髄</w>
飼 い
難 う</w>
運 用</w>
貧 乏</w>
見 落と</w>
見 張</w>
要 点</w>
裏 庭</w>
稼 ぎ</w>
種 子</w>
短 縮</w>
牛 乳</w>
海 上</w>
永 続</w>
気 体</w>
死 後</w>
景 観</w>
揺 れ</w>
握 り</w>
推 し
延 長</w>
年 配</w>
帰 還</w>
実 体</w>
奉 仕</w>
天 使</w>
堆 積</w>
創 設</w>
分か ち
共 生</w>
予 備</w>
乗り 込</w>
中 核</w>
不 死</w>
上 流</w>
一 変</w>
リ オ
モ ロ
ベル リン</w>
プロ セ
パ ワ
バ -</w>
ド ゥ
ダイ ビング</w>
ソ マリア</w>
セコ イア</w>
ス チャ</w>
ゴ ア</w>
コカ イン</w>
エリ ザベス</w>
イ ライラ</w>
ば し</w>
の まま</w>
ど っち</w>
ち に</w>
そ ちら</w>
しゃ べ
あり のまま</w>
9 6</w>
- ブル</w>
飽 き</w>
雨 水</w>
隕 石</w>
郵 便</w>
誘 導</w>
見 失</w>
茶 色</w>
絶 え
経 緯</w>
発 射</w>
生み 出せ</w>
海 馬</w>
派 遣</w>
毎 秒</w>
植 え
根 付</w>
有 能</w>
月 経</w>
方 式</w>
搾 取</w>
推 論</w>
採 集</w>
捕 獲</w>
怪 物</w>
引き ず</w>
年 月</w>
室 内</w>
外 傷</w>
和 らげ</w>
十 字</w>
冷 却</w>
以 南</w>
人 民</w>
ロ ング</w>
ロ -ズ</w>
マ ザ</w>
パラ ド
トラン ジ
ダ ニエル</w>
ス マン</w>
シン ガ
コ リ</w>
ガン マ</w>
カン ボ
イ メ</w>
っ ぱ</w>
こだ わ</w>
が かり</w>
い で</w>
a y</w>
a k
C M
A B</w>
4 6</w>
2 ,</w>
驚 か</w>
駆 り立て</w>
題 材</w>
随 分</w>
軌 跡</w>
車 両</w>
負 債</w>
読み 取</w>
語り かけ</w>
誘 発</w>
詐 欺</w>
言い 聞かせ</w>
解き 明か</w>
裏 切</w>
粘 菌</w>
磨 き</w>
消 え
母 乳</w>
根 源</w>
暮 れ</w>
日 曜</w>
新 星</w>
救 済</w>
描 け</w>
探 究</w>
手 元</w>
愉 快</w>
惨 事</w>
思い 出せ</w>
応 援</w>
役 立て</w>
居 心地</w>
密 集</w>
容 量</w>
売 上</w>
嗅 覚</w>
吸い 込</w>
古 く</w>
先 駆</w>
優 勝</w>
信 者</w>
侮 辱</w>
作 者</w>
代 理</w>
世 帯</w>
ワイ ヤ
レ ポ-ト</w>
ラン チ</w>
メリ ット</w>
マンモ ス</w>
プレ ッシャ</w>
ビ ュ</w>
バングラデ シュ</w>
バイオ リン</w>
ノ -</w>
ニ ワ
ニ ックス</w>
ニ カ</w>
ナ リズム</w>
トロ イト</w>
ディ スク</w>
デ リ</w>
デ ュ-</w>
デ トロイト</w>
テク ニック</w>
チ ケット</w>
タイ タン</w>
タ トゥ</w>
スパ イ</w>
ジャ ン</w>
ゴ ルフ</w>
コ シ</w>
ケ イ</w>
カンボ ジア</w>
エリ -ト</w>
ウェ イ
アリ ス</w>
ら めき</w>
や っ
た っぷり</w>
た た
しゃべ り</w>
が っかり</w>
か す
i a</w>
e n</w>
S E
9 8</w>
1 500</w>
- ・</w>
- ニ</w>
鼓 動</w>
養 子</w>
頭 部</w>
隠 し</w>
関 数</w>
輸 入</w>
贅 沢</w>
賞 賛</w>
語り 手</w>
見 守</w>
街 中</w>
臭 い</w>
組み 換え</w>
空 白</w>
積み 上げ</w>
磁 石</w>
痕 跡</w>
活 躍</w>
栄 え</w>
本 部</w>
暴 露</w>
改 めて</w>
提 携</w>
排 水</w>
投 影</w>
技 法</w>
打ち 明け</w>
戻 れ</w>
愛 らし</w>
微 細</w>
征 服</w>
当 選</w>
強 め</w>
引き 込</w>
干 渉</w>
差 し</w>
容 認</w>
向 き
収 監</w>
協 同</w>
前 回</w>
侵 略</w>
作り だ</w>
付 近</w>
両 手</w>
上 達</w>
ワイヤ レス</w>
レイ ク</w>
リン カ</w>
リベ リア</w>
ララ ララ
メ ガ</w>
フィ ン
ファイ バ</w>
ネル ソン</w>
ト ピア</w>
セ ッション</w>
ジ アラビア</w>
サウ ジアラビア</w>
ガ レ
カ スタ
エンジ ニア
エ サ</w>
エ コ</w>
イラ スト</w>
ア ベッド</w>
ま か</w>
ひ ょ
とう とう</w>
だ ち</w>
こ っそり</w>
t he
PT SD</w>
M o
3 1</w>
200 2</w>
集 積</w>
防 備</w>
銃 撃</w>
配 線</w>
船 長</w>
絶え 間</w>
立 体</w>
破 片</w>
真 空</w>
珊 瑚</w>
淡 水</w>
校 長</w>
救 出</w>
挿 入</w>
悪 夢</w>
張 り
引き 受け</w>
巧 妙</w>
寛 大</w>
土 曜</w>
呼 べ</w>
友 情</w>
動 揺</w>
冒 頭</w>
一人 ひとり</w>
ワ ニ</w>
ロ モン</w>
リ ラックス</w>
ラ ゴス</w>
マンモ グラフィ</w>
マ ラ</w>
マ ウン
ホ タル</w>
ペン シル
プラン ク
プランク トン</w>
プ -ル</w>
ヒョ ウ</w>
ト ピック</w>
チャ ル</w>
ジェ ネ
ジェ ニ
ジ ン
ジ ニア</w>
ケ イ
キ ン
キ ュ</w>
エ ッ
れ これ</w>
まみ れ</w>
ま じめ</w>
か っこ</w>
い ち
s e</w>
iP od</w>
A m
A C
9 00</w>
5 2</w>
20 30</w>
199 9</w>
199 8</w>
- ザ</w>
高 額</w>
高 温</w>
香 港</w>
釈 放</w>
遅 らせ</w>
車 線</w>
見 ま</w>
血 糖</w>
締めく く</w>
礼 拝</w>
異 議</w>
生き 残り</w>
燃 え
演 じ</w>
溺 れ</w>
浮 き
決 め
母 国</w>
極 度</w>
時 刻</w>
改 造</w>
捕 らえ</w>
失 望</w>
壊 滅</w>
因 果</w>
同 盟</w>
取り かか</w>
勝ち 取</w>
動 け</w>
助 成</w>
傑 作</w>
上 院</w>
上 層</w>
ロ イン</w>
ル マン</w>
リア リティ</w>
メ ル
ム スリム</w>
ポ テ
ボ ス</w>
ブ ス</w>
ヒ ル</w>
パ ック</w>
バリ ゼ</w>
ハ マ</w>
ノ ミ
ニワ トリ</w>
トン ボ</w>
トラ ル</w>
ト レンド</w>
ト ニン</w>
ディ ナ</w>
チャ ン</w>
タ ナ</w>
セリ フ</w>
セ クタ</w>
ス ペ</w>
ス ニ-</w>
ジュ リア</w>
ジェ ニ</w>
コン サル
ケネ ディ</w>
キャン パス</w>
カッ コ</w>
オペ レ</w>
エンジニア リング</w>
エイ リアン</w>
アル バ</w>
アク ション</w>
ま ね</w>
す －</w>
う ん</w>
う る
Wor ld
T V</w>
I B
7 2</w>
骨 組み</w>
集 約</w>
鉱 物</w>
運 河</w>
進 学</w>
誇 張</w>
言い 訳</w>
行き 着</w>
行 列</w>
自 慢</w>
自 力</w>
立 証</w>
知 事</w>
看 板</w>
王 国</w>
漏 れ</w>
没 頭</w>
水 道</w>
格 付け</w>
架 空</w>
教 え
改 め</w>
掘り 下げ</w>
感じ 取</w>
思い 浮か</w>
家 系</w>
家 事</w>
実 例</w>
右 手</w>
勝 者</w>
刑 事</w>
全 般</w>
儲 け</w>
債 務</w>
作 為</w>
住 まい</w>
付き 合い</w>
主 題</w>
主 流</w>
ヴィ ッド</w>
ヨ ル
メタ ファ</w>
マ ッチ</w>
ブロ ン
ブ ロッ
フ ン</w>
ネ タ</w>
ディズ ニ</w>
ス パイ
ジョ ナ
ジャ スティン</w>
シ ッ
シ エ
ク ソン</w>
ガレ -ジ</w>
ガ イ</w>
ウバ ザメ</w>
アル コ</w>
ら ぎ</w>
そろ そろ</w>
しゃ べ</w>
u t
L in
I S</w>
D A</w>
A l
1 5
- ケ</w>
飛 べ</w>
陽 子</w>
配 達</w>
起こ せ</w>
語 り</w>
解 説</w>
解 答</w>
覚 悟</w>
表 明</w>
苦 難</w>
考 古</w>
立 方</w>
空 っぽ</w>
磁 場</w>
登 山</w>
生まれ 育</w>
球 体</w>
王 子</w>
溶 け
残 虐</w>
機 密</w>
東 京</w>
本 格</w>
映 し出</w>
指 令</w>
拍 子</w>
底 辺</w>
年 上</w>
導 き出</w>
対 戦</w>
寄 せ
実 物</w>
多 種</w>
外 観</w>
堂 々</w>
回 し</w>
友 だち</w>
勘 違い</w>
光 学</w>
保 育</w>
仕 上げ</w>
並 外れ</w>
ヴィ ン</w>
ル ツ</w>
ル ダム</w>
ヘ ッド</w>
プロト タイプ</w>
プラ トン</w>
ノ ア</w>
ネ -</w>
チャ イル
ダ ス</w>
タ クト</w>
タ -</w>
ズ マ</w>
スカ ロライナ</w>
スカ ル</w>
シ ス</w>
サ ブ</w>
コン タクト</w>
コ ニ</w>
クマ タ</w>
ギャ ング</w>
ガ リ</w>
ガ -ナ</w>
カ ンド</w>
カ ラス</w>
ウォ ル
アン ドリ
アラ スカ</w>
ア ラン</w>
へ ん</w>
び 上が</w>
だ ま</w>
き 上げ</w>
い き</w>
an d
a w
App le</w>
4 9</w>
1 ,
飛び 降り</w>
配 偶</w>
運 び
途 端</w>
超 越</w>
起 因</w>
負 傷</w>
観 衆</w>
行き 来</w>
蒸 発</w>
至 る所</w>
自 爆</w>
統 制</w>
結び 付け</w>
突 入</w>
称 賛</w>
相 違</w>
発 現</w>
異 性</w>
用 紙</w>
熱 狂</w>
有 難う</w>
推し 進め</w>
控 え
持ち 歩</w>
払 え</w>
情 勢</w>
希 少</w>
左 派</w>
名 詞</w>
双 子</w>
原 料</w>
前 半</w>
分 岐</w>
分 別</w>
優 雅</w>
中 枢</w>
不 利</w>
一 握り</w>
レ ジ</w>
リ リ</w>
モン ズ</w>
ミ ステ
マル チ</w>
マッ ピング</w>
ポテ ト</w>
ポ ン</w>
ホ イ
ペン ハ</w>
ベ ビ-</w>
ベ -ル</w>
プラ イン</w>
フ ル
ピ ッ
パ ウ
ノ -ド</w>
ニア ム</w>
トランジ スタ</w>
ディス プレイ</w>
ソフ ァ</w>
スタ ント</w>
スタ イン</w>
ス ム</w>
サン ダ</w>
サ リ</w>
サ ウス</w>
コ ペンハ</w>
コ ブ</w>
コ ソ
ケ ン</w>
ケ ラ
クラ シック</w>
ガ ラ
ガ ム</w>
カ トリック</w>
オ リ</w>
ウィ ル
イン グ</w>
イ オン</w>
アン ドロ
アン ド</w>
り つけ</w>
やり 遂げ</w>
や さし</w>
と らわれ</w>
てん かん</w>
ぐ れ</w>
お き</w>
い そして</w>
あ ては
ic k
P MS</w>
CM U</w>
3 50</w>
- ビ</w>
鮮 やか</w>
養 蜂</w>
類 人</w>
響 き</w>
難 解</w>
遺 跡</w>
選 出</w>
遠ざ か</w>
返 信</w>
転 移</w>
起 訴</w>
赤 道</w>
説 教</w>
認 可</w>
見 直し</w>
見 合</w>
笑 み</w>
私 的</w>
祝 い</w>
直 ぐ</w>
添 え</w>
混 合</w>
洗 い</w>
有 無</w>
放 置</w>
推 奨</w>
探 知</w>
掛 け
掛 かり</w>
指 針</w>
抗 体</w>
感 心</w>
惨 め</w>
忠 実</w>
志 向</w>
小 川</w>
天 候</w>
大 手</w>
変 数</w>
呼び 起こ</w>
卵 巣</w>
出 資</w>
再 発</w>
全 面</w>
免 許</w>
体 外</w>
不 運</w>
リ ハ
リハ ビリ</w>
ラ ップ
ヤ ギ</w>
モロ コシ</w>
メロ ディ</w>
メ イト</w>
ム ン
ミ レ
マ -ク</w>
ポ ップ</w>
ポ -ズ</w>
ペ ア</w>
プロセ ッサ</w>
プレ -</w>
ブラウ ザ</w>
フィラ デル
フィラデル フィア</w>
パワ フル</w>
パ タ</w>
ノ -ト</w>
ニ オン</w>
ナ ン</w>
トウ モロコシ</w>
ト ウ</w>
ッ ケ</w>
タイ ヤ</w>
セ ク
セ カンド</w>
スト レ</w>
スク エア</w>
グ リ-</w>
カウン タ</w>
カ ルト</w>
イン セン
ア リング</w>
ア バタ</w>
ま け</w>
ひ らめき</w>
の め</w>
づ ら</w>
つ ぶ
っぱ り</w>
ご ろ</w>
か ま</w>
い 出</w>
あ ぁ</w>
c h
P E
N I
I Q</w>
骨 折</w>
震 盪</w>
過 小</w>
請 求</w>
触 覚</w>
装 備</w>
色 んな</w>
聞 か</w>
結 束</w>
終 焉</w>
直 ちに</w>
申し 訳</w>
生き 生き</w>
特 化</w>
物 資</w>
照 射</w>
滅 多</w>
減 速</w>
消え 去</w>
浮か び上が</w>
治 癒</w>
服 役</w>
手 短</w>
戻 せ</w>
悩 ま</w>
微 笑</w>
差 異</w>
実 態</w>
大 声</w>
外 界</w>
土 台</w>
前 例</w>
利 害</w>
再 度</w>
兆 し</w>
停 滞</w>
侵 攻</w>
中 継</w>
中 年</w>
ロ イド</w>
レン ガ</w>
リ モ
ライ センス</w>
メ ニュ</w>
マ ケ
ボ ス
ベ ラ</w>
プ リ</w>
パラド ックス</w>
パラ シュ-ト</w>
ハ ウ
ナ ビ
ト ニ
ツ ィ
チャイル ド
チ ン
ダイナミ ック</w>
タ ワ</w>
セロ トニン</w>
ズ ボン</w>
スト ア</w>
ジ ハ-ド</w>
ショ ット</w>
ザ ン</w>
サイ ティング</w>
サ プライ
グリ ッド</w>
クレイ ジ</w>
ク ル
ギ ナ</w>
カ ウ
インセン ティブ</w>
イエ メン</w>
ア ップ
み つけ</w>
く ちゃ</w>
ぎ 合わせ</w>
お お</w>
T al
T I</w>
S O
9 7</w>
2 ,000</w>
- フ</w>
頭 上</w>
静 寂</w>
長 所</w>
適 正</w>
進 出</w>
通 路</w>
輝 き</w>
踏 み込</w>
見 捨て</w>
要 請</w>
縦 軸</w>
給 食</w>
確 定</w>
知 見</w>
献 身</w>
治 安</w>
毒 性</w>
正 気</w>
樹 木</w>
果 た
損 害</w>
手 放</w>
強 度</w>
年 金</w>
屋 内</w>
定 着</w>
反 抗</w>
南 米</w>
加 齢</w>
切り 開</w>
出 所</w>
全 域</w>
先 月</w>
余 計</w>
住 所</w>
ロ ウ</w>
レ ジ
リ サ</w>
ラ ッシュ</w>
ラ ッ
モ -ル</w>
プロト セル</w>
プレ -ト</w>
プラ ズマ</w>
ビエ ト</w>
バ スケット</w>
ハ -</w>
ド クタ</w>
チャン ピ
チ ング</w>
セ フ</w>
セ クシ</w>
スペ ル</w>
スチ ュ
シ ェ</w>
コカ コ-</w>
コ ラ
ギリ シア</w>
ガン ジ</w>
カ レ
エピ ソ-</w>
エキ サイティング</w>
インフ レ</w>
わざ と</w>
ろ う
れ 目</w>
や あ</w>
み せ</w>
でき あが</w>
た って</w>
かけ ら</w>
か 国</w>
か わり</w>
o c
e d</w>
B l
8 千</w>
6 8</w>
題 名</w>
陸 地</w>
酸 性</w>
起 動</w>
誤 差</w>
誘 拐</w>
衰 退</w>
良 心</w>
舗 装</w>
肉 眼</w>
立 案</w>
積 み</w>
矢 印</w>
着 用</w>
痩 せ</w>
炭 酸</w>
流 体</w>
措 置</w>
控え め</w>
感 銘</w>
悪 し</w>
悩 み</w>
彼 方</w>
引き 金</w>
差し 出</w>
屈 辱</w>
寄 与</w>
害 虫</w>
宝 石</w>
大 金</w>
境 遇</w>
吹 き込</w>
向 こう
合 唱</w>
口 笛</w>
叔 母</w>
反 復</w>
占 拠</w>
入 国</w>
亡 く</w>
下 水</w>
ヴ ォ
レ ビュ</w>
レ ズ
レ スタ</w>
レ -ン</w>
リン ズ</w>
リモ コン</w>
ラ ジ
ミ ット</w>
ミ クロ</w>
マウン テン</w>
マ ロ</w>
マ ックス</w>
マ ック</w>
プレゼ ント</w>
プ キン</w>
フェミニ ズム</w>
フェ ニックス</w>
フィ -ト</w>
ファ ン
フ クロ</w>
ハ ン</w>
ニ ジア</w>
ナ ンス</w>
ディ オ</w>
テ スト
チ ベット</w>
ソ ビエト</w>
ソ ク</w>
ステ ロン</w>
ジェニ ファ</w>
ジェ スチャ</w>
コソ ボ</w>
コ ム</w>
ク イズ</w>
ガ メ</w>
アプ リ
ん やり</w>
ぶ つけ</w>
の 根</w>
と っ
っ け</w>
さ き
さき ほど</w>
く に</w>
え れ</w>
いっ たん</w>
o r</w>
en t
\ &
A M</w>
198 4</w>
- ナス</w>
- ド
- ティ
駆け つけ</w>
雑 音</w>
開 き</w>
進 路</w>
踏 まえ</w>
走 り</w>
褒 美</w>
裏 側</w>
表 記</w>
荒 廃</w>
脳 波</w>
翌 朝</w>
群 衆</w>
米 軍</w>
発 売</w>
疲 労</w>
狂 気</w>
海 藻</w>
注 力</w>
武 力</w>
根 底</w>
明 瞭</w>
救 命</w>
捕 ま</w>
批 評</w>
悪 性</w>
急 進</w>
念 頭</w>
強 大</w>
引き つけ</w>
店 舗</w>
工 作</w>
崇 拝</w>
局 所</w>
守 れ</w>
太 古</w>
啓 蒙</w>
合 わ</w>
台 頭</w>
原 体</w>
動 力</w>
分 化</w>
修 道</w>
何 処</w>
交 配</w>
下 層</w>
レッ スン</w>
リ ュ
リ ミックス</w>
ラップ トップ</w>
ラ ビ</w>
ラ -</w>
ユ ニ-</w>
メ ロン</w>
ミ ル</w>
マ グ
ポル ノ</w>
ボ -</w>
ベレ スト</w>
ブラ ッド</w>
ビジ ネ
ハ ド
ナ ッツ</w>
ディ レ
チュ ニジア</w>
ダ ライ
ソ ル</w>
シャ ン
シェ イク
ゴ ミ
コレ ラ</w>
コ ロ</w>
コ ラ</w>
コ モンズ</w>
カ ニ</w>
オ ル</w>
エ ベレスト</w>
アル ファ
アッ プロ</w>
アカ ウント</w>
れ われ</w>
やっ かい</w>
ほ ど
ひ らめ</w>
ひ た
ば ん</w>
は め</w>
たか も</w>
た ん
そ そ</w>
こ り</w>
あ たかも</w>
a v
a s</w>
U b
A L
4 000</w>
- ンズ</w>
食い 止め</w>
順 序</w>
際 立</w>
陰 謀</w>
閾 値</w>
閲 覧</w>
間 隔</w>
間 に
閉 め</w>
閉 ざ</w>
釣 り</w>
逆 境</w>
追い 求め</w>
農 地</w>
農 園</w>
話 者</w>
著 名</w>
腸 内</w>
脅 迫</w>
翌 年</w>
精 巧</w>
突っ 込</w>
空 き
移 り</w>
真 理</w>
疫 病</w>
独 占</w>
特 質</w>
焼 き
浮 気</w>
浄 化</w>
機 材</w>
機 嫌</w>
最 強</w>
摩 擦</w>
摂 氏</w>
排 泄</w>
扁 桃</w>
急 増</w>
心 地
役 所</w>
強 固</w>
工 事</w>
国 王</w>
勤 め</w>
勝 ち</w>
切 手</w>
出 生</w>
出 口</w>
出 く
出く わ</w>
余 儀</w>
会 員</w>
乗り 出</w>
中 退</w>
中 止</w>
中 性</w>
ロ ア</w>
レオ ナルド</w>
ル イス</w>
リア ス</w>
ライ バル</w>
ラ ル
メン タ</w>
ミシ ガン</w>
ミ ック</w>
ポリ マ</w>
ボ ウ</w>
ホロ コ</w>
ペイ ジ</w>
ペ ラ</w>
ヘ ア</w>
プロ パ
プロパ ガンダ</w>
ブロン クス</w>
ピ エ
パ ット</w>
ナ プキン</w>
ドリ ル</w>
ド ニ</w>
ド ット</w>
ッ ティ</w>
ダイ バ</w>
タ ント</w>
ジェ ロ</w>
シンガ ポ-</w>
シン グル
シェイク スピア</w>
サ マ</w>
キャ プ
キ ラ</w>
ガリ レオ</w>
カイ ダ</w>
エ ン</w>
アル カイダ</w>
アド レス</w>
み つ</w>
まと ま</w>
ぶ ら
ば ら</w>
に おい</w>
そ りゃ</w>
せ ん</w>
じ り</w>
u m
a r</w>
SE TI</w>
IB M</w>
199 7</w>
199 4</w>
1 70</w>
- バ-ド</w>
魅 惑</w>
隣 接</w>
除 外</w>
迫 害</w>
軟 骨</w>
葉 っぱ</w>
草 の根</w>
経 費</w>
組み 合わさ</w>
築 き上げ</w>
目覚 まし</w>
目 新し</w>
盛 ん</w>
登 り</w>
癒 し</w>
産 まれ</w>
片 手</w>
混 じ</w>
深 ま</w>
淘 汰</w>
気 付き</w>
気 まず</w>
比 例</w>
極 限</w>
月 曜</w>
既 知</w>
押し 寄せ</w>
抱き しめ</w>
悪 意</w>
後 部</w>
床 屋</w>
幹 部</w>
巨 人</w>
富 裕</w>
埋 もれ</w>
埋 め
喝 采</w>
商 売</w>
合 図</w>
司 令</w>
右 上</w>
動 的</w>
分かち 合</w>
再 会</w>
先 導</w>
充 分</w>
傲 慢</w>
余 命</w>
下 降</w>
丁 度</w>
一 節</w>
ヴァ ギナ</w>
ヴ ィ</w>
ロッ カ</w>
レ オン</w>
ライ ダ</w>
モ チ
ムン バイ</w>
ボ リ
ボ トム</w>
ブロ ガ</w>
ナ タ</w>
ティ クス</w>
ッサ -</w>
チャンピ オン</w>
チャ リティ</w>
タ スマ
ゾ -ン</w>
ジュ ッサ-</w>
ジェ リ</w>
ケ プラ</w>
ク ン
キャン バス</w>
キャ ピ
キ ュ-</w>
カスタ マイ
カ ギ</w>
エ ド</w>
ウ エスト</w>
アブラ ハム</w>
わ れわれ</w>
やり 直</w>
ぼ んやり</w>
び れ</w>
ど なた</w>
ちゃ くちゃ</w>
せ い
け ん</w>
く だ</w>
お と
あ ら</w>
c h</w>
L G
C M</w>
A r
6 4</w>
199 5</w>
- ノ</w>
高 まり</w>
陸 上</w>
間に 合</w>
錠 剤</w>
重 度</w>
避 妊</w>
送 金</w>
走り 回</w>
貯 め</w>
論 点</w>
読 み</w>
見 過ご</w>
美 徳</w>
縮 め</w>
糖 分</w>
立 て
確 固</w>
石 器</w>
病 原体</w>
生 計</w>
点 滅</w>
清 聴</w>
浮 遊</w>
水 深</w>
水 泳</w>
歩 み
有 望</w>
替 わ</w>
断 面</w>
整 形</w>
摘 出</w>
描 き出</w>
憎 しみ</w>
心 的</w>
徒 歩</w>
当 事</w>
帰 り</w>
寄 り
宣 告</w>
完 ぺ
喧 嘩</w>
向こう 側</w>
同 然</w>
取り 締
厳 格</w>
占 領</w>
卓 越</w>
切 開</w>
冷 凍</w>
内 外</w>
任 意</w>
両 側</w>
ロマン チック</w>
レ トロ</w>
リ サ
ラ ディン</w>
ラ ッキ</w>
ラ ス
モン スタ</w>
モチ ベ</w>
メ イ
マサ チュ</w>
マイ ノ
マイノ リティ</w>
マ レ</w>
マ トリ
ヘル ス
ヘルス ケア</w>
プロ フェ
ブロッ コリ</w>
フ ラ</w>
パイ プライン</w>
パ ンドラ</w>
ハ メ
ナ ナ
テ ル
テ ス</w>
ソ 連</w>
セ ッツ</w>
ジョナ サン</w>
ジ アム</w>
シャ チ</w>
コンサル タント</w>
コル チ
コ ア</w>
ゲ リラ</w>
ギャ ラリ</w>
エン ド</w>
ウ ミ
アルファ ベット</w>
アプリ ケ</w>
ア ミ</w>
や や</w>
だ し</w>
そ う
ぜ い</w>
せい ぜい</w>
す り
じ い</w>
く その</w>
かわ い
お まけ</w>
う な
い 合</w>
o t</w>
i f
e w
Wi k
N o</w>
LG B
F O
5 8</w>
4 0
3 ,000</w>
馬 車</w>
飲み 物</w>
電 灯</w>
隊 員</w>
除 け</w>
開 設</w>
部 下</w>
遠ざ け</w>
道 筋</w>
遊び 心</w>
軽 視</w>
足 元</w>
警 報</w>
試 し</w>
評 論</w>
見 出せ</w>
職 務</w>
聡 明</w>
義 肢</w>
組 め</w>
細 工</w>
積 分</w>
種 族</w>
甲 状</w>
産 卵</w>
理 屈</w>
片 隅</w>
点 数</w>
気 圧</w>
書 籍</w>
書 物</w>
打ち 勝</w>
忠 誠</w>
平 行</w>
帰 国</w>
左 手</w>
容 疑</w>
奨 励</w>
大 して</w>
均 等</w>
地 平</w>
国 防</w>
固 め</w>
告 白</w>
右 下</w>
卵 子</w>
半 身</w>
助 け合</w>
到 来</w>
写 本</w>
先 頭</w>
修 士</w>
体 現</w>
仕 向け</w>
中 頃</w>
下 手</w>
ミ ミ
マニュ アル</w>
マ ニア</w>
ボス ニア</w>
ボ イ
ベン チ</w>
ヘ レン</w>
ビ デ</w>
ヒ ュ</w>
バン ナ</w>
バレ ル</w>
ハン バ</w>
ハ ゲ
ド レ
デ ビッド</w>
テスト ステロン</w>
チ -ズ</w>
タイ タ
タイタ ニック</w>
タ ダ</w>
ゾ ナ</w>
ソ リ</w>
ステ ルダム</w>
ス プ</w>
ジョ ニ</w>
ジェ ント</w>
ジ -ン</w>
サ ギ</w>
ゲ ル</w>
キャ ップ</w>
キ ンス</w>
キ メ
カプ セル</w>
エレ ガ
ウィ ン
イ リ</w>
アリ ゾナ</w>
アム ステルダム</w>
アミ ノ</w>
アマ チュア</w>
ひ ら</w>
ぱ く</w>
ばか げ</w>
の せ</w>
に て</w>
そ く</w>
すぐ さま</w>
し よう</w>
け 出</w>
かす か</w>
かけ 離れ</w>
い じ</w>
あ い</w>
o p
es ome</w>
O n
I D</w>
H e
F i</w>
F DA</w>
E R</w>
5 9</w>
4 1</w>
3 9</w>
- ジニア</w>
- サ</w>
飲み 水</w>
頑 丈</w>
電 荷</w>
陸 軍</w>
遂 行</w>
警 戒</w>
試 練</w>
訴 え
触 れ
衣 装</w>
行 方</w>
血 中</w>
菓 子</w>
膀 胱</w>
耐 久</w>
習 性</w>
移 転</w>
硫 化</w>
石 けん</w>
燃 焼</w>
無 償</w>
炭 水</w>
温 め</w>
消 火</w>
水 路</w>
来 週</w>
最 速</w>
旅 路</w>
教 義</w>
改 変</w>
挫 折</w>
押 さえ</w>
打 撃</w>
手 頃</w>
手 作り</w>
感 度</w>
愛 し</w>
怖 れ</w>
応 募</w>
後 ろ
左 利き</w>
女 神</w>
変 身</w>
吐 き出</w>
叶 え</w>
南 北</w>
加 入</w>
制 定</w>
別 物</w>
出 荷</w>
冷 戦</w>
冷 や</w>
共 鳴</w>
全 力</w>
党 派</w>
体 型</w>
人 為</w>
五 感</w>
並 行</w>
一 端</w>
リ ル</w>
ラン ク</w>
ライ タ</w>
ヨル ダン</w>
ミレ ニアム</w>
マン ボウ</w>
マイ クロ
ヘ ロイン</w>
フォ- チュ
フ ット
パ -ク</w>
バル コニ</w>
バラ ク</w>
ハン ドル</w>
ハッ ブル</w>
ニ ャ</w>
ナイ ロビ</w>
ト ランド</w>
ト ス</w>
デ イ</w>
ダ ビデ</w>
ゼ ル</w>
スト リア</w>
ス ワ
シ リ</w>
サウ ンド</w>
サウ ルス</w>
サ レム</w>
サ ステ
コ -ト</w>
ケ ツ</w>
キャ ロ
カ ナ</w>
カ -ト</w>
ウィ ル</w>
イ チ
イ ェ
アイ ランド</w>
アイ コン</w>
り 着け</w>
まさ か</w>
な に
と ―</w>
だ か</w>
たん ぱく</w>
た まり</w>
し 込</w>
が れ</w>
う っ
い す</w>
い じめ</w>
あ れこれ</w>
or g</w>
d u
a z
P ro
P ad</w>
C H
5 ,000</w>
鳥 類</w>
駆 除</w>
食 材</w>
領 野</w>
降 下</w>
過 度</w>
通 報</w>
資 質</w>
負 え</w>
讃 え</w>
講 座</w>
訴え かけ</w>
見積 も</w>
自 主</w>
絡 み合</w>
結 集</w>
紛 れ</w>
科 目</w>
神 殿</w>
砂 丘</w>
看 守</w>
盛 り
盗 聴</w>
甲 斐</w>
現 金</w>
獣 医</w>
濡 れ</w>
浪 費</w>
洋 服</w>
毒 素</w>
果た して</w>
林 冠</w>
服 装</w>
最 期</w>
書 き込</w>
景 気</w>
日 焼け</w>
散 ら</w>
換 気</w>
揚 げ</w>
接 着</w>
手 首</w>
性 器</w>
心 底</w>
弱 者</w>
左 下</w>
左 上</w>
山 頂</w>
就 任</w>
富 豪</w>
密 か</w>
宮 殿</w>
学 部</w>
学 会</w>
妥 当</w>
大 げ
大げ さ</w>
執 着</w>
固 ま</w>
器 用</w>
品 種</w>
周 年</w>
向 かい</w>
司 会</w>
右 派</w>
取り 込み</w>
出 入り</w>
入 隊</w>
入 口</w>
偽 造</w>
信 じ
侵 襲</w>
人 命</w>
人 前</w>
乱 用</w>
下 院</w>
下 部</w>
リ ビング</w>
ラ ド</w>
モン タナ</w>
マ イ</w>
ボ ット</w>
ホ スト</w>
ブ メント</w>
フェ ロ</w>
フェ ア</w>
フ レンド</w>
ハイ オ</w>
ノ ン
ナイ ト</w>
ナ チ
ディレ クタ</w>
スト ラ
ス フィア</w>
サ ッ
ゴミ 箱</w>
ケ リ</w>
クリ スト</w>
ガ シ</w>
オ ハイオ</w>
エル サレム</w>
ウ イ</w>
イン ダス</w>
イン スト</w>
れ 出</w>
や っぱり</w>
まと め
ひた すら</w>
な お
と くに</w>
たい へん</w>
す べ</w>
さ て
さ ぁ</w>
こだ わり</w>
き わ
お び
お じ</w>
あ け</w>
u s
n d
i n</w>
Tal k</w>
P O</w>
Mo MA</w>
I P</w>
魔 女</w>
香 水</w>
音 量</w>
隔 たり</w>
間 接</w>
長 者</w>
金 星</w>
野 外</w>
還 元</w>
貨 物</w>
論 議</w>
語 れ</w>
語 り合</w>
誓 い</w>
言 論</w>
触 発</w>
色 素</w>
脚 本</w>
肉 食</w>
聖 堂</w>
秒 間</w>
疎 外</w>
照 準</w>
滑 らか</w>
浜 辺</w>
殺 し</w>
歯 磨き</w>
橋 渡し</w>
村 人</w>
暗 記</w>
敵 意</w>
授 か</w>
指 定</w>
扱 え</w>
打ち 破</w>
憂 鬱</w>
慰 め</w>
弾 丸</w>
強 要</w>
延 々</w>
巣 箱</w>
尋 問</w>
専 念</w>
大 工</w>
大 まか</w>
多 発</w>
地 雷</w>
合 致</w>
口 ひげ</w>
去 り</w>
南 西</w>
募 金</w>
冷 静</w>
僻 地</w>
働 け</w>
偽 り</w>
使い 捨て</w>
伏 せ</w>
仕 切</w>
交 響</w>
乳 房</w>
不 当</w>
不 信</w>
一 家</w>
ヶ 所</w>
ワ -ルド</w>
レン ダ</w>
ル ・</w>
ル ネ
ヨ ット</w>
モ ハメ
ム リ</w>
ム -ア</w>
マラ ヤ</w>
マ ネ
マ ド</w>
マ スコ
ベ リア</w>
ベ ネズ
ベネズ エラ</w>
プライ ベ</w>
フォ ロ</w>
フェ ンス</w>
フェ スティ
フェスティ バル</w>
ピ エンス</w>
ヒ マラヤ</w>
パ スポ
パスポ -ト</w>
バ ット</w>
バ ケツ</w>
ヌ ス</w>
ニ シ
ナイ キ</w>
ド ミ
トリ ウム</w>
ツ ァ
チ -</w>
ダイ ヤ
タスマ ニア</w>
タ オル</w>
セ イ
ス リ</w>
ス -プ</w>
ス -ツ</w>
サン ド</w>
サ ピエンス</w>
コ ラボ</w>
コ ツ</w>
クト リア</w>
キュ ロス</w>
キャピ タル</w>
キ リ
ガ ズム</w>
カ 所</w>
イ ヤ
や せ</w>
め った</w>
め ちゃくちゃ</w>
ま ち</w>
ひょ っと</w>
は ずれ</w>
の 具</w>
ど き</w>
し 合</w>
く さ</w>
うる さ</w>
t h</w>
i m
e m
aw esome</w>
C G</w>
7 8</w>
5 4</w>
4 50</w>
驚 愕</w>
飢 饉</w>
飛び 立</w>
降り 注</w>
防 ぎ</w>
閉じ こも</w>
達 人</w>
道 端</w>
逸 話</w>
通 用</w>
逆 転</w>
返 済</w>
近 寄</w>
貯 水</w>
財 布</w>
負 か</w>
認 証</w>
覚 め</w>
見 舞</w>
表 せ</w>
致 死</w>
自 社</w>
膵 臓</w>
聴 力</w>
置き 去り</w>
絵 の具</w>
給 与</w>
終 結</w>
着 想</w>
盛 り</w>
現 存</w>
火 災</w>
消 耗</w>
泣 き
母 子</w>
正 体</w>
梱 包</w>
期 限</w>
揺 る
揃 え</w>
探し 求め</w>
捜 索</w>
捕 え</w>
振 る</w>
手 の
感 受</w>
想 い</w>
悪 人</w>
幼 虫</w>
屋 外</w>
実 家</w>
大 嫌い</w>
夜 間</w>
夕 方</w>
塗 り
叫 び</w>
受け 取り</w>
化 粧</w>
切り 抜け</w>
出 番</w>
処 分</w>
円 筒</w>
内 耳</w>
作り 変え</w>
何 事</w>
仲 介</w>
代 弁</w>
井 戸</w>
主 催</w>
中 絶</w>
中 立</w>
不 確か</w>
不 変</w>
レズ ビアン</w>
レ イン</w>
ラン ジェロ</w>
ユ バル</w>
ミ ケ
ミケ ランジェロ</w>
マスコ ミ</w>
マイ カ</w>
ボ レ</w>
ヘリ ウム</w>
ヘ ン</w>
フレ -ム</w>
フランシ ス</w>
フ レン
ビ ン・</w>
パウ ロ</w>
パ ッチ</w>
パ ッケ</w>
ハ ック</w>
ナ ツ</w>
デン マ-</w>
ディ エゴ</w>
テ ラ</w>
テ ニス</w>
チャ ック</w>
チ ル</w>
ダウン タウン</w>
ス ライス</w>
ザ ル</w>
サ ミ</w>
コン ペ</w>
グ ラン
カル シウム</w>
カスタマイ ズ</w>
カ -ブ</w>
ウ ッ
ウ ソ</w>
ウ サギ</w>
インタ ラ
や け</w>
ま たが</w>
べ く</w>
の 毛</w>
て も</w>
た ず
た しか</w>
ぞ っと</w>
ささ やか</w>
さ も</w>
くっ つけ</w>
が ん
か ぎ
い き
い か</w>
あく び</w>
v er
u st
ir b
i on
f MRI</w>
es s</w>
S h
O L
N et
9 1</w>
5 6</w>
199 6</w>
1 6
鳴 り</w>
魔 術</w>
風 習</w>
預 け</w>
音 源</w>
防 げ</w>
遂 に</w>
語 源</w>
解 体</w>
街 路</w>
落 胆</w>
英 知</w>
聞き 手</w>
継 ぎ</w>
絶 好</w>
経 由</w>
組 成</w>
紙 幣</w>
精 製</w>
程 遠</w>
破 裂</w>
短 編</w>
瞬 時</w>
目 前</w>
皇 帝</w>
病 棟</w>
生み だ</w>
生 死</w>
炎 症</w>
溶け 込</w>
水 質</w>
死 骸</w>
歪 め</w>
歩 み</w>
正 規</w>
樹 脂</w>
標 高</w>
未 熟</w>
最 古</w>
暮 らせ</w>
方 面</w>
斬 新</w>
接 近</w>
掘 削</w>
抜け 出せ</w>
打ち のめ</w>
戦 車</w>
愛 着</w>
意 気</w>
悪 者</w>
悪 用</w>
思 慮</w>
待ち 受け</w>
帯 び</w>
実 績</w>
実 力</w>
失 明</w>
大 豆</w>
外 出</w>
垣 間
哀 れ</w>
和 平</w>
向き 合い</w>
原 稿</w>
危 う</w>
協 議</w>
北 西</w>
北 東</w>
加 害</w>
創 立</w>
分 け
内 臓</w>
偽 物</w>
仮 設</w>
乳 腺</w>
乏 し</w>
主 役</w>
不可 解</w>
下 痢</w>
上 級</w>
ロ ック
メッ シュ</w>
マトリ ックス</w>
プラン ト</w>
ブラ シ</w>
ブ ズ</w>
フェ -</w>
フィリ ピン</w>
ファイ ナンス</w>
パ ロ
ネ ク
ニ スト</w>
ナミ ビア</w>
ド ル
デイ ヴィッド</w>
ツ リ</w>
ダ ブル</w>
ゾ ン
ゼ ン</w>
セラ ピ
スティ ング</w>
ス プレ</w>
シャ トル</w>
シ ドニ</w>
サ バンナ</w>
カイ ロ</w>
カ フェ
オ ン
イン スタ
アラ バマ</w>
アフ ガン</w>
も ―</w>
び こ</w>
つ くり
こ め</w>
こ ぼれ</w>
く つ
ぎ こ
あい まい</w>
あい にく</w>
p h
o s
ic a</w>
U C
O E
IS IS</w>
I C
B M
A S
8 6</w>
19 75</w>
19 45</w>
高 揚</w>
飾 り</w>
飼い 主</w>
風 潮</w>
長 老</w>
鑑 賞</w>
過 ご
過ご せ</w>
運 搬</w>
通 じ</w>
追い 払</w>
走 者</w>
走 れ</w>
識 字</w>
認 定</w>
証 人</w>
見 抜</w>
見 付け</w>
自 明</w>
自 我</w>
編 成</w>
紳 士</w>
眼 科</w>
直 立</w>
発 火</w>
申し 出</w>
生 い
理 学</w>
牽 引</w>
溶 か</w>
混 同</w>
混 ざ</w>
注 ぎ込</w>
水 産</w>
歯 車</w>
歪 み</w>
横 軸</w>
概 し</w>
植え 付け</w>
服 従</w>
書 き出</w>
教 養</w>
投 薬</w>
手 前</w>
恐 慌</w>
心地 よ</w>
弱 め</w>
引 退</w>
差し 込</w>
容 赦</w>
定 量</w>
完ぺ き</w>
学 費</w>
如 何</w>
多 元</w>
圧 迫</w>
回 線</w>
喘 息</w>
善 意</w>
受 動</w>
危 な</w>
動 向</w>
出 回</w>
円 盤</w>
公 演</w>
光 源</w>
傾 斜</w>
似 通</w>
亡 命</w>
予 見</w>
乳 癌</w>
両 立</w>
不 気味</w>
一 角</w>
一 夜</w>
ロ イ</w>
リ バ</w>
ユニ -ク</w>
ミ サイ
ミサイ ル</w>
ボ ルト</w>
ホ ン</w>
プリン ストン</w>
ピ カ
ハン タ</w>
ハゲ ワシ</w>
ナチ ス</w>
ナ リ</w>
トロ ント</w>
タ ラ
ゾ -</w>
シェ フ</w>
シ ベリア</w>
コメ ディアン</w>
コ スタ
ゲ スト</w>
グラ ウンド</w>
ク ロン</w>
ク ラ</w>
ク ショップ</w>
ク オ
ク イ</w>
キ リ</w>
キ ア</w>
オブ ジェ</w>
オ レ
エレガ ント</w>
エコ システム</w>
エ バ</w>
アンドリ ュ-</w>
アナ ログ</w>
れ 込</w>
よ ろし</w>
とど め</w>
す こし</w>
く それ</w>
ぎこ ちな</w>
か わ</w>
いや いや</w>
い て</w>
あえ ず</w>
o b
in d
e B
an g
P I
O S</w>
8 7</w>
8 4</w>
7 6</w>
19 00</w>
- ン・</w>
風 車</w>
風 変わり</w>
陽 性</w>
邪 悪</w>
遠 征</w>
過 大</w>
通 行</w>
追い 込</w>
軽 量</w>
足 し</w>
語 彙</w>
計 り
解 除</w>
規 律</w>
見 返り</w>
見 下ろ</w>
薄 れ</w>
良 好</w>
臨 界</w>
聖 職</w>
繰り 広げ</w>
納 税</w>
系 外</w>
端 末</w>
空 飛</w>
空 洞</w>
移り 住</w>
的 確</w>
白 黒</w>
発 育</w>
病 理</w>
生き 抜</w>
独 房</w>
演 出</w>
河 川</w>
水 位</w>
枯 れ</w>
朗 読</w>
暖 房</w>
晴 れ</w>
早 送り</w>
日 記</w>
断 言</w>
放 映</w>
支 給</w>
押し 上げ</w>
手 書き</w>
成 層</w>
思い 返</w>
思い 切</w>
思い がけ</w>
往 々</w>
弱 ま</w>
引き 離</w>
幽 霊</w>
帰 属</w>
市 内</w>
巻 き</w>
巡 礼</w>
少 量</w>
将 軍</w>
察 知</w>
嫌 が
嫌が らせ</w>
声 帯</w>
固 体</w>
営 業</w>
君 主</w>
名 づけ</w>
同 期</w>
反 発</w>
印 章</w>
勤 勉</w>
助 長</w>
凝 縮</w>
公 海</w>
僧 侶</w>
二 乗</w>
予 約</w>
乳 児</w>
不 況</w>
丁 寧</w>
ロ ン
リサ -チ</w>
メディ アラ
メディアラ ボ</w>
マル クス</w>
マ シュ
マ -ト</w>
ボ ディ
ホ ン
ホ スピ
フレ ッド</w>
フット ボ</w>
フィリ ップ</w>
フ レ</w>
フ ライト</w>
パン ツ</w>
バ レン
バ -グ</w>
ハン マ</w>
ニ ヤ</w>
ナ レ-</w>
ナ ル
ナ ポ
ティ ビ
チ ア</w>
ソ リ
ソ ニ</w>
セ メント</w>
スリ -ト</w>
スポン サ</w>
ス ゴ</w>
ジョ シュ</w>
シエ ラ
ザ ス</w>
コネ クト</w>
ゲ ン
クレイ グ</w>
クラ ホ
カ リ</w>
カ オス</w>
オ クラホ
イ ニ
アウ ト
ア マン
ア スリ-ト</w>
わ が</w>
ま ぐれ</w>
ひ とり
ば か</w>
の ち</w>
ね ―</w>
っ ぺ
しか か</w>
さ え
ご 飯</w>
き 上が</w>
か らか</w>
か た</w>
お およそ</w>
あえ て</w>
W om
LGB T</w>
I N
E S</w>
6 6</w>
198 9</w>
-ズ ン</w>
離 脱</w>
重 点</w>
配 給</w>
遠 心</w>
遙 か</w>
連 帯</w>
込 み
農 産</w>
輝 かし</w>
質 感</w>
賞 金</w>
計り 知れ</w>
見せ かけ</w>
裏 切り</w>
衣 服</w>
蛇 口</w>
荒 れ</w>
置 き</w>
立 法</w>
礼 儀</w>
硬 貨</w>
疑 念</w>
生 み</w>
牡 蠣</w>
片 側</w>
熟 練</w>
無 害</w>
演 算</w>
溜 ま</w>
満 ち
深 遠</w>
海 軍</w>
海 流</w>
流れ 出</w>
流 入</w>
殺 戮</w>
東 南</w>
有 限</w>
更 なる</w>
方 な</w>
斜 面</w>
推 移</w>
接 点</w>
指 先</w>
手 洗い</w>
所 在</w>
戸 惑</w>
怪 し</w>
後 ほど</w>
役 員</w>
強 迫</w>
強 盗</w>
屋 上</w>
対 価</w>
好 意</w>
奏 者</w>
奇 抜</w>
変 わり
国 務</w>
喜 ばし</w>
啓 発</w>
台 湾</w>
可 決</w>
取り 掛か</w>
取り 去</w>
友 好</w>
参 入</w>
動 員</w>
劣 化</w>
切 望</w>
分 娩</w>
再 開</w>
公 害</w>
企 て</w>
仕 方な</w>
乱 れ</w>
乗 っ
下 着</w>
一 斉</w>
ヴィ ン
ロ ビ
ロ パ</w>
レ ナ
リ ス
ヤ ン</w>
マク ドナルド</w>
マイ ロ</w>
ポリ ス</w>
ベ ニア</w>
ベ ッジ</w>
プ ン
プ リング</w>
プ ション</w>
フェ ロモン</w>
フィン ランド</w>
ピッ タリ</w>
ビ -ト</w>
ヒ ップ</w>
パ ッド</w>
バ ビ
ハン ガリ</w>
ハ ロ
ハ チ
ノル デン</w>
ネ ギ</w>
ナポ レオン</w>
ト マス</w>
ディ ン
ディ ス</w>
テ ネ
ソリ ュ</w>
ソ ナル</w>
セラ ピ</w>
セ レ
ス イ</w>
ジャ マイカ</w>
ジャ ガイ
ジャガイ モ</w>
ジェ ファ</w>
サン タ
コン セント</w>
コ -ラ</w>
ゲ -ト</w>
ケ -キ</w>
ク ビ</w>
ギ ニア</w>
ギ ア</w>
キ リン</w>
ガ ル
カ ミング</w>
エレ ク
エ ウ
インタラ クション</w>
インタ フェ-ス</w>
イン チ</w>
アン ケ-</w>
アテ ネ</w>
ん ご</w>
ま る</w>
ぶ ち
ぱ ら</w>
ば せ</w>
つま 先</w>
っ 子</w>
っ て―</w>
だい ぶ</w>
ただ ただ</w>
たず ね</w>
す り</w>
さま よ</w>
さて お</w>
ご み</w>
こ そこ</w>
こ す</w>
く せ</w>
き 手</w>
き ょ
お まえ</w>
お ば</w>
あては ま</w>
あく まで</w>
あ っち</w>
u l
ro s
p e</w>
at ion</w>
S p
S N
P C
OE CD</w>
9 3</w>
8 2</w>
魚 類</w>
間 近</w>
開 示</w>
鎮 痛</w>
重 荷</w>
配 管</w>
配 分</w>
逃 が</w>
農 作</w>
豪 華</w>
議 事</w>
該 当</w>
記 載</w>
覚 醒</w>
見 当た</w>
褒 め</w>
褐 色</w>
被 災</w>
色 彩</w>
舞 踊</w>
罰 金</w>
締 め</w>
総 額</w>
簡 素</w>
積み 重な</w>
神 父</w>
異 星</w>
申 告</w>
熱 水</w>
煙 草</w>
無 縁</w>
無 実</w>
測 れ</w>
概 ね</w>
検 事</w>
格 言</w>
条 項</w>
朗 報</w>
昏 睡</w>
敗 者</w>
撮 れ</w>
換 えれ</w>
提 言</w>
指 輪</w>
手 品</w>
戦 術</w>
成り 立ち</w>
感 想</w>
情 緒</w>
応 答</w>
志 願</w>
復 讐</w>
往 復</w>
年 収</w>
常 時</w>
巫 女</w>
容 れ</w>
客 席</w>
天 文学</w>
大 騒ぎ</w>
夜 明け</w>
増 し</w>
均 一</w>
在 住</w>
噴 火</w>
周 知</w>
取 組み</w>
収 蔵</w>
却 下</w>
励 ま</w>
創 意</w>
制 服</w>
出会 え</w>
内 省</w>
傍 観</w>
側 頭</w>
信じ 込</w>
作り 手</w>
仲 良く</w>
今 晩</w>
ロ ス
レ バ</w>
ラ グ</w>
モン トレ</w>
モハメ ド</w>
ム メイト</w>
ミステ リ</w>
マル チ
マ ダ
プ シ</w>
ブレ ット</w>
ブ レイク</w>
バイオ マス</w>
バ ベッジ</w>
バ ネ</w>
ハイ ウェイ</w>
トロ イ</w>
ディ ラン</w>
ディ スカ
デ ビル</w>
デ スク</w>
テロ リズム</w>
ツァ ルト</w>
ット コ</w>
ッ ホ</w>
チェ ン</w>
タ ミ
セラピ スト</w>
ストロ ゲン</w>
ジョ エル</w>
ジ オ
シミュ レ-ト</w>
シェ リル</w>
コロ ラド</w>
コ レス</w>
コ ク
ク ン</w>
カ レ</w>
カ トリ</w>
オクラホ マ</w>
エ ストロゲン</w>
ウ ル
アド レナ
ろ う</w>
ら せん</w>
よ そ
も て</w>
も つれ</w>
ふ る
ふ ざ
の め
ね じ
づ く</w>
つき もの</w>
たち まち</w>
そ っと</w>
せ っ
が ら
お っしゃ</w>
u p
n et</w>
irb n
es t
ed ia</w>
c e</w>
W h
Ub er</w>
R I
R A</w>
Goog le
C N
A irbn
5 3</w>
3 ,
1 4
-プン ソ</w>
- ダ</w>
面 会</w>
静 脈</w>
隅 々</w>
陪 審</w>
過 ぎ
運 べ</w>
運 び</w>
迎 え
身 分</w>
跳 び</w>
跳 ね</w>
貴 族</w>
訛 り</w>
記 入</w>
解 雇</w>
覗 き込</w>
自 制</w>
自 作</w>
背 骨</w>
肺 炎</w>
織 物</w>
線 虫</w>
網 羅</w>
終 身</w>
紫 色</w>
立ち は
立ちは だか</w>
窓 口</w>
突き 進</w>
着 き</w>
真 珠</w>
潜 入</w>
渓 谷</w>
消 失</w>
泊 ま</w>
残 忍</w>
欠 乏</w>
検 察</w>
書き 換え</w>
日 付</w>
掲 示</w>
授 け</w>
振 舞</w>
指 紋</w>
手の ひら</w>
手 当</w>
憶 え</w>
愛 好</w>
従 兄弟</w>
後 方</w>
引き 続</w>
広 範</w>
平 気</w>
小 売</w>
小 人</w>
導 き</w>
寄せ 集め</w>
子 犬</w>
変 貌</w>
国 土</w>
喚 起</w>
同 胞</w>
可 動</w>
取り 組め</w>
取り 合</w>
参 照</w>
参 政</w>
単 調</w>
前 兆</w>
出 向</w>
円 柱</w>
共 感覚</w>
偶 数</w>
修 了</w>
余 り</w>
体 力</w>
低 温</w>
二 極</w>
乱 獲</w>
乗 組</w>
並 び</w>
不可 避</w>
一 式</w>
ン エイ
ラン キング</w>
ラ イ</w>
ヨ ガ</w>
ヤ シ</w>
モ ダン</w>
ミ ル
ミ ニ</w>
マ ガ
ホ -ム</w>
ペンシル バ
ペル ニクス</w>
プロ ペラ</w>
フィ ッシュ</w>
フ ット</w>
ピン カ</w>
ビジ ュ
ビ ック
バン ガ
バリ エ</w>
バイオ スフィア</w>
バ ックス</w>
バ -ト</w>
ハ ワ-ド</w>
ネク タイ</w>
デ ジャ
ツ ェ
チャイルド シ-ト</w>
チャ ップ</w>
チャ -</w>
ダイ ヤ</w>
スポン ジ</w>
スタ ジアム</w>
ス パ</w>
ジャ クシ</w>
ジェイ ミ</w>
シャ コ</w>
シェ アリング</w>
シ ルク</w>
サン ディエゴ</w>
ゴ リラ</w>
コスタ リカ</w>
コ ペルニクス</w>
ケ チャップ</w>
クライ ナ</w>
ク エスト</w>
キャンペ -</w>
キャン ディ</w>
キャ ニオン</w>
ガラ パ
ガイ ド
ガ レット</w>
カン ザス</w>
カタ ログ</w>
カ ム</w>
オレ ゴン</w>
オタ マ</w>
エン ケラ
ウォ ルタ</w>
イ ブ</w>
イ ット</w>
アドレナ リン</w>
ア ノ
ア トラ
ア ダ
ア タ
り 手</w>
もっ ぱら</w>
ひ そ
ね り</w>
な いし</w>
と げ</w>
と き
じ て</w>
きわ めて</w>
き つ</w>
お っと</w>
お こな</w>
あ がり</w>
in e</w>
e p
a y
U S
S c
E S
Ar du
Am az
Airbn b</w>
A D
6 7</w>
3 60</w>
199 1</w>
19 20</w>
0 0
-ズ ベルト</w>
- クレ</w>
- ガズム</w>
風 邪</w>
風 刺</w>
顔 面</w>
頑 固</w>
電 動</w>
野 蛮</w>
重 み</w>
配 信</w>
遊び 場</w>
連 結</w>
退 院</w>
追 及</w>
返 答</w>
近 郊</w>
迎え 入れ</w>
軽 蔑</w>
責 務</w>
詰 まり</w>
規 格</w>
見 つ
裸 足</w>
被 告</w>
衰 弱</w>
虚 構</w>
緩 やか</w>
編 み出</w>
線 路</w>
綴 り</w>
終 末</w>
素 人</w>
粘 り
空 軍</w>
社 長</w>
石 灰</w>
発 端</w>
生 育</w>
無 駄
無 理
火 曜</w>
浸 か</w>
海 峡</w>
氷 床</w>
水 槽</w>
次 回</w>
株 主</w>
枯 渇</w>
果 実</w>
東 洋</w>
本 棚</w>
末 端</w>
有 病</w>
昼 間</w>
断 絶</w>
敷 地</w>
散 逸</w>
採 点</w>
手 遅れ</w>
所 持</w>
戦 後</w>
成 体</w>
憐 れ</w>
愛 国</w>
引き 付け</w>
年 老い</w>
帰 れ</w>
市 街</w>
左 脳</w>
就 学</w>
対 峙</w>
定 住</w>
安 泰</w>
国 旗</w>
唾 液</w>
名 声</w>
右 脳</w>
可 哀
参 画</w>
原 生</w>
効 力</w>
加 熱</w>
割 れ目</w>
冷 酷</w>
先 天</w>
優 勢</w>
代 数</w>
京 都</w>
二 番</w>
主 権</w>
ング ス</w>
ロウ ソク</w>
ル パ</w>
ル デン</w>
ル ズ
リ -ス</w>
ラン ニング</w>
モ ット</w>
モ -</w>
メ ル</w>
マン ション</w>
マン サ</w>
マシュ マロ</w>
マイ アミ</w>
マ ヤ</w>
マ ニ
ボ ディ</w>
ペンシルバ ニア</w>
ヘ イ
ブリ ッド</w>
フロ ア</w>
フレ ット</w>
フル ネス</w>
ファ ナ</w>
フ ン
フ -ド</w>
ピ -ト</w>
ヒ ン
パ ディ</w>
バ ブ</w>
バ ブ
ハ ブ</w>
ナン バ</w>
ド ッグ</w>
トリ ス</w>
テク スト</w>
ップ ス</w>
チ カ</w>
ゾン ビ</w>
スピ -</w>
ス クロ</w>
ジョ -ジ</w>
ジャ マ</w>
ジェイ ソン</w>
シュ ア</w>
サン パウロ</w>
ケ ビン</w>
グリ -ン</w>
グ レ-</w>
クロ マグロ</w>
ク テル</w>
ガラパ ゴス</w>
カル チャ</w>
カメ ラ
カ クテル</w>
エア コン</w>
ウ リ</w>
イェ -</w>
アウ グ
アイ ザック</w>
ん ぷ
り んご</w>
よ ろ
ま た
なお さら</w>
ため ら</w>
ただ 中</w>
がん ば</w>
かわい そう</w>
か じめ</w>
いち ばん</w>
い よ</w>
あら かじめ</w>
t y
li x</w>
i d</w>
f or
V R</w>
Th e</w>
SN S</w>
S MS</w>
M at
M BA</w>
G lo
C h
C I
A R</w>
9 4</w>
19 40</w>
電 卓</w>
長 続き</w>
長 城</w>
鍛 え</w>
銃 弾</w>
重 心</w>
適 度</w>
造 り</w>
通 知</w>
近 道</w>
貼 り付け</w>
読み 取れ</w>
言い 換えれ</w>
触 手</w>
触 媒</w>
蜂 蜜</w>
若 干</w>
精 力</w>
算 数</w>
立ち 去</w>
突き 動か</w>
私 立</w>
硬 化</w>
知 人</w>
目 印</w>
皆 無</w>
発 砲</w>
病 状</w>
病 室</w>
疑 わし</w>
瓦 礫</w>
無 名</w>
灯 り</w>
火 傷</w>
灌 漑</w>
激 減</w>
漁 船</w>
渇 望</w>
油 田</w>
沸 騰</w>
気 の
気の 毒</w>
残 れ</w>
歯 科</w>
栄 光</w>
染 め</w>
果 て
果て し</w>
来 れ</w>
昇 進</w>
散 布</w>
敗 北</w>
改 正</w>
握 り
折り たた</w>
打ち 負か</w>
手 袋</w>
手 渡</w>
憂 慮</w>
強 ま</w>
引き 戻</w>
年 数</w>
巨 額</w>
少 額</w>
対 決</w>
大 小</w>
変 性</w>
声 明</w>
図 面</w>
回 折</w>
嗜 好</w>
呼び 出</w>
告 知</w>
向 か
合 併</w>
可 愛らし</w>
反 転</w>
双 極</w>
半 減</w>
半 径</w>
包 囲</w>
勝 負</w>
加 盟</w>
剥 が</w>
前 日</w>
内 蔵</w>
充 て</w>
健 常</w>
伸 縮</w>
会 長</w>
件 数</w>
人 文</w>
交 易</w>
交 互</w>
不 毛</w>
不 平</w>
万 能</w>
一 帯</w>
・ ラマ</w>
ンド ゥ</w>
ル ピ</w>
ル -ツ</w>
リ バ
ヤ ツ</w>
ミシ シッ
ミシシッ ピ</w>
マ ク</w>
ホロ グラム</w>
ベ ック</w>
ヘ リ</w>
プ ット</w>
ブラ ザ</w>
ブ -ツ</w>
フ ュ
ピ ット</w>
ピ ッチ</w>
ビジュ アル</w>
ビ クトリア</w>
バブ エ</w>
バ ト</w>
バ グ</w>
ハイ ブリッド</w>
ハ ル</w>
ネ パ-</w>
ナ イ</w>
ド オフ</w>
テネ シ</w>
チェ ル</w>
チェ スタ</w>
ダライ ・ラマ</w>
タ ブレット</w>
タ -ン</w>
セン トラル</w>
スカ イ</w>
ジン バブエ</w>
ジョ セフ</w>
ジェ ットコ</w>
シュタ -ジ</w>
シ カ</w>
ゴ キ
ゴキ ブリ</w>
コラ ボレ</w>
コ -ン</w>
キャ メロン</w>
キメ デス</w>
ガ ニック</w>
カリ スマ</w>
カイ ブ</w>
カ レンダ</w>
カ -ル</w>
イ ブ
アル キメデス</w>
アス ファ
ア ピ
れ 去</w>
やり がい</w>
も て
ま く</w>
ほん と</w>
ふざ け</w>
ひと たび</w>
は びこ</w>
の ぞ</w>
なに しろ</w>
な で</w>
な え</w>
な あ</w>
どう せ</w>
とり あえず</w>
と ある</w>
で っち
つ ぎ込</w>
た －</w>
さ と</w>
こ たえ</w>
ぐる み</w>
ぐ ら</w>
お お
いた ずら</w>
あ え</w>
ou r
o d
it y</w>
ig h
TED Talk</w>
P U</w>
I M
Glo b
FO X
Ardu in
AL S</w>
A ED</w>
7 7</w>
199 3</w>
199 2</w>
1 10</w>
- デン</w>
鬱 病</w>
高 地</w>
驚 嘆</w>
駆 動</w>
駆 け</w>
飼 い</w>
食 堂</w>
食 卓</w>
離 陸</w>
雄 弁</w>
選 び
逆 ら</w>
追 悼</w>
込み 入</w>
身 元</w>
言い 表</w>
言 動</w>
見 聞き</w>
補 給</w>
表 層</w>
虚 偽</w>
落ち 着き</w>
苦 境</w>
芝 生</w>
腹 部</w>
編 み
終 止</w>
粉 々</w>
笑 し</w>
笑 え</w>
稼 げ</w>
知 り合</w>
真っ 先</w>
相 応
相応 し</w>
直 視</w>
盛り 上が</w>
生き 残れ</w>
爬 虫</w>
熟 考</w>
無 謀</w>
無 用</w>
洒 落</w>
沈 め</w>
水 温</w>
歳 月</w>
楽 園</w>
極 貧</w>
格 納</w>
末 期</w>
書 体</w>
新 型</w>
挙 手</w>
挙 動</w>
抜 本</w>
折り 畳</w>
手 間</w>
戒 律</w>
憶 測</w>
憎 悪</w>
彫 像</w>
封 筒</w>
対 比</w>
密 猟</w>
寄り 添</w>
実 演</w>
宝 くじ</w>
妖 精</w>
女 優</w>
合 流</w>
可 笑し</w>
只 中</w>
口 調</w>
取り 戻せ</w>
包 み込</w>
加 減</w>
前 方</w>
切 符</w>
内 包</w>
傾 き</w>
倍 増</w>
修 行</w>
信 心</w>
人 里</w>
乱 流</w>
下 回</w>
上 映</w>
ンエイ ジャ</w>
ロッ コ</w>
ロ -ラ</w>
レ タス</w>
リ ガ
ラク レス</w>
ラ ブ</w>
ム ハン
ムハン マド</w>
ポ ッ
ペ ニシ
ペニシ リン</w>
ペ スト</w>
ヘ ラクレス</w>
プロ デュ-</w>
プ -</w>
ブ ン
ブ ッ
ブ -ム</w>
フロ ント</w>
フロ イト</w>
フラン クリン</w>
フォ ント</w>
フ -</w>
パ ジャマ</w>
バイ ナリ</w>
トレ ック</w>
ツ ワ
ツ ケ-</w>
ッ キング</w>
セ イ</w>
スキ ュ</w>
ス プロ</w>
ジョ ブズ</w>
ジョ シュア</w>
ジャ イ
ジェ パディ</w>
ジ カ</w>
シエラ レオ
サ ンス</w>
サ イ</w>
ゴル フ
コ ル</w>
ケ -ジ</w>
クロ -ン</w>
ク ロス</w>
ク メ-</w>
ク ア
ガ ロン</w>
ガ リア</w>
エコ ノミ
エ ミリ</w>
ウミ ガメ</w>
ウ ニ</w>
イリ ュ</w>
イメ ント</w>
イニ シア
アマン ダ</w>
り 合わせ</w>
ら ば</w>
よ いよ</w>
もの ごと</w>
も や</w>
め く</w>
ま り
は ―</w>
ち っ
だ 名</w>
たど り着け</w>
しゃ れ</w>
しゃ っくり</w>
し る
さ り</w>
さ め</w>
く ら
が め</w>
か く
え え
う わ
う ろ
いっ そう</w>
い よいよ</w>
あ だ名</w>
ra m
i s</w>
i l</w>
f lix</w>
W i</w>
R om
Net flix</w>
M ic
H C</w>
E ar
D I
6 2</w>
4 ,000</w>
198 6</w>
196 8</w>
飽 和</w>
飛 び</w>
領 土</w>
際 限</w>
降り 立</w>
関 わ
進 捗</w>
連 動</w>
逃 避</w>
資 材</w>
買 収</w>
見 識</w>
見 据え</w>
見 学</w>
要 望</w>
襲 撃</w>
苦 闘</w>
芽 生え</w>
自 家</w>
自 在</w>
臆 病</w>
脱 却</w>
能 動</w>
耕 作</w>
老 齢</w>
羽 根</w>
締め 切り</w>
粘り 強</w>
粘 液</w>
筋 書き</w>
破 れ</w>
発 声</w>
留 守</w>
湿 地</w>
深 夜</w>
決め つけ</w>
気 まぐれ</w>
残 骸</w>
欠 落</w>
様 相</w>
極 小</w>
根 深</w>
枝 分かれ</w>
本 題</w>
望 め</w>
有 数</w>
暗 殺</w>
断 ち
数 年</w>
敬 虔</w>
散 らば</w>
損 ね</w>
揺 ら</w>
揺 さ
揺さ ぶ</w>
換 算</w>
排 他</w>
打ち 込</w>
手 話</w>
感 触</w>
想 起</w>
悪 名</w>
微 量</w>
弱 点</w>
引き 出し</w>
建 国</w>
座 標</w>
工 芸</w>
崇 高</w>
小 切手</w>
家 屋</w>
宛 て</w>
始 動</w>
夫 人</w>
天 空</w>
天 敵</w>
壁 画</w>
増 強</w>
回 れ</w>
喜 劇</w>
商 人</w>
和 音</w>
和 ら</w>
味 覚</w>
同 調</w>
取り 壊</w>
反 逆</w>
創 始</w>
出 勤</w>
出 世</w>
免 れ</w>
光 速</w>
傍 受</w>
付 加</w>
人 事</w>
乗っ 取</w>
両 端</w>
ロ ゼ
レッ テル</w>
ユ -</w>
ム チ</w>
マガ ジン</w>
マ ジ
マ クロ</w>
ポリ シ</w>
ポ ット</w>
ボ ロ</w>
ボ コ</w>
ホ ップ</w>
ベ ロ
プ ・</w>
プ ン</w>
ブレ -</w>
ブル ガリア</w>
フェ ル</w>
ファ イン</w>
ピ ュ
ビ ニ-</w>
ヒ ラリ</w>
パ ブ</w>
ド マン</w>
トロ -</w>
ト ベルト</w>
ト ゲ</w>
デ スク
ティビ ティ</w>
ティ ッシュ</w>
ティ -</w>
テ イメント</w>
ッ ソ</w>
ッ スル</w>
チョ ウ</w>
チャ ット</w>
ダウン ロ-</w>
ダイ ア
ダ ミ</w>
タ リング</w>
タ セット</w>
ソ ナ
スポ ック</w>
ス シャトル</w>
ジェ イ</w>
シエラレオ ネ</w>
サイ コ</w>
サ ミュ
ゴ ッホ</w>
コレ クタ</w>
ケン タ
クラ ス
ク ソ</w>
ギ リ</w>
ギ フト</w>
キャロ ル</w>
キ ベラ</w>
ガイド ライン</w>
カレ ッジ</w>
カメラ マン</w>
カウン セラ</w>
カウン セ
カ メ</w>
カ ヌ</w>
オ ラ
オ オ</w>
エジ ソン</w>
ウォル マ-ト</w>
ウ クライナ</w>
イ マン</w>
イ ナ
アル ミ</w>
アル ジャ
ア ラ</w>
ア キ
んぷ ん</w>
わ ば</w>
よ そ</w>
ぼ く</w>
は た
なる べく</w>
つな ぎ合わせ</w>
っち ゅう</w>
っし り</w>
だ せ</w>
た れ</w>
しょ っちゅう</w>
し わ</w>
け ん
u x</w>
m m</w>
ac k
TED x</w>
Rom o</w>
P h
G I</w>
CH A</w>
Amaz on</w>
AT M</w>
A V</w>
9 2</w>
7 1</w>
1 千</w>
-ル ・</w>
黒 板</w>
騎 士</w>
駆け 巡</w>
首 長</w>
飲 酒</w>
音 符</w>
靴 下</w>
集 結</w>
陶 器</w>
降 ろ</w>
防 護</w>
重 症</w>
這 い
透 過</w>
身 振り</w>
跳 ね
購 読</w>
読み 上げ</w>
誇 らし</w>
詩 的</w>
許 し</w>
見い 出</w>
見 本</w>
街 角</w>
菜 園</w>
菌 根</w>
舞 い
組 合せ</w>
竜 巻</w>
空き 地</w>
禁 煙</w>
破 り</w>
矯 正</w>
着 替え</w>
着 せ</w>
真 新し</w>
監 獄</w>
皮 革</w>
発 足</w>
痛 め</w>
疑 似</w>
畏 敬</w>
現 行</w>
牛 肉</w>
熱 中</w>
深 部</w>
消 し
海 兵</w>
浮 上</w>
歌 詞</w>
束 縛</w>
本 番</w>
是 正</w>
映 し</w>
撤 退</w>
押し 出</w>
投げ 出</w>
投げ つけ</w>
抑 止</w>
承 諾</w>
打ち 砕</w>
所 長</w>
憲 章</w>
悪 臭</w>
恋 し</w>
心 電</w>
待ち 構え</w>
引き 裂</w>
引き 取</w>
年 長</w>
工 具</w>
対 等</w>
家 賃</w>
奮 い
夫 妻</w>
大 昔</w>
大 喜び</w>
墜 落</w>
増 やせ</w>
四 方</w>
吹き 飛ば</w>
名 称</w>
名 刺</w>
同 級</w>
司 書</w>
台 本</w>
双 生</w>
原 型</w>
半 島</w>
創 発</w>
判 定</w>
分 厚</w>
出 場</w>
凍 結</w>
全 能</w>
先 見</w>
先 行</w>
先 人</w>
偽 薬</w>
仮 死</w>
仕 え</w>
人 手</w>
主 任</w>
中 ほど</w>
不 眠</w>
不 倫</w>
ヴァ ル
ン シップ</w>
レン ト
レイ ス</w>
レ バレ
レバレ ッジ</w>
リン パ</w>
リュ ック</w>
リ ハ</w>
リ ッ
ラ ブ
ヨ タ</w>
ユ -ザ</w>
ヤ モリ</w>
モ -ド</w>
メ トロ
ミ -</w>
マリ ファナ</w>
マ ジ</w>
ポ ップ
ポ ス</w>
ホン ジュ
ホンジュ ラス</w>
ホスピ ス</w>
ペン キ</w>
ヘル ツ</w>
ヘ ブラ
ヘブラ イ</w>
プロ スペ
ピク サ</w>
ピ カ</w>
ヒ ュ
パ ブリ
バレン タ
バレ エ</w>
バナ ンス</w>
ハ ンス</w>
ニ コ</w>
ニ コ-</w>
ナ マケ
ドミ ティア</w>
ド ス</w>
ト ヘ
デン マ</w>
デ ラ
ティ ン・</w>
ッ シ</w>
ッ クリスト</w>
チェ ックリスト</w>
ダイヤ ル</w>
ダ ラス</w>
タ フ</w>
セン シング</w>
セ ウス</w>
ズ ン</w>
ストロ ング</w>
スカ イ
ス ラ
ス ナ
ス ズ
ジャン ル</w>
ジャ ム</w>
ジェ ン
ジ ノム</w>
シン プリ</w>
サンド リア</w>
サイ モン</w>
サ ム
グル ト</w>
クリ -ン</w>
ギ ガ</w>
ガ バナンス</w>
カル テル</w>
オ プション</w>
エコノミ スト</w>
エ タ
エ イ</w>
ウェ スト</w>
ウィル ソン</w>
イン メント</w>
イン ディ
イ サ
アレ ン</w>
アスファ ルト</w>
ア ブ
ア ヒル</w>
れ 落ち</w>
れ ―</w>
め で
て っぺ
てっぺ ん</w>
つ づけ</w>
つ く
っぽ け</w>
ち っぽけ</w>
そ っち</w>
す す</w>
し が
しが みつ</w>
きょ う
きょう だい</w>
いき なり</w>
あん まり</w>
ros of
r at
p s</w>
ip edia</w>
i k
f t</w>
eB ay</w>
e y
e g
c t
Wik ipedia</w>
T O</w>
S D
R S</w>
R O
N PO</w>
Mic rosof
H D</w>
F l
D AR
C PU</w>
6 000</w>
5 1</w>
2, 3</w>
1 日</w>
-ン な</w>
- モ
- ニ
風 味</w>
預 言</w>
集 計</w>
閉 ま</w>
酔 い</w>
通 学</w>
逆 戻り</w>
迷 路</w>
辞 典</w>
転 機</w>
賜 物</w>
貝 殻</w>
調 教</w>
課 金</w>
試 算</w>
親 父</w>
見 習</w>
見 物</w>
落ち こぼれ</w>
荒 野</w>
草 地</w>
航 路</w>
自 伝</w>
羽 毛</w>
美 化</w>
線 形</w>
細 分</w>
素 直</w>
系 列</w>
算 出</w>
立て 直</w>
立 たし</w>
立 た</w>
空 調</w>
福 音</w>
社 内</w>
眼 球</w>
相 乗り</w>
目 隠し</w>
発 酵</w>
留 学</w>
狭 め</w>
特 集</w>
熱 烈</w>
熟 知</w>
無駄 遣い</w>
漬 け</w>
減 量</w>
混 ぜ
深 み</w>
流 路</w>
洗 浄</w>
気づ か</w>
歌 声</w>
機 動</w>
極 地</w>
格 闘</w>
早 め</w>
早 く</w>
日 系</w>
旅 立</w>
方 角</w>
散 らか</w>
救 援</w>
掘 り出</w>
振り 向</w>
指 向</w>
指 さ</w>
招 き
押し つぶ</w>
手 配</w>
手 掛かり</w>
意 地</w>
思い や</w>
応 じ</w>
得 点</w>
形 跡</w>
形 づく</w>
弾 け</w>
強 姦</w>
庭 園</w>
山 積み</w>
実 存</w>
学 期</w>
奪 い
奥 底</w>
大 卒</w>
在 宅</w>
口 論</w>
取 締</w>
危 害</w>
劣 悪</w>
到 底</w>
別 名</w>
切り 取</w>
切り 出</w>
出来 上がり</w>
入 門</w>
停 戦</w>
体 調</w>
住 め</w>
仕 組</w>
仕 立て</w>
人 員</w>
乞 い</w>
中 庭</w>
両 国</w>
下 落</w>
一 役</w>
ヴェ ン
ロボ ロ</w>
ロ ックス</w>
レント ゲン</w>
レ ポ</w>
ルズ ・</w>
ル イ</w>
リア テ</w>
リ ッチ</w>
モ デ
モ スク
メガ ワット</w>
メ ダル</w>
メ ソ
ミ ルトン</w>
マン グロ</w>
マ ル</w>
ボ ロボロ</w>
ホイ ッスル</w>
ヘ モ
フラ ッシュ</w>
フ ライ
ヒッ ピ</w>
ヒ ンドゥ</w>
パン チ</w>
パ ト
パ ッ</w>
パ ス
バン ジョ</w>
バ カ
ハン セン</w>
ハ サミ</w>
ハ グ</w>
ノ リ
ノ イマン</w>
ノ イ</w>
ネ ジ</w>
ニ ティ</w>
ナビ リティ</w>
ナ マ</w>
ナ チ</w>
ナ -</w>
ド ラ</w>
ド キ
ト ヨタ</w>
デスク トップ</w>
デ リ
ティ ラ
テ リ
テ インメント</w>
ツィ ア</w>
ツ キ</w>
ツ ァ</w>
チャ ル
チ ョ</w>
チ ウム</w>
ダ ル
ダ ブリン</w>
ソ ウル</w>
スト ップ</w>
スチ ュ-</w>
スタ ンス</w>
ジュ リアン</w>
ジェ ルス</w>
ジ メント</w>
シン ク</w>
シ リアル</w>
ザン ビア</w>
サミュ エル</w>
ゴ リアテ</w>
コルチ ゾ-</w>
コ イル</w>
ケ ヴィン</w>
グレ -ズ</w>
グ ッド</w>
クレ ア</w>
クリ スト
クラ スタ</w>
ク ズ</w>
キリ バス</w>
キ ッド</w>
エイ ド</w>
ウ ラン</w>
インフ ォ</w>
インスタ レ</w>
アン チ</w>
ア ジェンダ</w>
ア オ
わ い</w>
よそ 者</w>
ゆ み</w>
や ―</w>
み え</w>
ぼ り</w>
ぼ っち</w>
ば れ</w>
そう そう</w>
す す
す く</w>
さ っ</w>
こ い</w>
く る
ぎ 話</w>
おと ぎ話</w>
いっ しょ</w>
い て―</w>
or y</w>
o x</w>
o w</w>
e l</w>
an c
a t</w>
R e
PT CHA</w>
N ew
M a
Lin ux</w>
F I
CN N</w>
CA PTCHA</w>
B BC</w>
Arduin o</w>
8 9</w>
8 8</w>
5 7</w>
197 3</w>
養 成</w>
食 用</w>
食 欲</w>
頼 み</w>
陽 気</w>
降 雨</w>
降 水</w>
鍵 盤</w>
銃 声</w>
部 署</w>
逆 さま</w>
逃 亡</w>
近 頃</w>
足 場</w>
謝 罪</w>
詰 め
訊 ね</w>
解 き</w>
親 しみ</w>
覆 い
街 頭</w>
行き 詰ま</w>
花 火</w>
脳 幹</w>
脂 質</w>
胞 子</w>
胎 盤</w>
羽 目</w>
美 的</w>
美 容</w>
罹 患</w>
緯 度</w>
結 成</w>
精 通</w>
管 制</w>
突き 詰め</w>
突き 出</w>
突 飛</w>
空 け</w>
確 証</w>
石 鹸</w>
相 性</w>
発 覚</w>
発 泡</w>
生まれ 変わ</w>
焼 き</w>
無 効</w>
点 け</w>
炭 鉱</w>
炭 化</w>
激 怒</w>
潮 流</w>
測 量</w>
温 帯</w>
涼 し</w>
浸 食</w>
海 産</w>
流 産</w>
流 し込</w>
汚 水</w>
毛 皮</w>
毎 分</w>
殺 菌</w>
止 まり</w>
月 面</w>
最 長</w>
最 貧</w>
施 行</w>
断ち 切</w>
撃 ち
授 乳</w>
捕 らわれ</w>
振り 子</w>
手 立て</w>
手 始め</w>
懐 かし</w>
感 激</w>
悟 り</w>
性 欲</w>
当 日</w>
度 々</w>
平 穏</w>
帝 王</w>
局 面</w>
就 け</w>
家 計</w>
完 結</w>
字 幕</w>
大 腸</w>
塩 水</w>
固 執</w>
固 まり</w>
回 帰</w>
吸 入</w>
叫 び
取り締 ま</w>
取り 替え</w>
勃 発</w>
効 き</w>
前 列</w>
切り 取り</w>
処 罰</w>
公 益</w>
住 み
低 減</w>
他 社</w>
予 知</w>
予 感</w>
予 報</w>
中 西部</w>
下 がり</w>
一 族</w>
一 団</w>
一 丸</w>
ワ ン
ロ ラ</w>
レ モン</w>
レ ディ</w>
レ コ-ド</w>
リ ョ
リ ッジ</w>
ライ フル</w>
ラ キラ</w>
ユ -ロ</w>
メロ ドラマ</w>
メタ デ</w>
メ ジャ</w>
ミミ ズ</w>
ミ シェル</w>
ポ ッタ</w>
ペル シャ</w>
ベン バ</w>
プロ ット</w>
プラン ナ</w>
ブ -ス</w>
フレ -</w>
フラ イ</w>
フォ -ク</w>
ビック リ</w>
ビジネ スマン</w>
ビ ュ
バック アップ</w>
バ ニ</w>
ハッ シュ</w>
ハ -ト</w>
ネイ ロ</w>
ナマケ モノ</w>
ナノ テクノロジ</w>
ドラ マ
ドラ ゴン</w>
トニ ク</w>
デ マ</w>
ティ ックス</w>
ッ フル</w>
ッ と</w>
チェ ロ</w>
ダ ダ
タ センタ</w>
タ ゴ
ソ ング</w>
セク シュ
スマ -ト</w>
スペ シャル</w>
スピ リ
ステ ル</w>
スケ ジュ-</w>
ジャ ケット</w>
ジ ミ</w>
シングル マザ</w>
シャ ッタ</w>
シェ ット</w>
シ ズム</w>
ザ トウ</w>
サラ ダ</w>
ゴ ッド</w>
コン パクト</w>
コン テナ</w>
コ ロン</w>
ケ ガ</w>
グ ッ
クリス チャン</w>
クリ -ンな</w>
クラ テス</w>
クア ッド</w>
キャ スト</w>
キ ラキラ</w>
カル ロス</w>
カ タ</w>
エジ ン
エ ディ</w>
イン プラント</w>
イ ザ
アル ジェリア</w>
アイ ダ
ア ビ
れ 親し</w>
り 道</w>
よ ぎ</w>
み 上げ</w>
ほん とう</w>
ばら ばら</w>
な い</w>
な ―</w>
で んぷん</w>
づ つ</w>
つ かめ</w>
たい した</w>
すば や</w>
す く
す が</w>
す い
し ぶ
け 者</w>
け さ</w>
く ず</w>
お よ</w>
お し
い と</w>
い て
― ―</w>
r u
pp m</w>
ol o
W ol
W it
W K</w>
W H
T T
SD G
SDG s</w>
S k
M y
L HC</w>
I I</w>
D J</w>
D F</w>
8 3</w>
6 3</w>
2 500</w>
1 人
1 25</w>
-プン な</w>
- レンス</w>
- ス
- グルト</w>
鼓 舞</w>
飛び 越え</w>
音 速</w>
音 色</w>
露 出</w>
障 がい</w>
間 抜け</w>
酔 っぱ
部 材</w>
選 別</w>
遅 延</w>
連れ 出</w>
退 学</w>
辺 縁</w>
買 い</w>
貧 民</w>
読み 取り</w>
読 解</w>
言 わば</w>
言 い</w>
親 類</w>
覆い 隠</w>
術 後</w>
薦 め</w>
葉 書</w>
萎 縮</w>
華 氏</w>
花 び
花び ら</w>
肉 腫</w>
羽 ば
織 り
緩 衝</w>
編み 物</w>
結 び</w>
紙 切れ</w>
立ち 戻</w>
窒 息</w>
突き つけ</w>
硬 直</w>
瞭 然</w>
真っ 白</w>
真 逆</w>
監 査</w>
略 奪</w>
生 や</w>
理 事</w>
猛 烈</w>
特 筆</w>
照 合</w>
無 神</w>
潰 れ</w>
漠 然</w>
滑 走</w>
湿 度</w>
湿 地帯</w>
渡 り
混 じ
派 生</w>
派 手</w>
法 学</w>
治 せ</w>
沙 汰</w>
水 族</w>
水 力</w>
気 質</w>
毛 布</w>
機 内</w>
極 圏</w>
東 欧</w>
木 曜</w>
昨 今</w>
明 晰</w>
明 け
散 漫</w>
救 い出</w>
搬 送</w>
掻 き
排 尿</w>
捕 虜</w>
振り 回</w>
挑 発</w>
指 差</w>
拾 い
招き 入れ</w>
押し 込</w>
投げ 込</w>
打ち 出</w>
手 数</w>
慣 性</w>
惜 し</w>
恵 み</w>
性 交</w>
忍 び
後 者</w>
彫 り</w>
形 質</w>
引き 換え</w>
店 員</w>
幼 生</w>
年 頃</w>
平 衡</w>
市 販</w>
小 学</w>
容 姿</w>
実 業</w>
官 能</w>
学 業</w>
奮 闘</w>
天 の</w>
売 り込</w>
堕 落</w>
垣間 見</w>
図 表</w>
囲 い</w>
営 み</w>
命 題</w>
吐 き
各 自</w>
可 塑</w>
叫び 声</w>
取り 出せ</w>
創 業</w>
創 り上げ</w>
前 面</w>
初 心</w>
刑 罰</w>
再 犯</w>
円 周</w>
内 的</w>
偏 り</w>
作り 直</w>
住 処</w>
伝 導</w>
代 用</w>
付 着</w>
付 与</w>
人 目</w>
亀 裂</w>
乳 幼児</w>
丸 め</w>
一 筋</w>
一 掃</w>
一 因</w>
ルネ サンス</w>
ル ストリ-ト</w>
ララララ ララララ
ヨ ハ
モン ゴ
モ ミ</w>
モ ス</w>
メガ ネ</w>
メ リンダ</w>
メ イク</w>
ム ダ</w>
ム ズ
ミ ト
ミト コン
ミトコン ド
ミトコンド リア</w>
ミ クロン</w>
マン ド</w>
マ フ
マ ハ
ボ ノ</w>
ペンシル ベニア</w>
ベ ジ
プロフェ ン</w>
プ ライド</w>
ブ -</w>
フォ ト
フ リン</w>
フ セ
ビ リ
パ プ
パ ナマ</w>
バイ ザ</w>
ハン プ
ハイ エ
ネ バ
ニ ン
ト ライ
ト アップ</w>
ディ ション</w>
デ ング</w>
デ ッキ</w>
テ オ
チョ -</w>
チ ッ</w>
ダ リング</w>
タミ フル</w>
タイ タス</w>
スペ -ス</w>
スパ ゲ
シル ビア</w>
シル バ</w>
サン タ</w>
サ リン</w>
コ フ</w>
ケ ニヤ</w>
グラフィ ックス</w>
クリ スタ
ク ランド</w>
ク ォ
ク イ
ギ ュ
キロ グラム</w>
ガ ワン</w>
カラ フル</w>
カナ リア</w>
カウンセ リング</w>
カ モ</w>
カ モ
オリ バ</w>
オ フ
オ ズ</w>
オ スカ</w>
エンケラ ドス</w>
エレク トロ
エジン バラ</w>
エキ スパ
エウ ロパ</w>
ウィ -ン</w>
ウ ト</w>
イブ プロフェン</w>
イサ ベル</w>
イ バン</w>
イ ケア</w>
アンドロ イド</w>
アン デス</w>
アレク サンダ</w>
アシ カ</w>
ア メ</w>
ん じ</w>
や や
やや こし</w>
めで と</w>
み 取</w>
ひ し</w>
は よう</w>
と たん</w>
でっち 上げ</w>
ぞ まし</w>
す ね</w>
ご ちゃ
き み</w>
が し</w>
か ゆみ</w>
お はよう</w>
お ぞまし</w>
い ち</w>
い ざ</w>
あ ちら</w>
あ いつ</w>
re e</w>
i st
U n
S T</w>
N BA</w>
In ter
E L
DI Y</w>
D D
B R
6 50</w>
- リ
- フ
- ゼ</w>
馴 染</w>
飲 め</w>
食 器</w>
電 線</w>
雑 草</w>
重 役</w>
酔 っ
配 り</w>
過ぎ 去</w>
遊 べ</w>
通 説</w>
迷 惑</w>
迫 り</w>
近 付</w>
辺 境</w>
躊 躇</w>
貫 通</w>
貪 欲</w>
誇 示</w>
見 込</w>
補 充</w>
裂 け</w>
行 く
若 手</w>
苛 立</w>
色 分け</w>
良 さ</w>
船 体</w>
舞 伎</w>
舐 め</w>
興 国</w>
考え つ</w>
編 纂</w>
組み 上げ</w>
細 心</w>
素 質</w>
等 々</w>
立ち 返</w>
立ち 直</w>
立ち 会</w>
突き 抜け</w>
空 き</w>
祭 壇</w>
瞬 き</w>
真っ 暗</w>
省 エ
省エ ネ</w>
監 房</w>
痛 まし</w>
異 論</w>
甲 虫</w>
生き 返</w>
生 誕</w>
物 流</w>
無 音</w>
無 機</w>
潤 沢</w>
漁 獲</w>
満 喫</w>
流 し</w>
泥 棒</w>
歌 舞伎</w>
楽 天</w>
栄 誉</w>
染 料</w>
更 生</w>
星 々</w>
新 興国</w>
新 品</w>
断 層</w>
整 合</w>
教 皇</w>
描 画</w>
接 合</w>
掘り 起こ</w>
折り 目</w>
折 り</w>
戦 時</w>
憤 慨</w>
慣 れ親し</w>
慌 て</w>
愛 想</w>
思い つき</w>
巡 ら</w>
山 々</w>
密 輸</w>
宿 泊</w>
宝 庫</w>
定 数</w>
学 歴</w>
学 力</w>
威 厳</w>
大 麻</w>
外 生命</w>
売 り上げ</w>
士 官</w>
埋 ま</w>
地 熱</w>
地 政</w>
困 窮</w>
呼び 名</w>
北 欧</w>
募 集</w>
動 植物</w>
出 張</w>
再 考</w>
円 形</w>
内 科</w>
具 現</w>
兵 隊</w>
入れ 替え</w>
入 植</w>
入 場</w>
傍 ら</w>
停 電</w>
偉 人</w>
信 奉</w>
伝 道</w>
仮 面</w>
付 属</w>
交 信</w>
交 え</w>
乗 れ</w>
不 良</w>
一 覧</w>
一 線</w>
ン マ</w>
ロゼ ッタ</w>
ロ マンス</w>
ロ ニ</w>
ロ ジャ</w>
ル バ</w>
ル カ</w>
リン ガル</w>
リ クエスト</w>
モスク ワ</w>
メ イド</w>
ミ ラ
ミ クス</w>
マル ウェア</w>
マダ ガ
マダガ スカル</w>
マ ジシャン</w>
ボディ ラン
ボ ンド</w>
ボ ク
ホル ム</w>
ペ プシ</w>
ベジ タ
プロ フィ
プラ グ</w>
ブリ ティッシュ</w>
ブド ゥ
フェ ラ</w>
フ クロ
ビ ック</w>
ヒョ ン
パン フレット</w>
パル トヘ
パルトヘ イト</w>
バ ンド
バ トン</w>
ハイエ ナ</w>
ハ ム
ノ ルド</w>
ノ ミ</w>
ニ ッチ</w>
ナン シ</w>
ナノ メ</w>
ナ レ</w>
ナ ギ</w>
ド レ</w>
ディ ック</w>
ティ ス</w>
ツ ル</w>
ツ ムリ</w>
ツ -</w>
ッツ ェ
チャ ネル</w>
ダイ ダ
ダイダ ロス</w>
ソ ル
ソ -ス</w>
ス モ
ス プレ
ジョ イ</w>
ジャ クソン</w>
ジ ロ
ジ ハ</w>
シン フォ
シロ クマ</w>
サステ ナビリティ</w>
サイ エン
サ マンサ</w>
サ -バ</w>
ゴ シック</w>
コ ミック</w>
コ スチュ-</w>
クロ ス
クリエイ ティビティ</w>
クリ エ</w>
ク ワ
キャ ッチ</w>
キャ サリン</w>
キ ョ
キ ック</w>
ガ キ</w>
カフェ イン</w>
カタ ツムリ</w>
オ レ</w>
エ ロ
ウン チ</w>
イ ボ</w>
イ ネ</w>
アド バイザ</w>
アイダ ホ</w>
ア ンス</w>
ア ワ</w>
ア パルトヘイト</w>
ろう そく</w>
れ ん</w>
よ み
よみ がえ</w>
よ け</w>
も ろ
ま ん
は ね</w>
は し
で た
でた らめ</w>
つま み</w>
せっ かく</w>
ず み</w>
じ き</w>
し き
し え</w>
し ―</w>
か ご</w>
お ろ
え 合</w>
あら わ</w>
あい だ</w>
ra m</w>
k ed
j ec
en t</w>
World W
V C</w>
UC LA</w>
TE M</w>
S TEM</w>
P DF</w>
M A
Lin ked
L I
J ust
CI A</w>
C as</w>
C P</w>
AC E</w>
8 000</w>
7 9</w>
7 4</w>
5 ,
198 5</w>
197 6</w>
1 600</w>
馳 せ</w>
養 魚</w>
飲 み</w>
顧 み</w>
預 金</w>
静 けさ</w>
電 化</w>
陳 腐</w>
闘 士</w>
開 閉</w>
開 花</w>
重 ね
選 り
遅 く</w>
造 形</w>
速 やか</w>
逆 向き</w>
逃 走</w>
送 電</w>
追い 越</w>
躍 進</w>
起 き上が</w>
護 衛</w>
諸 々</w>
見 栄え</w>
要 件</w>
補 正</w>
装 具</w>
行き 先</w>
螺 旋</w>
融 解</w>
虐 げ</w>
茶 苦
茶苦 茶</w>
自 画像</w>
美 人</w>
繋 ぎ</w>
縫 い
簡 易</w>
築 け</w>
硫 黄</w>
短 命</w>
目 線</w>
白 色</w>
発 話</w>
生い 立ち</w>
玩 具</w>
物 乞い</w>
災 難</w>
溶 液</w>
溶 岩</w>
湾 岸</w>
消 し</w>
海 氷</w>
流 暢</w>
汎 用</w>
水 源</w>
気 管</w>
気 がかり</w>
段 々</w>
東 ドイツ</w>
本 体</w>
木 製</w>
書き 上げ</w>
暴 走</w>
暗 示</w>
暖 め</w>
昨 夜</w>
旧 式</w>
旦 那</w>
断 固</w>
整 頓</w>
教え 子</w>
推 薦</w>
拘 置</w>
或 いは</w>
懐 中</w>
心 がけ</w>
微 笑み</w>
後 世</w>
待 機</w>
彼 氏</w>
弾 力</w>
弱 体</w>
引っ かか</w>
広 まり</w>
幹 線</w>
年 度</w>
工 房</w>
属 性</w>
居 間</w>
就 労</w>
対 極</w>
学 年</w>
学 区</w>
奇 数</w>
大 勢い</w>
多 重</w>
売 り出</w>
垂 れ</w>
四 肢</w>
噛 み
善 悪</w>
命 名</w>
呪 文</w>
含 有</w>
吐き 気</w>
右 端</w>
受け 身</w>
占 い</w>
励 み</w>
割 り</w>
刷 新</w>
制 圧</w>
切り 落と</w>
分 担</w>
公 約</w>
公 然</w>
入 浴</w>
保 て</w>
交 代</w>
主 婦</w>
世 俗</w>
万 端</w>
ヴィン チ</w>
ル ル</w>
ル ギ</w>
リオ デジャ
リオデジャ ネイロ</w>
ラス ベ
ラスベ ガス</w>
ラ イン
メラ ニン</w>
ミネ ラル</w>
マフ ム</w>
マニュ エル</w>
マッ チング</w>
ポッ サム</w>
ポ スト
ペ ストリ</w>
ベロ ニカ</w>
ベ ッカ</w>
ブル ク</w>
フラ ップ</w>
フラ ット</w>
フュ ス</w>
フセ イン</w>
フォ-チュ ン</w>
ピカ ソ</w>
ピ ック
パン バニ</w>
パ スカル</w>
バビ ロン</w>
バッ ハ</w>
ハイ キング</w>
ネ フリン</w>
ニュ アンス</w>
ニ ャ
ナン センス</w>
ナノ チュ-</w>
ナ ガス</w>
ドレ フュス</w>
ドキ ド
ドキド キ</w>
ド ウ</w>
トル ズ</w>
ト リア</w>
ト ホ-</w>
デ ュ</w>
ティ ナ</w>
ック ホルム</w>
チョ コ</w>
ダイ アナ</w>
ダ グ</w>
ソ ロモン</w>
セル ビア</w>
セ ネ
ズ レ</w>
スペ クト
スペクト ラム</w>
スト ニア</w>
スト ックホルム</w>
ス キャン
ジュ リ
ジェ ル</w>
ジ ック
シン セ
シロ ナガス</w>
ショ ウ
シャル ル</w>
サン プリング</w>
サン デル</w>
サイ マ
サ ミット</w>
サ ケ</w>
ゴ ラ</w>
コ ック
グ ミ</w>
ク リア</w>
キュ リ</w>
ガ ラ</w>
エピ ネフリン</w>
エキスパ -ト</w>
エ スカ
ウ エ
イリ ノイ</w>
イ ヴ</w>
アレ ルギ</w>
アク セ
ろ 過</w>
また もや</w>
ま じ</w>
ぺ ら</w>
とき どき</w>
でき あがり</w>
つ いで</w>
たど りつ</w>
た る</w>
た やす</w>
た び
すす め</w>
じ か</w>
さら け出</w>
さっ さと</w>
ささ や</w>
こと わざ</w>
こ ぼ
け な</w>
け い
く しゃ
ぎ な</w>
き 出し</w>
か み</w>
か なえ</w>
い 事</w>
い とこ</w>
い ―</w>
— —</w>
ph a</w>
o u</w>
i c</w>
e x
at a</w>
ar t
Wol f
W ar
S M</w>
S A
L if
In st
I m
CA D</w>
C or
C on
Al pha</w>
6 1</w>
198 7</w>
198 3</w>
196 9</w>
鶏 肉</w>
養 護</w>
食 い</w>
飛び 交</w>
静 聴</w>
離 れ
閉 塞</w>
針 金</w>
野 郎</w>
重ね 合わせ</w>
部 類</w>
遺 族</w>
逆 説</w>
近 し</w>
輪 郭</w>
象 牙</w>
議 題</w>
議 定</w>
諸 君</w>
読み 聞かせ</w>
評 議</w>
言い 当て</w>
親 族</w>
親 子</w>
見 届け</w>
覆 い</w>
褒 め
補 足</w>
補 聴</w>
街 灯</w>
行き 詰まり</w>
蜘 蛛</w>
落と し
苛 立ち</w>
良 し</w>
航 行</w>
背 け</w>
老 年</w>
美 学</w>
置 換</w>
缶 詰</w>
繰 り出</w>
織 り</w>
縦 横</w>
編 み</w>
総 会</w>
綿 密</w>
終 盤</w>
立ち 寄</w>
種 々</w>
移 入</w>
神 学</w>
砂 粒</w>
着 生</w>
相 応</w>
相 乗</w>
直 近</w>
発 案</w>
病 質</w>
異 質</w>
甚 大</w>
独 学</w>
物 凄</w>
牧 場</w>
牢 獄</w>
牢 屋</w>
燃え 尽き</w>
燃 費</w>
点 字</w>
火 葬</w>
漏 ら</w>
湾 曲</w>
渦 巻</w>
渡 せ</w>
消 去</w>
流 域</w>
洞 穴</w>
求 愛</w>
水 曜</w>
母 体</w>
段 落</w>
残 せ</w>
歩 き</w>
楽 団</w>
根 幹</w>
根 ざ</w>
染 ま</w>
東 側</w>
最 上</w>
断 り</w>
放 り出</w>
掛け 算</w>
持ち 物</w>
拾い 上げ</w>
拡 が</w>
押し 広げ</w>
投げ 捨て</w>
成り 行き</w>
感 嘆</w>
惚 れ</w>
情 景</w>
情 動</w>
恥 ず</w>
恥 じ</w>
恐 る</w>
思い 付</w>
怒 鳴</w>
心 筋</w>
心 得</w>
引 け</w>
廃 墟</w>
廃 れ</w>
広 報</w>
年 少</w>
年 々</w>
幕 開け</w>
帰 り道</w>
尽 力</w>
小 石</w>
導 体</w>
導 き
寓 話</w>
宣 教</w>
定 年</w>
学 び
婚 姻</w>
大 海</w>
大 局</w>
外 的</w>
外 来</w>
変わり 者</w>
変 遷</w>
塗 り</w>
均 質</w>
図 解</w>
問い 合わせ</w>
商 用</w>
呼び 寄せ</w>
呑 み</w>
吸い 上げ</w>
吠 え</w>
名 人</w>
同 位</w>
収 録</w>
南 下</w>
刺 繍</w>
切り 裂</w>
切り 倒</w>
凶 暴</w>
兼 ね
全 粒</w>
入 念</w>
元 来</w>
傷 害</w>
保 安</w>
侵 食</w>
作り 話</w>
体 液</w>
体 感</w>
伸 び
会 見</w>
任 命</w>
人 質</w>
交 際</w>
両 足</w>
不 貞</w>
不 幸せ</w>
不 在</w>
万 物</w>
一 群</w>
・ スノ</w>
ヴィ ア</w>
ロス リング</w>
ロ マン</w>
ロ イ
リン グ
リ フト</w>
リ チウム</w>
ラン ナ</w>
ラン ド
ラン カ</w>
ラッ セル</w>
ライ リ</w>
ラ ト
ラ ッパ</w>
ヨ ン</w>
ヤ マ
モル ジ
モルジ ブ</w>
モ ロッコ</w>
モ ディ
ム ワ-ク</w>
ミ ング
ミ リア
ミ ャ
ボ ニカ</w>
ボ ウル</w>
ホワイ トピア</w>
ホ プ
ベル ギ</w>
ベジタ リアン</w>
ベ -ト</w>
プロジェ クタ</w>
プロ ダ
プ レス</w>
プ タウン</w>
プ スイ</w>
ブラ インド</w>
フクロ ウ</w>
フォ ルト</w>
ファ ラ
ビル マ</w>
ビ -ム</w>
パロ ディ</w>
バイ リンガル</w>
バ ハマ</w>
ハリ エット</w>
ハウ ジング</w>
ハイ パ</w>
ハ ニ</w>
ネイ ティブ</w>
ナ ッ
ド バイ</w>
トリ ノ</w>
ト レス</w>
ディ ベア</w>
デ フォルト</w>
デ ア</w>
テレ サ</w>
テ ック</w>
チェ ン
チ カット</w>
ソ ワ</w>
ゼ イ</w>
セレ ブ</w>
セミ コロン</w>
セ ム</w>
セ クション</w>
セ -ジ</w>
スモ ッグ</w>
スパイ ダ</w>
スキャン ダル</w>
ス メ-</w>
ジョ アン</w>
ジェ ン</w>
ジェ フリ</w>
ジェ シ</w>
ジェ -ン</w>
ジ ニ</w>
シン ガ</w>
ショ -</w>
シュ -ズ</w>
シ ル</w>
シ ッタ</w>
サイ コロ</w>
サ リ
コネ チカット</w>
コ ラム</w>
コ ブラ</w>
コ ック</w>
ケンタ ッキ</w>
ケ ティング</w>
ケ ス</w>
グロ ビン</w>
グリ ル</w>
グ モ</w>
グ アテ
グアテ マラ</w>
クリスタ ル</w>
クリ スティ</w>
クォ -</w>
ク タ
ギャ ン
キ ビ</w>
キ テク
キ セ
ガ ラクタ</w>
カン ジ</w>
カリ ウム</w>
カ ミ
カ ビ</w>
カ テ</w>
オフ ショ
エ デン</w>
ウォ -ズ</w>
イン プット</w>
イ マ</w>
アン トニ
アレク サンドリア</w>
アミ ロイド</w>
アピ -ル</w>
ア ヘン</w>
ア ト
ア サン
や き</w>
まと まり</w>
ほど 遠</w>
ふ れ
ふ たり</w>
ひ ね</w>
ばか ば
ばかば かし</w>
の ―</w>
ねじ れ</w>
に ―</w>
な じ</w>
つぶ や</w>
つき まと</w>
ち が</w>
た き</w>
そろ え</w>
す ま</w>
しる し</w>
けい れん</w>
け っ
くつ ろ</w>
く た</w>
かけ がえ</w>
かき 立て</w>
お 陰</w>
お や</w>
お とり</w>
お さめ</w>
s ha
s er
ram Alpha</w>
ra ft</w>
ow er</w>
o v
is h</w>
id e
ic s</w>
he m
er s
d e
ch ang
an d</w>
al l
Wolf ramAlpha</w>
WH O</w>
Sk y
S AR
R AM</w>
Pro jec
N Y
IN C
INC RA</w>
F O</w>
AD HD</w>
A nd
A P
A C</w>
A BC</w>
5 0
198 8</w>
19 18</w>
1 400</w>
1 200</w>
- ク
黎 明</w>
餌 食</w>
願 い事</w>
音 程</w>
離 せ</w>
隣 国</w>
隠 れ
隠れ 家</w>
障 り</w>
防 水</w>
錐 体</w>
重 傷</w>
都 心</w>
遺 物</w>
遠 慮</w>
過 多</w>
遊 牧</w>
逸 脱</w>
連れ 去</w>
造 船</w>
通 称</w>
農 耕</w>
辛 抱</w>
軸 索</w>
転 送</w>
転 用</w>
身 動き</w>
貯 畜</w>
豆 腐</w>
証 券</w>
見つ め
見つめ 直</w>
見 通</w>
見 立て</w>
被 写</w>
薄 暗</w>
茂 み</w>
若 年</w>
芝 居</w>
至 上</w>
自 白</w>
腹 立たし</w>
胸 部</w>
肩 書き</w>
肥 大</w>
義 理</w>
置 け</w>
緑 地</w>
緊 迫</w>
緊 密</w>
継 承</w>
絞 り込</w>
終 り</w>
紅 茶</w>
破 産</w>
真っ すぐ</w>
真 水</w>
相 棒</w>
盲 点</w>
監 禁</w>
登 校</w>
登 壇</w>
病 的</w>
疫 学</w>
番 地</w>
界 隈</w>
画 質</w>
申し 立て</w>
田 園</w>
産 出</w>
生 類</w>
煩 わし</w>
濃 縮</w>
激 突</w>
源 泉</w>
満 々</w>
混ぜ 合わせ</w>
混じ り合</w>
混 雑</w>
消し 去</w>
洗 脳</w>
洗 剤</w>
波 及</w>
法 人</w>
沈 み</w>
水 滴</w>
水 上</w>
気 力</w>
残 響</w>
欠 か</w>
楽 曲</w>
格 段</w>
果 樹</w>
本 土</w>
書き 留め</w>
暴 君</w>
時 給</w>
早 朝</w>
方 言</w>
斬 首</w>
斜 め</w>
数 式</w>
教え 込</w>
放 題</w>
放 課</w>
放 牧</w>
操 り</w>
撫 で</w>
撤 廃</w>
握り しめ</w>
排 気</w>
捕 鯨</w>
押し 進め</w>
押し つけ</w>
折り 合い</w>
抗 争</w>
抗 がん</w>
投 下</w>
打ち ひし</w>
打 開</w>
手 錠</w>
手 入れ</w>
所 蔵</w>
戯 曲</w>
成 形</w>
感 化</w>
悪 党</w>
恒 久</w>
急 性</w>
急 ぎ</w>
思い 知ら</w>
忠 告</w>
忘 れ去</w>
心 強</w>
従 順</w>
当 て
平 坦</w>
干 上が</w>
差し 迫</w>
巡 り</w>
小 数</w>
対 数</w>
審 判</w>
察 し</w>
家 々</w>
実 話</w>
実 り</w>
宝 物</w>
完 治</w>
学 士</w>
子 猫</w>
婚 約</w>
威 嚇</w>
威 力</w>
好 機</w>
外 務</w>
報 復</w>
埋 蔵</w>
回 廊</w>
嘲 笑</w>
嘘 つき</w>
嗅 ぎ
呼び 戻</w>
名 言</w>
合 体</w>
取り 扱</w>
取 っ
収 束</w>
医 科</w>
北 極圏</w>
包 装</w>
刻 み込</w>
切 実</w>
内 視</w>
儲 か</w>
傷 口</w>
倍 速</w>
信 託</w>
体 長</w>
体 育</w>
体 積</w>
伸 ばせ</w>
仕 草</w>
仕 様</w>
二 進</w>
了 解</w>
中 古</w>
両 生類</w>
上 演</w>
ン クッキ</w>
ロ ブ
ロ ビン</w>
ロ ド
ロ キ</w>
レイ チェル</w>
ル ビ</w>
リン チ</w>
ライ ツ</w>
モ チャ</w>
メ -ト</w>
ム バラク</w>
ミ レ</w>
マラ ラ</w>
マネ ジメント</w>
ポ テン
ボ ネ</w>
ホッ ケ</w>
ホ ント</w>
ホ -ス</w>
ペ ダル</w>
ベ ンダ</w>
ベ ビ</w>
ヘモ グロビン</w>
ヘ ラン</w>
ヘ クタ</w>
プロフェ ッ
プロフィ -ル</w>
プロト コル</w>
プレ ックス</w>
ブル ック</w>
フレン ドリ</w>
フリ ント</w>
フォ-チュ ンクッキ</w>
フォ ト</w>
ファン タ
ファンタ ジ</w>
ファ ヴェ
ピ ュ-</w>
ビ ィ</w>
パブリ ック</w>
パイ ヤ</w>
パ ム</w>
パ パイヤ</w>
パ スタ
バレンタ イン</w>
バル カン</w>
バ ニ
バ スタ
バ スケ</w>
バ -ン</w>
ハド ソン</w>
ハ ンド
ノン ゼロ</w>
ノミ クス</w>
ノ ック</w>
ノ サウルス</w>
ネバ ダ</w>
ネ オ
ニコ ラス</w>
ナ ブル</w>
ナ チュ
ナ サ
ナサ ニエル</w>
ドロ シ</w>
ドラマ チック</w>
トリ ニ
トゥ -</w>
ト ミ</w>
ト バ
ト -ン</w>
デザ イア</w>
デイ ブ</w>
デ タ</w>
テ ム</w>
テ ヘラン</w>
テ イラ</w>
ット ニ</w>
ッツェ ル</w>
ッ チ
チャ プスイ</w>
チェ ア</w>
チ ブ</w>
ダ ッシュ</w>
ダ -</w>
タイ ガ</w>
タ ハリ</w>
タ カ</w>
ソ タ</w>
ソ ウ</w>
セン トラ
セミ クジラ</w>
セ -</w>
スリ ル</w>
スリ ランカ</w>
スピ リン</w>
スパゲ ッティ</w>
ステ ント</w>
ス ロ
ジュリ エット</w>
ジャ コ</w>
ジャ イル</w>
ジ ハ-</w>
ショッ キング</w>
シュ ヴァ
シャル ワ-</w>
シャル ネットワ-ク</w>
シ マ
シ フ
サプライ チェ-ン</w>
コレ クト</w>
コ コ</w>
コ カ</w>
ゲ イリ</w>
クレ イ</w>
ク スル</w>
ギ ング</w>
キュ レ</w>
キャ ット</w>
キ ツ
ガ ザ</w>
カ ルド</w>
カ ラム</w>
カ -ン</w>
オリン ピ
オ モチャ</w>
オ メガ</w>
オ ベ</w>
オ プラ</w>
オ ゾン</w>
オ アシ
オアシ ス</w>
エク ア
エクア ドル</w>
エ レン</w>
ウェ ン</w>
ウ ナギ</w>
インタ フェ-</w>
イン ディアン</w>
イニシア チブ</w>
イチ ゴ</w>
イエ ロ</w>
イ デ</w>
イ スタン
アトラ ジン</w>
アシ スタント</w>
アク セント</w>
ア スピリン</w>
ア ジャイル</w>
ろう じて</w>
も あれ</w>
め れ</w>
む つ</w>
む け</w>
み こ</w>
ま なく</w>
ま かせ</w>
ぼ み</w>
ぶら 下が</w>
ぶ つ
ぶ っ
ぱ り</w>
はた また</w>
はじ ま</w>
は が</w>
な ぁ</w>
つ くれ</w>
ちっ とも</w>
たび たび</w>
そ こそこ</w>
そ いつ</w>
すい 臓</w>
ざ し</w>
けん か</w>
け 橋</w>
ぐる ぐ
ぐるぐ る</w>
ぐ り
く っ</w>
く じ
が り
かぎ り</w>
か ろうじて</w>
か たまり</w>
か ざ</w>
おび え</w>
え っ</w>
う た</w>
い ら</w>
u m</w>
st er</w>
ri z
q u
iv e
h oo
en s</w>
c or
b ot</w>
at er</w>
ar e</w>
\ /
Wom en</w>
V A</w>
St u
P riz
O L</w>
O CD</w>
Microsof t</w>
M L</w>
L E
K ick
IC U</w>
FOX O</w>
F E
DAR PA</w>
D e
And ro
AS L</w>
1人 ひとり</w>
198 2</w>
197 8</w>
195 7</w>
1 23</w>
-ン ショット</w>
-ル ド
-モ ニ</w>
鵜 呑み</w>
髪 型</w>
高 潔</w>
髄 膜</w>
駆け 足</w>
首 輪</w>
飼 料</w>
食 肉</w>
飛び つ</w>
風 呂</w>
非 凡</w>
静 物</w>
電 信</w>
陶 酔</w>
陥 れ</w>
金 色</w>
重 圧</w>
重 き</w>
配 送</w>
邪 気</w>
選び 出</w>
遅 刻</w>
通 念</w>
途 切れ</w>
農 薬</w>
転 落</w>
車 内</w>
購 買</w>
質 素</w>
貧 弱</w>
負 け
課 税</w>
誘 い</w>
試 料</w>
言い 回し</w>
親 近</w>
覚 まし</w>
見積 もり</w>
見 覚え</w>
見 地</w>
落 第</w>
華 やか</w>
苦 情</w>
色 合い</w>
良 質</w>
船 乗り</w>
職 種</w>
聴 こえ</w>
聖 典</w>
老 廃</w>
羊 飼い</w>
繋 ぎ合わせ</w>
締めく くり</w>
総 数</w>
続 編</w>
絶 妙</w>
絶 大</w>
絵 本</w>
終 い</w>
糸 口</w>
精 霊</w>
精 査</w>
競 い合</w>
突き 破</w>
称 号</w>
祭 り</w>
砕 け</w>
真っ 黒</w>
真っ 赤</w>
盗 難</w>
疲 弊</w>
異 端</w>
町 中</w>
男 らし</w>
現 に</w>
独 り
片 足</w>
片 目</w>
照 ら
焼 却</w>
無 罪</w>
点 灯</w>
滑 稽</w>
滅 び</w>
溢 れ
海 抜</w>
活 版</w>
波 紋</w>
法 務</w>
歌 え</w>
欠 損</w>
構 文</w>
梗 塞</w>
株 価</w>
校 舎</w>
果 たし</w>
条 理</w>
本 社</w>
昨 晩</w>
旺 盛</w>
早 速</w>
日 の
旋 回</w>
斑 点</w>
整 然</w>
数 量</w>
放 浪</w>
放 り込</w>
支 障</w>
擬 人</w>
揺る ぎな</w>
揺る が</w>
推 計</w>
排 卵</w>
振 付</w>
持 参</w>
拡 げ</w>
拘 留</w>
担 保</w>
抜 粋</w>
払 拭</w>
手 掛け</w>
手 中</w>
手 すり</w>
懲 役</w>
感じ 取れ</w>
愛 他</w>
悪 事</w>
心 室</w>
微 か</w>
復 習</w>
弾 頭</w>
引き 合わ</w>
幾 分</w>
年 末</w>
帰 結</w>
巻き 起こ</w>
差し 上げ</w>
山 岳</w>
屈 折</w>
居 合わせ</w>
将 校</w>
封 鎖</w>
容 積</w>
家 電</w>
実 地</w>
定 ま</w>
安 らぎ</w>
守 り</w>
失 せ</w>
大 物</w>
多 量</w>
多 岐</w>
多 動</w>
変 人</w>
塗 装</w>
報 奨</w>
基 底</w>
地 殻</w>
国 内外</w>
商 店</w>
呪 い</w>
周 縁</w>
吸 引</w>
同 感</w>
同 定</w>
可哀 想</w>
取り 外</w>
反 面</w>
原 点</w>
厚 み</w>
単 離</w>
南 東</w>
区 分</w>
勾 留</w>
力 づけ</w>
創 り
切り 刻</w>
凍 え</w>
内 陸</w>
公 務</w>
光 度</w>
先 駆け</w>
備 蓄</w>
偵 察</w>
使い 物</w>
作り あげ</w>
何 しろ</w>
休 止</w>
仕 打ち</w>
二 者</w>
両 腕</w>
不 明瞭</w>
上 り
一 途</w>
ヴェン タ</w>
ヴィ ス</w>
ワ リ</w>
ロサン ジェルス</w>
レ プ
レ スト</w>
ル ガ</w>
リョ コウ
リョコウ バト</w>
リス ニング</w>
リ リ-ス</w>
リ ボン</w>
リ タ-ン</w>
リ ウス</w>
リ -グ</w>
ライ カ</w>
ラ ラ</w>
ヨ ン
ユニ バ</w>
モンゴ ル</w>
モディ ティ</w>
メ ラ</w>
メ チル</w>
ム ド</w>
ミャ ンマ</w>
ミニ ウム</w>
ミステ リアス</w>
ミ ント</w>
ミ ナル</w>
マ リオ</w>
ポジ ション</w>
ポ ッド</w>
ボ ナ
ホッ ケン
ホッケン ベリ</w>
ホッ キョ
ホ メ
ヘ ザ</w>
プロフェッ ショナル</w>
プライ タ</w>
ブロ ンズ</w>
ブレ ア</w>
ブ ルド</w>
フレン チ</w>
フェ ット</w>
ファ ミリ</w>
ファ ックス</w>
ファ イ</w>
フ ッド</w>
フ スキ</w>
ピ ッツ
ピ ストン</w>
ビン キ</w>
ヒ ド</w>
ヒ ト
パン チカ</w>
パ スタ</w>
バ フェット</w>
バ ッジ</w>
バ オ
ハン ナ</w>
ハン ガ</w>
ハド ロン</w>
ハ ナ
ハ ト</w>
ノル マン</w>
ニ アン</w>
ニ -ル</w>
ナチュ ラル</w>
ナ シ</w>
ドラ イ</w>
ド レッド</w>
ド ウェイ</w>
トマ ト
ディ ・</w>
デ ニ
ティ モア</w>
ティ -ン</w>
テ ラス</w>
テ ラ
テ イ</w>
テ -</w>
ツ マン</w>
ツ ェ</w>
チャ ド</w>
チャ イ
チェ リ</w>
ダ ルフ</w>
ダ グラス</w>
タイ プライタ</w>
タ ペストリ</w>
ゾ ネス</w>
セ タス</w>
ズ -ム</w>
スト レ-ト</w>
スチュ ア</w>
スタン ディング</w>
ジック ビデオ</w>
ジオ グラフィック</w>
ジェイ ムズ</w>
ジェ クト</w>
ジ タウン</w>
ショウ ジョ
ショ ン
サン ディ</w>
サン グラス</w>
サッ カ-</w>
コン トロ-</w>
コク ラン</w>
コ モディティ</w>
コ ス</w>
ゲ ルマン</w>
グラフィ ティ</w>
グ レイ</w>
グ レイ
クリ -ム</w>
クオ リティ</w>
ク -</w>
ギャン ブル</w>
ギ ル</w>
ギ ガ
キャプ テン</w>
キ シ</w>
ガ ロア</w>
ガ ブリ
カン ガル</w>
カ ッ</w>
オリンピ ックス</w>
オ ット</w>
エク ソ
エ フ</w>
ウバ エ</w>
イザ ベル</w>
アン ジェ
アレ イ</w>
アル ミニウム</w>
アル コ-</w>
アマ ゾネス</w>
アク セル</w>
アイ テム</w>
ア ロ
ア レンジ</w>
ア ストロ</w>
ア シュ
ア ゴ</w>
ゆ る
ゆ らぎ</w>
やり 直し</w>
ぼ ろ</w>
ぼ やけ</w>
ほ 乳</w>
ぶ つか
ふ わ
ひ き
ば り</w>
のめ り込</w>
の ぞ
つ こ</w>
つ ぎ</w>
っち り</w>
だ ね</w>
た っ</w>
た か</w>
た ―
じ ゅう</w>
しか た</w>
さっ ぱり</w>
こ そ
こ ぎ
ぐ ちゃ
く ん</w>
く まなく</w>
く し</w>
き 散ら</w>
か ろ</w>
え っと</w>
う ねり</w>
あ ご</w>
w or
u b</w>
st ar
ou b
iv e</w>
ind ow
iP S</w>
chang ing</w>
c o</w>
b it</w>
ag e
ac e</w>
W indow
St ory</w>
R ed
PE T</w>
P l
NY C</w>
M T
M R</w>
L e
F L</w>
E CT</w>
DD T</w>
D ata</w>
C om
C S
A A</w>
8 1</w>
7 3</w>
3 500</w>
2 30</w>
197 9</w>
195 3</w>
1 700</w>
1 3
高 次</w>
高 所</w>
高 み</w>
騒 動</w>
騒 がし</w>
首 脳</w>
餓 死</w>
食 ら</w>
音 階</w>
電 場</w>
難 聴</w>
隠 し
降り かか</w>
長 男</w>
長 らく</w>
錬 金</w>
金 貨</w>
野 望</w>
重 な
重 た</w>
運び 出</w>
連 行</w>
通 せ</w>
返 せ</w>
転 覆</w>
車 体</w>
踊 り手</w>
足 首</w>
足 下</w>
起 点</w>
賛 否</w>
貸 し
貰 え</w>
警 鐘</w>
語 学</w>
触れ 合</w>
視 床</w>
見せ つけ</w>
見い だせ</w>
見 受け</w>
見 下</w>
西 岸</w>
行き つ</w>
薬 効</w>
葉 巻</w>
若 返り</w>
若 返</w>
船 舶</w>
自 給</w>
自 称</w>
腹 腔</w>
習 い</w>
縮 ま</w>
縁 組</w>
総 長</w>
給 付</w>
絞 り</w>
細 長</w>
粗 末</w>
管 轄</w>
符 号</w>
突 拍子</w>
空 虚</w>
移り 変わ</w>
硫 酸</w>
砂 浜</w>
睾 丸</w>
着 床</w>
真 相</w>
真 上</w>
相 殺</w>
相 場</w>
直 角</w>
直 せ</w>
目 玉</w>
目 安</w>
盗 み</w>
白 状</w>
発 芽</w>
男 達</w>
生 検</w>
生 来</w>
理 科</w>
物 議</w>
焼 け
無理 やり</w>
無 邪気</w>
烙 印</w>
激 動</w>
潜 り</w>
滑 り
滅 入</w>
溜 め</w>
満 点</w>
派 閥</w>
洗 い
沼 地</w>
決め 手</w>
水 辺</w>
気 軽</w>
気 流</w>
民 営</w>
歩み 寄り</w>
歩 き
機 敏</w>
査 読</w>
来 月</w>
未 聞</w>
有 意</w>
最 短</w>
書 店</w>
昼 夜</w>
早 急</w>
日 頃</w>
既 成</w>
旋 律</w>
断 熱</w>
断 定</w>
救 世</w>
故 意</w>
放 し</w>
撤 去</w>
揺 動</w>
掻き 立て</w>
採 血</w>
採 択</w>
掌 握</w>
指 図</w>
指 し</w>
持ち 寄</w>
招 き</w>
手 軽</w>
手 早</w>
憤 り</w>
慣 例</w>
感 性</w>
怠 け者</w>
思い 立</w>
快 感</w>
後 期</w>
待ち 望</w>
弾 圧</w>
引っ 張り</w>
引き 返</w>
引き 延ば</w>
席 巻</w>
巻き 戻</w>
巻き 上げ</w>
崩 れ落ち</w>
島 々</w>
山 羊</w>
居 眠り</w>
審 議</w>
寒 帯</w>
密 着</w>
密 告</w>
宗 棠</w>
安 保
安保 理</w>
安 っぽ</w>
大 砲</w>
大 洋</w>
夢 想</w>
多 彩</w>
多 々</w>
声 高</w>
塗 料</w>
堆 肥</w>
地 層</w>
国 語</w>
国 営</w>
啓 示</w>
向か い
名 残</w>
同 類</w>
台 詞</w>
叩 き</w>
反 撃</w>
協 和</w>
創 薬</w>
創 世</w>
割 り出</w>
前 代</w>
切り 替わ</w>
切 迫</w>
分 光</w>
内 気</w>
兼ね 備え</w>
入り 混じ</w>
先 々</w>
充 足</w>
優 美</w>
債 券</w>
催 涙</w>
健 在</w>
停 め</w>
個 室</w>
体 格</w>
仕 切り</w>
乗 船</w>
中 等</w>
中 産</w>
且 つ</w>
不 意</w>
不 屈</w>
不 便</w>
上 陸</w>
万 里</w>
一 刻</w>
ヴェ ネ
ヴェネ ツィア</w>
ヴァル ディ</w>
ヴ ン・</w>
ンティ ア</w>
ン サ</w>
ワイ ア</w>
ワ ルツ</w>
ワ -ム</w>
ロ ボ</w>
ロ ニア</w>
ロ -ル</w>
レ ル</w>
レ ミ</w>
レ ナ</w>
レ ッジ</w>
レ コ</w>
ル ン
リア クタ</w>
ラン ディ</w>
ラク タル</w>
モン トリ
モン テ
モ ント</w>
メ イ</w>
ミリア ド</w>
ミ リ
マルチ メディア</w>
マイクロ プロセッサ</w>
マ テ
マ ッシュ</w>
マ ズ
ボン ニュ</w>
ホ ラ</w>
ペ セ
ペセ シェット</w>
ベレ ラ</w>
ベ ネ
ヘッド フォン</w>
ブレ -キ</w>
ブル グ</w>
ブ レイ
フロ ンティア</w>
フォル ダ</w>
フィ ット</w>
フィ -ド</w>
ファイ ザ</w>
フ ラクタル</w>
ピク ルス</w>
ピア ニスト</w>
ヒョン スク</w>
ヒ レ</w>
ヒ リ</w>
パン テ
パンテ オン</w>
パト カ</w>
パスタ ソ-</w>
パ ラ</w>
パ トリック</w>
バル ブ</w>
バク スタ</w>
バオ バブ</w>
バイ キング</w>
バ ウ
ハンド バッグ</w>
ハ ミルトン</w>
ニ クソン</w>
ド メイン</w>
ド -ム</w>
トレ バ</w>
ト リン</w>
ディ シュ</w>
テン ベレラ</w>
ティ ン
テ -ル</w>
ッ チャ</w>
チョ ッキ</w>
ダイア モンド</w>
ダ ・
ダ イ</w>
タ ップ</w>
ソ ロ</w>
ソ ナ</w>
ソ ス</w>
ゼ ット</w>
ズ ラ</w>
スペ ンサ</w>
スパイ ク</w>
スト ル</w>
スト ライ
スト フ</w>
ステ ン
スチュ ワ
スズ メ
スキ ップ</w>
スカイ プ</w>
ス ロット</w>
ス リ-</w>
ジュ ディ</w>
ジュ ッサ</w>
ジ カル</w>
ジ -</w>
シングル スト</w>
ショウジョ ウバエ</w>
シュ ポス</w>
シャ ノン</w>
シェ リ</w>
シア タ</w>
シ スト</w>
サラ エ
サラエ ボ</w>
サム ゲ-</w>
サイマ ティックス</w>
サ リ-</w>
サ バイ
サ サイズ</w>
コン トラ
コ ミ</w>
コ ミ
コ -ル</w>
ケ イト</w>
グリ ズ
グ レン</w>
グ ア</w>
クン ブ</w>
クト ス</w>
ク ス
ギリ ギリ</w>
キャプ チャ</w>
キャ ラ</w>
キャ ラ
キャ ッシュ</w>
キ サ</w>
キ -ス</w>
ガ ンド</w>
ガ ソン</w>
ガ ガ</w>
カン トリ</w>
カ イ</w>
オフショ ア</w>
エレ クトス</w>
エク ササイズ</w>
エ リン</w>
エ マニュエル</w>
エ ノ
インディ アナ</w>
イン ズ</w>
イン カ</w>
アン ディ</w>
アメ フト</w>
アップ デ-ト</w>
アップ グレ</w>
アイ ロン</w>
ア スペル</w>
ア ジ
ア グ
ア クリ
ア カ</w>
わ ぁ</w>
れ 上が</w>
り 込み</w>
り ―</w>
よ く
よ ―</w>
ゆ ったり</w>
や み</w>
も ど</w>
も うけ</w>
ま あ
ほ ぐ</w>
ぶ ん
ふ さ</w>
ひ ざ</w>
は み
は たら</w>
の ど</w>
ぬ け</w>
ぬ い
ぬい ぐるみ</w>
な ぞ</w>
とも あれ</w>
とっ ても</w>
と ま</w>
で か</w>
て つけ</w>
て き</w>
つな ぎ
っぱ なし</w>
っ たく</w>
そ び
せ 持</w>
す きっと</w>
し の
し な
し つこ</w>
ささ い</w>
こ なし</w>
ぐちゃ ぐ
ぐちゃぐ ちゃ</w>
くしゃ み</w>
く ぐ</w>
き 火</w>
が ただ</w>
か たち</w>
か き</w>
お り
お しゃれ</w>
う わ</w>
v e
t u</w>
t e</w>
star ter</w>
rat ch</w>
o k
o in
oin t</w>
n ess</w>
il l
es t</w>
er o</w>
en d</w>
d oub
d er</w>
d a
c om
at e</w>
al a
Window s</w>
U FO</w>
SAR S</w>
RIS D</w>
R N</w>
PI SA</w>
P L
NA TO</w>
N E
Linked Data</w>
LI GO</w>
L a
H olo
H P</w>
H A
EL AM</w>
D E
CE RN</w>
C l
BM I</w>
Andro id</w>
A n
A GI</w>
9 11</w>
7 千</w>
7 50</w>
3 65</w>
2 40</w>
2 10</w>
19 65</w>
18 50</w>
10 ,000</w>
-ティ -</w>
- ロラ</w>
- パ</w>
' s
魚 拓</w>
高 名</w>
骨 盤</w>
騒 々し</w>
養 豚</w>
食 道</w>
頂 き</w>
静 的</w>
青 白</w>
電 報</w>
難 易</w>
院 生</w>
陛 下</w>
開 口</w>
鑑 定</w>
鋼 鉄</w>
鉱 業</w>
配 備</w>
部 長</w>
選 び</w>
道 理</w>
連れ 戻</w>
送り 届け</w>
迷 信</w>
辺 鄙</w>
車 道</w>
跳ね 返</w>
跳 躍</w>
足 止め</w>
足 取り</w>
質 的</w>
貸 付</w>
買い 手</w>
貶 め</w>
財 源</w>
議 長</w>
論 証</w>
言い 返</w>
言い 渡</w>
解 毒</w>
要 塞</w>
裁 量</w>
表 彰</w>
血 縁</w>
菜 食</w>
船 員</w>
腫 れ</w>
肺 癌</w>
聖 歌</w>
聖 人</w>
締め 付け</w>
統 括</w>
組 立</w>
紙 管</w>
簡 略</w>
節 目</w>
端 的</w>
立ち 入り</w>
突 破</w>
究 明</w>
移 送</w>
磁 性</w>
砂 利</w>
知 り</w>
着 実</w>
着 信</w>
真っ 直ぐ</w>
略 語</w>
田 舎
用 心</w>
産 後</w>
王 立</w>
王 朝</w>
独 身</w>
狙 撃</w>
熱 湯</w>
熱 気</w>
熟 慮</w>
点 在</w>
濾 過</w>
澄 ま</w>
満ち 足り</w>
満 月</w>
湿 気</w>
海 辺</w>
浮き 彫り</w>
泳 ぎ
泣き 叫</w>
泣 き声</w>
沢 東</w>
沈 殿</w>
水 たまり</w>
気 遣</w>
気 楽</w>
母 語</w>
歩み 寄</w>
正 統</w>
正 方形</w>
樹 齢</w>
横 行</w>
模 擬</w>
概 要</w>
校 閲</w>
架 け橋</w>
東 西</w>
朽 ち</w>
本 屋</w>
本 名</w>
木 造</w>
有 様</w>
最 愛</w>
昇 華</w>
新 人</w>
散 乱</w>
支 店</w>
摂 食</w>
搭 乗</w>
揺 れ
揺れ 動</w>
採 れ</w>
掘 り</w>
捨 て
振り 付け</w>
押し 込め</w>
押し のけ</w>
払 い
打ち 立て</w>
戦 地</w>
成 虫</w>
愛 せ</w>
思 索</w>
心 待ち</w>
当 惑</w>
当 り</w>
引っ 越し</w>
延 命</w>
幻 肢</w>
年 次</w>
帯 域</w>
封 じ
封じ 込め</w>
対 外</w>
対 人</w>
密 売</w>
実 習</w>
官 民</w>
学 長</w>
学 芸</w>
好 物</w>
天 秤</w>
大 概</w>
大 差</w>
変 調</w>
塩 分</w>
基 板</w>
埋め 尽く</w>
垂 ら</w>
地 平面</w>
喩 え</w>
善 行</w>
呼び 覚ま</w>
告 訴</w>
吸 血</w>
名 作</w>
名 乗</w>
同 業</w>
同 族</w>
右 腕</w>
受 講</w>
取り締 まり</w>
取り 払</w>
単 体</w>
南 端</w>
区 切</w>
包 帯</w>
勧 誘</w>
効 用</w>
助 産</w>
加 担</w>
前 夜</w>
切 れ目</w>
分け 隔て</w>
出 馬</w>
出 費</w>
凄 まじ</w>
冷 え</w>
内 装</w>
内 分泌</w>
入り 組</w>
元 首</w>
債 権</w>
併 用</w>
作 製</w>
似 合</w>
伝 送</w>
伝 記</w>
休 日</w>
今 頃</w>
人 脈</w>
人 助け</w>
乱 雑</w>
不 協和</w>
下 流</w>
上 向き</w>
一人 ぼっち</w>
一 卵</w>
ヴィ ル</w>
ロ レン
ロ ブ</w>
ロ フ</w>
レ ント</w>
レ ベッカ</w>
リ ブ</w>
リ -ン</w>
ラン ダ</w>
ラン グ</w>
ラス メント</w>
ライン ゲ</w>
ライ アン</w>
ユ タ</w>
モントリ オ</w>
モデ リング</w>
メラ ティ</w>
メ -ラ</w>
ミン スタ</w>
ミラ ノ</w>
ミネ ソタ</w>
ミネ -</w>
ミ ドル</w>
ミ ズ</w>
マラ ウイ</w>
マサ イ</w>
マ ド
マ ト
マ ディ
マ スト</w>
ボリ ジニ</w>
ボイ ジャ</w>
ホプ キンス</w>
ホッ と</w>
ベ ッ
ヘ ッジ</w>
プレ ン</w>
プライ ズ</w>
フラ ワ</w>
フィ ル</w>
フィ ック</w>
ファイ ア</w>
ピッツ バ</w>
ピエ -</w>
ピ リ
ビ リティ</w>
バ リア</w>
バ セム</w>
ハ ラスメント</w>
ノリ ウッド</w>
ノ ジュ-</w>
ノ キア</w>
ノ キ</w>
ネイ チャ</w>
ニ ョ
ナノ スケ</w>
ナ ビ</w>
ナ トリウム</w>
ナ グマ</w>
ド ミニ
トル スト
トルスト イ</w>
デュ ッ
デ リック</w>
デ ックス</w>
テン ポ</w>
テオ ミクス</w>
テ ナ
チュ アル</w>
チェ ル
チェ チェン</w>
タイ ラ</w>
ゾ ッと</w>
ソナ ライ
ゼ リ</w>
セントラ ルパ</w>
セネ ガル</w>
セク シャル</w>
スパ ム</w>
スト ゥ
ステ ファ
スタ ンダ</w>
スタ ット</w>
ス レ</w>
ス バ</w>
ス クラ
ジュ リ</w>
ジュ ニア</w>
ジ ・</w>
ジ ボ
ジ ズム</w>
シャ イ</w>
シ ラ
シ -ツ</w>
ザ フ
サウ スカロライナ</w>
サ ックス</w>
ゴ シップ</w>
コン パス</w>
コロン ブス</w>
コック ロ</w>
コ ット</w>
グラ ハム</w>
グ ナ</w>
グ テ</w>
グ アイ</w>
クン ワ-ド</w>
クリ ッド</w>
クラ ッカ</w>
ク ッション</w>
キュ メン</w>
キテク チャ</w>
キセ チン</w>
キ ング
キ ム</w>
ガン ディ</w>
ガ リアル</w>
カル テ</w>
カル ツァ</w>
カ ブ
カ バ
カ サ
オラン ウ</w>
オブ ジェクト</w>
エン リ
エド ワ</w>
エッ フェル</w>
エクソ ソ</w>
エク ソン</w>
エク ソ</w>
エイ ジズム</w>
エ セックス</w>
ウォ -ル</w>
ウェイ ボ</w>
ウ ジ
イン テリア</w>
イン テリ
イン ダ</w>
イ スト</w>
イ ケ</w>
イ アン</w>
アンドリ ュ</w>
アル フレッド</w>
アノ テ</w>
ア ワ
ア ボリジニ</w>
ア ナス</w>
ア ザ</w>
ア キュメン</w>
り 取</w>
ゆ だね</w>
や まし</w>
も ど
も し
む し</w>
み それ</w>
ま かな</w>
ぶち 当た</w>
ふわ ふ
ふわふ わ</w>
ふ む</w>
ふ つ
ふつ う</w>
び り</w>
ば る</w>
はる ばる</w>
はし ご</w>
の ぼり</w>
で っ
つ がい</w>
っ さり</w>
ちょう だい</w>
す れ
じ つ</w>
し 直</w>
さ ながら</w>
こ ぼ</w>
くわ え</w>
くじ け</w>
が ら</w>
かぎ 針</w>
かき 集め</w>
かか え</w>
か じ</w>
か ―</w>
お っ
うわ べ</w>
う ら
あては め</w>
あ あ
u t</w>
u g
s p
r y</w>
ob s</w>
o x
it y
in k
id i</w>
ho o</w>
h er
g o
at ion
a m</w>
\& シュ-</w>
War c
Sh e</w>
Sc ratch</w>
Ph ot
PC C</w>
On e</w>
O p
M P</w>
L ens</w>
Kick starter</w>
I PCC</w>
Holo Lens</w>
He F
HeF or</w>
Glob al</w>
G en
G al
F or
D ir
D M
Cor ps</w>
Am er
40 4</w>
40 1</w>
196 7</w>
19 47</w>
1, 500</w>
1, 200</w>
1 37</w>
1 1人</w>
1 100</w>
-ム ペ-ジ</w>
-プ ニング</w>
- ルス</w>
- )</w>
駆 逐</w>
飛び 込み</w>
顧 問</w>
顔 料</w>
頼 れ</w>
青 空</w>
電 離</w>
雨 季</w>
雑 多</w>
隣 り合わせ</w>
隠 喩</w>
陣 営</w>
限 度</w>
関わ り合</w>
間 欠</w>
銀 色</w>
鉱 石</w>
釣 り合</w>
釣 り
重 篤</w>
重 ん</w>
重 なり</w>
配 当</w>
配 属</w>
逸 れ</w>
逸 ら</w>
逆 流</w>
退 去</w>
追い 詰め</w>
迷 子</w>
迂 回</w>
辿 りつ</w>
農 法</w>
辱 め</w>
躍 動</w>
路 地</w>
趣 旨</w>
赤 字</w>
誤 用</w>
誘 因</w>
言い 切れ</w>
触れ 合い</w>
観 戦</w>
補 強</w>
補 償</w>
衣 類</w>
行き 当た</w>
融 通</w>
蝸 牛</w>
薬 局</w>
蔵 書</w>
舵 取り</w>
至 福</w>
腰 かけ</w>
脳 裏</w>
脳 性</w>
脅 し</w>
胴 体</w>
聞き 覚え</w>
老 後</w>
織り な</w>
縛 り付け</w>
縄 張り</w>
緻 密</w>
緩 め</w>
総 省</w>
総 和</w>
綱 渡り</w>
続 々</w>
継 ぎ
絶 縁</w>
終 戦</w>
紡 錘</w>
素 朴</w>
納 め</w>
精 液</w>
窮 屈</w>
窓 辺</w>
税 関</w>
示 せ</w>
破 棄</w>
目 下</w>
白 衣</w>
白 血</w>
痙 攣</w>
異 様</w>
異 国</w>
畜 産</w>
理 工</w>
王 室</w>
玉 ね
玉ね ぎ</w>
猶 予</w>
片 づけ</w>
灰 白</w>
火 薬</w>
海 綿</w>
流 水</w>
決 勝</w>
決 まり
求 人</w>
氾 濫</w>
水 揚げ</w>
水 しぶ
水しぶ き</w>
気 前</w>
死 人</w>
様 変わり</w>
構 図</w>
概 算</w>
極 右</w>
椰 子</w>
根 元</w>
条 例</w>
未 婚</w>
有 給</w>
有 り
替 わり</w>
曲 がり</w>
晴 らし</w>
時 差</w>
星 空</w>
旅 人</w>
施 し</w>
新 婚</w>
断 然</w>
敗 れ</w>
政 界</w>
改 装</w>
改 修</w>
探し 回</w>
捨て 去</w>
捕 捉</w>
捉 え
指 名</w>
持ち 上が</w>
持ち こたえ</w>
持 論</w>
抱 擁</w>
打 破</w>
手 斧</w>
手 引き</w>
情 事</w>
息 づ</w>
思 惑</w>
必 需</w>
復 旧</w>
後 援</w>
待 合</w>
往 生</w>
役 職</w>
強 欲</w>
店 主</w>
年 下</w>
平 安</w>
布 地</w>
山 中</w>
屋 台</w>
尿 道</w>
寿 司</w>
家 父</w>
実 情</w>
実 務</w>
宗 派</w>
安 楽</w>
孵 化</w>
始 終</w>
始 業</w>
奥 行き</w>
大 義</w>
大 々</w>
壇 上</w>
堪 え</w>
在 庫</w>
土 手</w>
園 芸</w>
固 形</w>
囲 み</w>
吹 き</w>
同 行</w>
同 権</w>
合 間</w>
各 種</w>
右 利き</w>
古 風</w>
取り 乱</w>
原 初</w>
即 時</w>
単 弁</w>
南 側</w>
協 業</w>
医 大</w>
勃 起</w>
前 部</w>
刻 々</w>
刺 さ</w>
判 別</w>
初 代</w>
出 動</w>
兼 ね</w>
公 言</w>
全 滅</w>
入れ 替わ</w>
光 り</w>
先 例</w>
充 た</w>
兄 妹</w>
傾 倒</w>
保 釈</w>
便 所</w>
何 に</w>
以 後</w>
令 状</w>
仕 業</w>
二 十</w>
乱 暴</w>
主 席</w>
不 吉</w>
下 側</w>
一 大</w>
ヴェ ル
ヴァ ン
ン セン</w>
ロレン ツェ
ロレンツェ ッティ</w>
ロボ ット
レン タル</w>
レプ リカ</w>
レ コ-</w>
ル ワ</w>
ル タ
ル センタ</w>
ル ア</w>
ル -ム</w>
ル -ク</w>
リ クライ
リクライ ニング</w>
リ キ
リ -ク</w>
ヤ ップ</w>
モニ タリング</w>
モ ザン
メッ セン
メッセン ジャ</w>
メ タル</w>
ム ア</w>
ミ ツ</w>
ミ ッ
ミ ゲル</w>
ミ ア</w>
マ ント</w>
マ スカ
マ -サ</w>
ポリ グ
ポリグ ロット</w>
ポ ルト</w>
ポ インタ</w>
ボル ティモア</w>
ボ ツワ
ボツワ ナ</w>
ボ ツ</w>
ボ ウ
ペ レット</w>
ベ リン</w>
ヘ ク
プロ テ
プ リン</w>
プ フル</w>
プ ソン</w>
フン コロ</w>
ファ ロ</w>
フ レイ
フ ック</w>
ヒン ディ</w>
ヒト デ</w>
ヒ ポ
ヒ スパ
パプ ア
パプア ニュ</w>
パス ワ-ド</w>
バック ル</w>
バック ミンスタ</w>
バ オ</w>
バ エ</w>
ハン サム</w>
ハロ ルド</w>
ハナ バチ</w>
ハッ キリ</w>
ハチ ミツ</w>
ハイ ライト</w>
ハ ンド</w>
ハ ワ</w>
ハ ワ-</w>
ノ ブ</w>
ノ ス</w>
ネ ッ
ネ シウム</w>
ネ オ</w>
ニ カル</w>
ナ ツ
ド ック</w>
ド キャニオン</w>
トリ ュ
トラン ペット</w>
トラ ッキング</w>
トラ ジャ</w>
トイ レット</w>
ト レイ
ト マン</w>
ト ナ</w>
ト ダウン</w>
デン バ</w>
デイ ビット</w>
ディン ガ</w>
ディ キ
デ ッ
ティ ル</w>
ット ライト</w>
チャル リアリティ</w>
ダ・ ヴィンチ</w>
タン カ</w>
タ サイエンス</w>
ゾ ッ</w>
ソ ト</w>
ゼ ル
セル ゲイ</w>
セ バス</w>
スポ ットライト</w>
スピ ン</w>
ストリ -ム</w>
スチュワ -ト</w>
スチ ロ-</w>
スタ イ
スズメ バチ</w>
スカ -ト</w>
ス カン
ジャ レット</w>
シロ アリ</w>
シュ タ</w>
シャ ッフル</w>
シャ ス</w>
シ ワ</w>
サイ レン</w>
サイ コ
サ マリ</w>
ゴ ン
コロ ガシ</w>
コ リア</w>
コ ボコ</w>
コ ス
コ コ
コ ケ</w>
グロ -ブ</w>
グル コ</w>
グラン ドキャニオン</w>
グ リア</w>
クマ ムシ</w>
ク スピア</w>
キロ リットル</w>
ガ ジェット</w>
カン ソ</w>
カメ ル</w>
カ ッタ</w>
カ チ</w>
オル ガン</w>
オ ム
オ デュッ
エッ セイ</w>
エ ディ
エ ティ</w>
ウジ 虫</w>
ウォ ッカ</w>
ウェ スタ</w>
ウェ イン</w>
イン テル</w>
イラ ストレ</w>
イ グ
アン ゴラ</w>
アワ ビ</w>
アレ ック</w>
アレ キ</w>
アル ファ</w>
アブラ ムシ</w>
アイ リ</w>
ア リティ</w>
ア リア</w>
ア ボ
ア ブ</w>
ア バ
ア ス</w>
ア サ</w>
れ み</w>
よう なら</w>
よ なら</w>
もて なし</w>
まとめ 役</w>
ふ り
ひとり ひとり</w>
ひ いて
ひいて は</w>
ばら つき</w>
はみ 出し</w>
はじ け</w>
の み
ね ぐら</w>
な だ
と び
と おり
つくり だ</w>
つく り出</w>
ち ま</w>
ぜ ん
ず り</w>
す てき</w>
しな やか</w>
し っくり</w>
ざ っと</w>
ささ げ</w>
さ らし</w>
さ よなら</w>
さ ようなら</w>
さ つ</w>
さ すが</w>
く ぼみ</w>
く そこ</w>
ぎ 出</w>
ぎ れ</w>
おろ か</w>
ええ と</w>
え 話</w>
う っかり</w>
いわ く</w>
い 手</w>
い が
あち ら
あ たえ</w>
v a
un tu</w>
ty J
tyJ obs</w>
p l
ou n
oo d
o g
k s</w>
id e</w>
iP ad</w>
hem at
el l
e S
da f</w>
d it</w>
ar k
an t
Warc raft</w>
US B</w>
TT F</w>
Sky pe</w>
R ab
R G</w>
P r
M K</w>
J o
IM F</w>
HA L</w>
Gal va
G M
Ear th</w>
ES G</w>
Dir tyJobs</w>
CA T</w>
C DC</w>
BM W</w>
B u
B P</w>
A p
A f
9 千</w>
7 47</w>
5 50</w>
2 20</w>
197 7</w>
197 2</w>
19 29</w>
10 5</w>
-ム ワ-ク</w>
-プ ン・</w>
- ヴィ
- ヴ
- ヨ</w>
- ベ</w>
- ナ
- デ
- ティン</w>
- タリ</w>
鼓 膜</w>
高 官</w>
高 圧</w>
養 育</w>
養 分</w>
面 白
露 わ</w>
陰 陽</w>
間 際</w>
鍵 穴</w>
釣 り合い</w>
重な り合</w>
部 外</w>
違 和</w>
道 義</w>
通り 道</w>
通 え</w>
送り 込み</w>
追い 抜</w>
迷 い</w>
近 接</w>
農 務</w>
起 こし</w>
貴 女</w>
論 じ</w>
調 停</w>
証 書</w>
言い 分</w>
親 愛</w>
見 抜け</w>
補 綴</w>
血 漿</w>
蘇 生</w>
落と せ</w>
荒 れ
荒 ら</w>
花 瓶</w>
船 内</w>
自 滅</w>
膨 れ上が</w>
腰 掛け</w>
脱 水</w>
聴 診</w>
耳 元</w>
考え だ</w>
翌 週</w>
繰 返</w>
縮 尺</w>
締め 出</w>
線 引き</w>
組み 入れ</w>
糞 便</w>
破 損</w>
石 膏</w>
知 力</w>
眼 差し</w>
真 摯</w>
相 撲</w>
直 り</w>
白 化</w>
白 クマ</w>
病 人</w>
用 法</w>
用 事</w>
産 み出</w>
生 身</w>
生 々し</w>
王 位</w>
犯 行</w>
特 効</w>
煙 突</w>
無 菌</w>
無 傷</w>
潜 り込</w>
滅 ぼ</w>
溢 れ出</w>
混 ざ
浴 室</w>
浮き 沈み</w>
活 字</w>
泳 げ</w>
泣 き</w>
泊 まり</w>
没 収</w>
汲 み上げ</w>
殺 到</w>
歩 兵</w>
楕 円</w>
校 庭</w>
架 け</w>
果 敢</w>
本 拠</w>
本 性</w>
本 位</w>
木 炭</w>
木 の
有 り</w>
書き 込み</w>
暖 炉</w>
晩 年</w>
星 座</w>
日の 出</w>
日 陰</w>
既 婚</w>
旅 団</w>
於 け</w>
方 策</w>
敢 え
携 え</w>
推 理</w>
探 り</w>
掛け 合わせ</w>
授 与</w>
振 興</w>
挙 が</w>
拳 銃</w>
拍 車</w>
抜 き
投 射</w>
所 以</w>
戯 れ</w>
愛 し合</w>
惑 わ</w>
悪 質</w>
性 差別</w>
思 案</w>
従 え</w>
後 頭</w>
後 戻り</w>
形 容</w>
弱 み</w>
弛 緩</w>
庶 民</w>
庁 舎</w>
帯 状</w>
左 目</w>
射 殺</w>
審 理</w>
家 達</w>
家 中</w>
宮 廷</w>
定 説</w>
定 か</w>
安 易</w>
孤 島</w>
娘 子</w>
委 託</w>
好 転</w>
好 調</w>
太 鼓</w>
大 通り</w>
大 英</w>
大 急ぎ</w>
大 尉</w>
外 食</w>
外 し</w>
売 上げ</w>
壁 面</w>
境 地</w>
基 質</w>
執 刀</w>
垣 根</w>
地 味</w>
嘆 願</w>
品 物</w>
味 わい</w>
吹 雪</w>
吸 着</w>
否 認</w>
向 かえ</w>
吊 る</w>
台 数</w>
叩 き
口 実</w>
受け 皿</w>
受 胎</w>
取り 除け</w>
取り 付</w>
取 組</w>
原 発</w>
協 奏</w>
北 東部</w>
加 算</w>
劇 作</w>
副 腎</w>
前 野</w>
前 年</w>
利 権</w>
利 口</w>
利 き手</w>
分 業</w>
出 だし</w>
凍 土</w>
凍 り
冬 眠</w>
内 燃</w>
内 心</w>
全 長</w>
入れ 物</w>
先 立</w>
充 満</w>
儀 礼</w>
何 れ</w>
体 つき</w>
似 せ</w>
伺 え</w>
伴 侶</w>
伝 言</w>
伝 承</w>
代 行</w>
代 々</w>
付 随</w>
付 箋</w>
付 か</w>
人 魚</w>
人 力</w>
交 戦</w>
交 わり</w>
事 物</w>
予 め</w>
中 部</w>
並 列</w>
両 面</w>
両 脚</w>
両 極</w>
与 党</w>
不 妊</w>
上 書き</w>
上 り</w>
一 行</w>
一 助</w>
ンド スケ</w>
ロビ ンソン</w>
ロ マ</w>
ロ ナルド</w>
ロ -
レン ツェ</w>
ルネ ッサ
ルネッサ ンス</w>
ルド バ</w>
ル バス</w>
リガ デマ</w>
リア ナ</w>
ラン ト</w>
ラル ネットワ-ク</w>
ヤ ング</w>
モ ネ</w>
モ ップ</w>
モ ダ
ム ラ</w>
ム カ
ム アウト</w>
ミング ア</w>
ミン ゴ</w>
ミミ クリ</w>
ミニ チュア</w>
ミ ナ
ミ スタ</w>
ミ キサ</w>
マテ リアル</w>
マケ イン</w>
マイ トレ</w>
マ ヌ
マ シュ-</w>
ボリ ウッド</w>
ボナ ッチ</w>
ベ ケット</w>
ヘク タ-</w>
プロスペ ロ</w>
プレ イス</w>
プラ スティック</w>
ブ ロン</w>
フォ- ミングア</w>
フェ ルド</w>
フィ レンツェ</w>
フィ ボナッチ</w>
フィ ドル</w>
フ マン</w>
フ マラ</w>
ピ -</w>
ビル バオ</w>
ビル ゲイツ</w>
ビ -バ</w>
ビ -ズ</w>
ヒ ステ
パン ク</w>
パ ル</w>
パ フォ-ミングア</w>
パ フォ-</w>
パ ノ
パ シ</w>
バン コ
バル セロ
バルセロ ナ</w>
バラ ツキ</w>
バイア グラ</w>
バイ パス</w>
バ ナ</w>
バ ッタ</w>
ハンプ シャ</w>
ハッ スル</w>
ハ ビ
ノ ウイルス</w>
ノ ウ</w>
ネ ラ</w>
ネ ア</w>
ニコ ラ</w>
ナビ ゲ</w>
ナ ンド</w>
ナ イル</w>
ド バンド</w>
トル ク</w>
トリュ フ</w>
トリ ガ</w>
トリ エ</w>
トラ イン</w>
トマト ソ-</w>
ト ロン</w>
ディスカ バリ</w>
ディ -ン</w>
デ ヴィッド</w>
テン プル</w>
ッ タ
チ ルド
チ モア</w>
チ ップス</w>
チ タン</w>
タラ フマラ</w>
ソ ックス</w>
セル ロ
セ ット
セ ク</w>
ステ ロイド</w>
ステ ッカ</w>
ステ イ
スチ -</w>
スキ モ</w>
スカ イカ</w>
ス ・</w>
ス プリン
ジロ ザメ</w>
ジョ ンズ</w>
ジョ ナス</w>
ジョ ギング</w>
ジャ バ</w>
ジャ ズ
ジャ ガ</w>
ジェ イン</w>
ジ ナ
シン シア</w>
シン グ
シュヴァ ルツ</w>
シ ルト</w>
シ ラ</w>
シ ミ</w>
シ ット</w>
シ チ
シ アン</w>
シ -ル</w>
ザン ヌ</w>
ザ リ</w>
ザ ラ</w>
ザ -</w>
サステ ナブル</w>
サウ ンドスケ</w>
サウ ジ</w>
サ マリア</w>
サ ク
コン プレックス</w>
コン ビ
コ ナ</w>
ゲ ノミクス</w>
ゲ イラ</w>
ケイ トリン</w>
グレ ッグ</w>
グル ア</w>
グ ライダ</w>
クル -ズ</w>
クライ マックス</w>
クラ ッシュ</w>
ク ック</w>
キュ ウリ</w>
キュ -バ</w>
キャ ビ
カバ ノキ</w>
カウ ボ</w>
カ ント</w>
カ -ロ</w>
オ ワ</w>
オ ポッサム</w>
オ ト
オ ゾ</w>
オ ウ
エレクトロ ニクス</w>
エア ジョ</w>
エ ロ</w>
エ スキモ</w>
エ -</w>
ウェイ トレス</w>
ウィ ングス</w>
ウィ スキ</w>
ウィ キ</w>
ウ ンス</w>
ウ シ</w>
イ モリ</w>
イ ダ</w>
アルジャ ジ</w>
アル ミ
アル ト</w>
アナ ウンス</w>
アクリ ル</w>
アク チュ
アオ イ</w>
アイ オワ</w>
ア リスト</w>
ア ナリスト</w>
ア トリエ</w>
ア デ
ァ ン</w>
わ き
よ っぽ
よっぽ ど</w>
ゅ う
やり くり</w>
や し</w>
や が</w>
もど かし</w>
もと づ</w>
み た</w>
まん 延</w>
ま ぶ
ま し
ぶつか り合</w>
ふ る</w>
ふ け</w>
び らか</w>
び と</w>
ひそ め</w>
ひ れ</w>
ひ だ</w>
の ん
に じ</w>
な り
な ら
とっ く</w>
づ め</w>
づ き</w>
づ かい</w>
つな ぎ</w>
つか まえ</w>
つ ね</w>
だ まし</w>
たい して</w>
た ば
すり 抜け</w>
す わり</w>
す み
しく み</w>
さ なか</w>
さ し
ご も</w>
こ じ
ぐ い</w>
くり 返し</w>
く ね</w>
から さま</w>
かき 消</w>
か ぶ
え 込</w>
うな ず</w>
あ からさま</w>
x net</w>
u re
sha h
shah idi</w>
s i
ri p
p er
p H</w>
ou se</w>
ou s</w>
it t
ik e</w>
igh t</w>
ick r</w>
i z
i re
hemat ica</w>
h t
f f
co pe</w>
c at
ak e</w>
a hoo</w>
Z ero</w>
Wh at
V i
Un iv
U shahidi</w>
TED Priz
T C</w>
Stu xnet</w>
SO PA</w>
Rab bit</w>
R T</w>
PI PA</w>
PE C</w>
PC B</w>
P ower</w>
P L</w>
O PEC</w>
O K
NI H</w>
N FL</w>
Mat hematica</w>
K iv
J C</w>
Galva o</w>
G N
Fl ickr</w>
E ver
C R</w>
B S</w>
B G</w>
7 ,000</w>
7 ,
197 4</w>
197 1</w>
196 3</w>
19 49</w>
19 48</w>
- ネル</w>
- ドン</w>
- クル</w>
鼻 腔</w>
魚 介</w>
高 鳴</w>
高 騰</w>
高 音</w>
高 貴</w>
高 尚</w>
駆け 寄</w>
飛び 上が</w>
風 土</w>
面 体</w>
電 圧</w>
難 関</w>
集 落</w>
集 束</w>
隣 り</w>
隠 せ</w>
険 し</w>
陶 芸</w>
陰 鬱</w>
防 音</w>
間 中</w>
長 持ち</w>
錯 視</w>
釘 付け</w>
量 的</w>
量 産</w>
野 党</w>
重 複</w>
遵 守</w>
過 食</w>
運 輸</w>
連 盟</w>
造 語</w>
通 れ</w>
退 化</w>
近 辺</w>
辞 職</w>
辞 任</w>
辛 辣</w>
踏み つけ</w>
賢 者</w>
賄 え</w>
貧 富</w>
講 師</w>
語り 継</w>
誇 大</w>
言 葉
視 察</w>
見 習い</w>
見 渡せ</w>
見 慣れ</w>
製 図</w>
補 完</w>
行く 末</w>
行 事</w>
血 栓</w>
落と し込</w>
落 選</w>
荒 涼</w>
草 食</w>
若 々し</w>
色 覚</w>
良 識</w>
自 答</w>
脱 毛</w>
背 水</w>
肺 がん</w>
聴 け</w>
聴 き手</w>
聖 域</w>
織 り込</w>
緑 化</w>
総 裁</w>
継ぎ 目</w>
絵 筆</w>
給 水</w>
精 巣</w>
粉 砕</w>
範 疇</w>
突き 落と</w>
積み 木</w>
稲 妻</w>
秒 速</w>
知 名</w>
省 略</w>
盛 大</w>
白 髪</w>
白 紙</w>
発 送</w>
発 癌</w>
病 歴</w>
留 まり</w>
男 児</w>
生い 茂</w>
甘 ん</w>
現 役</w>
率 先</w>
物 価</w>
物 件</w>
無 言</w>
無 口</w>
無 二</w>
瀬 戸</w>
潮 汐</w>
滅 亡</w>
溢れ かえ</w>
満 腹</w>
満 杯</w>
満 タン</w>
温 ま</w>
済 ま</w>
混 在</w>
消 毒</w>
海 王</w>
浄 水</w>
流 し
波 形</w>
沸 き
決 済</w>
水 銀</w>
水 晶</w>
気 付か</w>
毛 細</w>
毛 包</w>
母 方</w>
歓 喜</w>
検 体</w>
植 林</w>
案 件</w>
根 気</w>
根 強</w>
木の 実</w>
木 登り</w>
最 盛</w>
書 記</w>
暗 黙</w>
晩 餐</w>
昇 給</w>
日 没</w>
日 月</w>
新 車</w>
新 年</w>
斥 候</w>
敷 き
敷き 詰め</w>
整 数</w>
整 列</w>
敢え て</w>
放 り
放り 投げ</w>
支 え合</w>
撃 退</w>
描 き</w>
控 除</w>
括 約</w>
拝 借</w>
招 集</w>
担 い手</w>
押 さえ
技 巧</w>
手 稿</w>
手 当て</w>
手 付</w>
扇 動</w>
懇 願</w>
態 勢</w>
慈 愛</w>
感 光</w>
感 傷</w>
悲 鳴</w>
悲 痛</w>
悪 気</w>
思い だ</w>
忍び 込</w>
心 躍</w>
徹 夜</w>
後 継</w>
後 日</w>
後 々</w>
待 遇</w>
待 た</w>
当 面</w>
弾 道</w>
引き 揚げ</w>
引き 出せ</w>
式 典</w>
弊 害</w>
弁 当</w>
干 し
干し 草</w>
布 団</w>
布 告</w>
市 議会</w>
差し 掛か</w>
巨 匠</w>
左 翼</w>
小 脳</w>
寸 法</w>
宿 主</w>
実 装</w>
定 理</w>
安 上がり</w>
孫 娘</w>
存 分</w>
嫌 気</w>
威 圧</w>
好 例</w>
奪い 取</w>
失 恋</w>
天 の
天の 川</w>
大 群</w>
大 王</w>
夜 通し</w>
外 気</w>
夕 飯</w>
夏 休み</w>
変 異
墓 石</w>
墓 場</w>
塞 ぎ</w>
場 違い</w>
埋 立</w>
噴 き出</w>
嘔 吐</w>
喉 頭</w>
善 人</w>
呼び 止め</w>
同 乗</w>
各 人</w>
右 翼</w>
古 来</w>
受 給</w>
受 けれ</w>
反 省</w>
原 告</w>
即 席</w>
占 有</w>
単 糖</w>
卑 劣</w>
半 透明</w>
半 日</w>
創 り</w>
割 引</w>
制 裁</w>
刈 り</w>
凶 悪</w>
凍り 付</w>
凍 傷</w>
凌 駕</w>
冷 め</w>
冴 え</w>
冗 長</w>
再 婚</w>
六 角</w>
優 生</w>
傷 跡</w>
催 眠</w>
停 ま</w>
偏 狭</w>
倒 産</w>
修 め</w>
侮 蔑</w>
併 せ持</w>
作り 物</w>
何 物</w>
伯 父</w>
代 物</w>
人 びと</w>
主 演</w>
主 治</w>
並 べ
不 和</w>
不 可</w>
上 品</w>
一 同</w>
一 口</w>
ヴ ェ</w>
ン ソ</w>
ワ ル
ワ -ル</w>
ロボ ティクス</w>
ロブ スタ</w>
ロウ ア</w>
ロ デ
ロ ジック</w>
ロ -ジ</w>
レジ リ
レ パ</w>
レ -タ</w>
リン トン</w>
リッ ヒ</w>
リ ック
ラン グレ</w>
ライ ティング</w>
ラ ルフ</w>
ラ オス</w>
ユニ オン</w>
ユ ウ
ュ ッ
ヤ ナ</w>
モダ ニズム</w>
モ ガ
モガ ディシュ</w>
メル ボル
メルボル ン</w>
メッ カ</w>
ミン ガム</w>
ミ チョ
ミチョ アカ</w>
ミ オ</w>
マン チェスタ</w>
マリ リン</w>
マハ ト
マズ ロ</w>
マジ ネ</w>
マグ ネシウム</w>
マ ナ</w>
マ ッド</w>
マ コ</w>
マ ウント</w>
ポリ タン</w>
ボ リビア</w>
ボ ケ</w>
ボ イス</w>
ホ テイ</w>
ペ リ</w>
ペ ラ
ベル ク</w>
ベ ナン</w>
ベ ティ</w>
ベ イズ</w>
ベ イ
ヘッド ホン</w>
ヘッド セット</w>
プロ モ</w>
プラ -ク</w>
ブレ グ
ブレグ ジット</w>
ブレ イン</w>
ブリ タ
ブラ ッド
ブドゥ ルス</w>
ブッ ダ</w>
フン コロガシ</w>
フレ ッシュ</w>
フラン ケン
フォ ックス</w>
フェル ミ</w>
フィ ジ</w>
ピック アンドロ
ピカ ピカ</w>
ビリ オン</w>
ビ ブリ
ビ ザ</w>
ビ オ</w>
ヒポ クラテス</w>
ヒスパ ニック</w>
ヒステ リ</w>
ヒ ンズ</w>
ヒ ロイン</w>
ヒ ディ</w>
ヒ -ル</w>
パラ メ</w>
パ ネス</w>
パ -ル</w>
バンガ ロ-</w>
バスタ ブ</w>
バ ルト</w>
バ ッド</w>
バ グ
ハム レット</w>
ハイ ム</w>
ハ ラム</w>
ハ ザ</w>
ハ ウ</w>
ノ ブ
ノ ウ
ネット サ</w>
ネ ック</w>
ニ ル</w>
ニ マス</w>
ニ ウム</w>
ニ :</w>
ニ )</w>
ナ ジム</w>
ドリ ス</w>
ド モア</w>
ド ニア</w>
トリニ ダ</w>
トリ プ
トラ クタ</w>
トゥ ル
ト ム
ト カ
デ ニス</w>
デ タラ
デタラ メ</w>
テ ランス</w>
テ イク</w>
ツ ジ</w>
ツ イ</w>
ット ン</w>
ット ス</w>
チョ フ</w>
チャ ットル</w>
チェ -</w>
チ ラシ</w>
ダ フィ</w>
ダ ック</w>
タ ラ</w>
タ ナ
タ タ</w>
ソ フィア</w>
ソ ニック</w>
ゼ ノン</w>
セン チ
セルロ -ス</w>
ストリ ップ</w>
スト ック</w>
スティ ックス</w>
スタン プ</w>
スカン ジナ
スカンジナ ビア</w>
ス プラ
ス パン</w>
ス チ</w>
ス コン
スコン シン</w>
ス ウェル</w>
ス イ
ジェ シカ</w>
シャン パン</w>
シミュ レ-タ</w>
シ ック
ザ ンダ</w>
サプライ チェ</w>
サイコ パス</w>
サイ ボ</w>
サ ポ</w>
コ タ</w>
ゲ イル</w>
ケ ル
ケ シ</w>
ケ -ト</w>
グル テン</w>
グラ ミン</w>
クリスト ファ-</w>
クライ マ</w>
クラ イン</w>
クマ リン</w>
ク ル-</w>
ク フ</w>
ギ ネス</w>
キャン セル</w>
ガブリ エル</w>
カ ロス</w>
カ マ</w>
カ セット</w>
カ ザフ
オデュッ セウス</w>
オ スロ</w>
オ クタ
オ ウム</w>
エン パイ
エタ ノ-</w>
エコ ノミ</w>
エ ストニア</w>
エ ステル</w>
ウェイ タ</w>
ウェ ン
ウェ ル
ウィリア ムズ</w>
ウィ スコンシン</w>
ウ ラ
イナ ゴ</w>
イ マジネ</w>
アントニ オ</w>
アン グル</w>
アル バカ</w>
アル デ
アメ ル</w>
アノ ニマス</w>
アナ ロジ</w>
アテ ナイ</w>
アクセ サリ</w>
アク ア</w>
アイ ロニ</w>
アイ リス</w>
ア レ</w>
ア パ</w>
ア ニ</w>
ア -ル</w>
わ たり</w>
わ く</w>
わ き</w>
わ あ</w>
ろ く
る み</w>
り 所</w>
り 声</w>
ら つ</w>
よろ しく</w>
よく よく</w>
やり 過ご</w>
や めれ</w>
もっ たい</w>
もし もし</w>
め ざ</w>
む し
み つか</w>
ま わし</w>
ま ひ</w>
ま ば
ま き</w>
ま い
ぼ ろ
ぶ どう</w>
ひと 時</w>
ひ ねり</w>
ひ な</w>
は ら</w>
は い
ぬ ぼれ</w>
な の</w>
で かけ</w>
つか ま</w>
つ る</w>
っ こり</w>
っ き</w>
たた み</w>
たく まし</w>
た ぐい</w>
すく め</w>
しの ぎ</w>
しか な</w>
し つけ</w>
さら い</w>
さ み</w>
ご つ</w>
ご っこ</w>
ご ちゃ</w>
ご たえ</w>
こぼ こ</w>
こ み</w>
こ がれ</w>
く ち
く すぐ</w>
く すぐ
く い
ぎ 取</w>
ぎ り</w>
か す</w>
か ぎ</w>
か がめ</w>
か かり</w>
か え
おと なし</w>
おし っこ</w>
お ろ</w>
お ぉ</w>
うっ てつけ</w>
う ぬぼれ</w>
いた って</w>
い ざ
あり つけ</w>
あ わ
あ せ</w>
あ お</w>
y ou</w>
w e
u l</w>
u d
s e
s c
p e
or e</w>
oo k
o s</w>
k c
i T
ho p</w>
el es
cat s</w>
c ar</w>
ag e</w>
ag ag
a st
a h
Z ip
You t
Y ahoo</w>
X ML</w>
World of
Wom en
Wit ness</w>
W ho
W W
U V</w>
U NA
TED Women</w>
T im
S en
S S
R ow</w>
P oint</w>
O LED</w>
N C</w>
M BI</w>
L OL
L ES</w>
I t
I P
He al
G o</w>
G M</w>
Ear th
D o
C Q</w>
C L</w>
C L
Bl ack
A c
A S</w>
A I
3, 500</w>
3 0
2 70</w>
2 60</w>
19 0
1 75</w>
-ド ディスク</w>
-ト ジボ
- ヴェ
齧 歯</w>
黒 色</w>
骸 骨</w>
馬 力</w>
首 尾</w>
餌 場</w>
養 え</w>
頭 皮</w>
音 質</w>
音 痴</w>
靴 紐</w>
非 道</w>
集 光</w>
隠 蔽</w>
陣 法</w>
関わ り合い</w>
関 門</w>
開 校</w>
開 店</w>
門 戸</w>
長 引</w>
鎮 め</w>
錆 び</w>
鋳 造</w>
金 儲け</w>
野 原</w>
重 んじ</w>
酔っぱ らい</w>
酔っ 払い</w>
遺 書</w>
道 中</w>
過 言</w>
遊 歩</w>
連 隊</w>
這い 上が</w>
退 治</w>
追 究</w>
近 親</w>
近 似</w>
辿 り着け</w>
軽 ん</w>
踏み にじ</w>
買い 取</w>
負け 犬</w>
豪 邸</w>
請 負</w>
調 合</w>
誓 約</w>
許 仙</w>
見 込め</w>
西 暦</w>
褒め 言葉</w>
複 写</w>
裏 返</w>
表 皮</w>
行 程</w>
行 儀</w>
葬 式</w>
落とし 穴</w>
落と し</w>
落ち 着け</w>
華 々し</w>
荷 電</w>
荒 々し</w>
苦 戦</w>
芳 し</w>
花 嫁</w>
色 付け</w>
色 あせ</w>
舞い 上が</w>
至 難</w>
自 撮</w>
自 傷</w>
育 種</w>
肥 沃</w>
聖 母</w>
羽ば たき</w>
羽 音</w>
美 点</w>
罰 則</w>
繰 り</w>
縁 石</w>
結 腸</w>
細 動</w>
累 積</w>
紡 ぎ出</w>
糖 類</w>
粗 悪</w>
策 略</w>
策 定</w>
窮 地</w>
窃 盗</w>
空き 家</w>
積 み込</w>
稼 動</w>
稜 線</w>
秘 書</w>
私 有</w>
祝 日</w>
祈 祷</w>
看 病</w>
眉 毛</w>
省 庁</w>
相 似</w>
直 撃</w>
皆 伐</w>
登 記</w>
病 変</w>
疑 惑</w>
異 物</w>
異 例</w>
画 素</w>
画 一</w>
甲 殻</w>
生 気</w>
甘 味</w>
球 面</w>
現 われ</w>
献 金</w>
狡 猾</w>
特 大</w>
特 区</w>
物 書き</w>
物 作り</w>
熟 達</w>
無 能</w>
無 給</w>
無 垢</w>
点 滴</w>
火 力</w>
濫 用</w>
激 変</w>
潜 伏</w>
漢 字</w>
演 習</w>
滑 り</w>
滅 茶苦茶</w>
渡り 歩</w>
渡 れ</w>
混ざ り合</w>
混 入</w>
深 度</w>
深 圳</w>
海 原</w>
浅 瀬</w>
波 打</w>
決まり 事</w>
水 牛</w>
水 漏れ</w>
水 没</w>
水 層</w>
水 圧</w>
気 配</w>
気 づけ</w>
毛 糸</w>
毒 物</w>
死 傷</w>
歌 唱</w>
欺 瞞</w>
欺 き</w>
機 知</w>
樹 冠</w>
梯 子</w>
格 別</w>
林 業</w>
有 人</w>
最 底辺</w>
書 斎</w>
暗 室</w>
時 限</w>
昔 々</w>
明け 方</w>
明 示</w>
昇 り</w>
日 差し</w>
新 陳</w>
敷 設</w>
数 理</w>
教 職</w>
故 人</w>
攻 め</w>
支 部</w>
支 柱</w>
擬 似</w>
撤 回</w>
揺 らぎ</w>
持ち 運び</w>
持ち かけ</w>
拉 致</w>
抵 当</w>
折り たたみ</w>
投げ 入れ</w>
抑 揚</w>
抑 うつ</w>
批 准</w>
手 っ
愕 然</w>
悪 玉</w>
怠 け</w>
思い 描け</w>
心 身</w>
心 肺</w>
当 人</w>
弟 子</w>
引き 伸ば</w>
座 れ</w>
庇 護</w>
広 間</w>
幻 滅</w>
平 米</w>
平 た</w>
帆 船</w>
巻 物</w>
差し 引</w>
左 端</w>
川 底</w>
崖 っぷ
崖っぷ ち</w>
屈 強</w>
就 寝</w>
尚 更</w>
小 遣い</w>
小 道</w>
専 制</w>
対 角</w>
家 主</w>
学 説</w>
学 界</w>
奮い 立</w>
天 地</w>
外 洋</w>
外 壁</w>
変異 体</w>
変 り</w>
売 却</w>
塗り 替え</w>
型 破り</w>
垂 れ
在 籍</w>
在 学</w>
土 砂</w>
国 政</w>
国 勢</w>
因 数</w>
嘆 き</w>
品 位</w>
呈 示</w>
呆 れ</w>
吹き かけ</w>
吟 味</w>
向か い合</w>
名 乗り</w>
同 種</w>
同 居</w>
合 同</w>
右 目</w>
召 使い</w>
口 臭</w>
叙 事</w>
受け 付け</w>
取り 込め</w>
取り 決め</w>
収 納</w>
双 曲</w>
去 勢</w>
厳 重</w>
区 間</w>
北 側</w>
包 み</w>
勾 配</w>
勝 訴</w>
動 き
加 護</w>
功 利</w>
前 者</w>
削 り</w>
利 子</w>
利 便</w>
初 等</w>
出 願</w>
出 稼ぎ</w>
冥 王</w>
内 障</w>
内 輪</w>
内 緒</w>
内 政</w>
公 転</w>
公 職</w>
公 営</w>
全 知</w>
入 所</w>
入 居</w>
優 等</w>
働 か</w>
偽 善</w>
偶 発</w>
俯 瞰</w>
信 憑</w>
保 留</w>
俗 物</w>
余 暇</w>
住み 着</w>
住 ま</w>
伝 播</w>
休 息</w>
休 め</w>
任 期</w>
代 金</w>
代 え</w>
付き まと</w>
他 界</w>
仏 陀</w>
介 在</w>
今 月</w>
交 替</w>
亜 鉛</w>
互 恵</w>
乗り 換え</w>
丸 太</w>
並べ 替え</w>
下 垂</w>
上 着</w>
上 がれ</w>
万 博</w>
万 事</w>
ヴァ イ
ワイ ルド</w>
ロン ダリング</w>
ロマン ティック</w>
ロボット ア
ロド プ
ロドプ シン</w>
ロッ ピ</w>
ロ ミオ</w>
ロ ケ</w>
ロ イヤ
ロ -バ</w>
レイ マ</w>
レ ア
ルタ クス</w>
ル リ
ル シ
ル アドレス</w>
リン ド
リオ ド</w>
リ ビ</w>
リ トル</w>
リ テ
リテ ラシ</w>
リ -ナ</w>
ラル ネット</w>
ラ モン</w>
ラ ム
ラ フ</w>
ラ バ</w>
ラ -ベ</w>
ヨ ウ</w>
ユ ネ
ユネ スコ</w>
ュッ セル</w>
モル モン</w>
メトロ ポリタン</w>
メディ カル</w>
メ ロ</w>
ム ト</w>
ミル ウォ-</w>
ミ ルズ</w>
ミ カル</w>
マルチ タスク</w>
マハト マ</w>
マッ キン
マ ワリ</w>
マ フィア</w>
マ ヌ</w>
マ ココ</w>
マ カ
ポテン シャ
ポテンシャ ライト</w>
ポ リ</w>
ポ ピュ
ポ -チ</w>
ボイ コット</w>
ボ ビ</w>
ボ ク</w>
ボ イル</w>
ホ セ</w>
ホ イ</w>
ペ リ
ペ ッパ</w>
ペ イ</w>
ベル グ</w>
ベ ニス</w>
ベ クトル</w>
ヘッド ライト</w>
プリ ンス</w>
プリ メント</w>
プラン テ</w>
ブレ トン</w>
ブレ インスト</w>
ブリタ ニカ</w>
ブリ ュッセル</w>
ブラ リ</w>
ブ ン・</w>
ブ ツ</w>
フランケン シュタイン</w>
フラン コ</w>
フェル メ-</w>
フェ リ</w>
フェ ア
ファ スト</w>
フ リ-</w>
ピ リオド</w>
ピ リ</w>
ビブリ オ</w>
ビ キ
ヒ ツジ</w>
パレ -ド</w>
パ ビリオン</w>
パ ッカ</w>
バンド エイド</w>
バイオ ミミクリ</w>
バ イン</w>
ハリ ヤナ</w>
ハ ロ</w>
ノブ イリ</w>
ノ リ</w>
ノ ズル</w>
ネ ム</w>
ネ チャ</w>
ニコ チン</w>
ニ セ
ニ アル</w>
ナ タリ</w>
ナ ゲット</w>
トロ フィ</w>
トリ ケラ
トリケラ ト
トリケラト プス</w>
トリ クル</w>
トラ ベル</w>
ト バイ</w>
デリ ケ-</w>
デニ ソワ</w>
デ ス
デ カルト</w>
ティラ ノサウルス</w>
ティ ング
ティ カル</w>
テ ラン</w>
テ ディベア</w>
ツワ イル</w>
ツ カ</w>
ット マン</w>
ッ グ
チョ ップ</w>
チェル ノブイリ</w>
ダン ス
ダライ ラマ</w>
ダ ラ</w>
ダ ッド</w>
タン ズ</w>
タゴ ラス</w>
タゴ タ</w>
タイ ポ
タイ ピング</w>
タ ポイント</w>
タ ウ</w>
ゾ チック</w>
ソ -ダ</w>
ゼ ウス</w>
セン セ</w>
セクシュ アル</w>
セクシュ アリティ</w>
スワ ヒリ</w>
スピリ チュアル</w>
スパ ルタクス</w>
スパ イラ
スパイラ ル</w>
スナ ップ</w>
ストロ マン</w>
ストゥ ス</w>
スト -ン</w>
ステイ シ</w>
ステ ファン</w>
ステ ネス</w>
ステ -</w>
スケ ルトン</w>
スキ ン</w>
スキ ッド</w>
スカ ラ</w>
ス ン
ス モ</w>
ジョ ン
ジュ ネ-</w>
ジャ コ
ジェネ ティクス</w>
ジェネ シス</w>
ジェ ナ</w>
ジ スト</w>
シンフォ ニ-</w>
シンセ サイ
シンセサイ ザ</w>
シング カ</w>
シリ ル</w>
ショ ウ</w>
システ ィ</w>
シグ ネチャ</w>
ザ ッカ</w>
サンド ラ</w>
サ プリメント</w>
サ ハル</w>
サ ック</w>
サ -</w>
ゴル ディ</w>
ゴ タゴタ</w>
コン ファレンス</w>
コン テクスト</w>
コ リンズ</w>
コ フィ</w>
ゲ -ジ</w>
ケ ラ</w>
グ ロ-</w>
グ ウェン</w>
クリエイ タ</w>
クリ ティック</w>
クラス メイト</w>
クオ ラ</w>
ク チャ</w>
ク スト</w>
ギ ル
キャ ッサ
キツ ネ</w>
キ ル
ガ タ</w>
カタ -</w>
カザフ スタン</w>
カ ツ
カ チッ</w>
カ ダフィ</w>
オカ ピ</w>
オ ビ
オ スマン</w>
オ ス
オ サ
オ キ
オ -ル</w>
エタ ノ</w>
エキ ゾチック</w>
ウル グアイ</w>
ウェ ットス</w>
ウェ -</w>
ウ エア</w>
イン フィ
イン ティ
イ カロス</w>
アン ソニ</w>
アル ベルト</w>
アル プス</w>
アム ンセン</w>
アビ ブ</w>
アトラ ス</w>
アイ ヴァン</w>
ア パラ
ア キャット</w>
り 狂</w>
り 入れ</w>
り こ</w>
よ ほど</w>
よ じ
よ こ</w>
や わ
もの 凄</w>
もの づくり</w>
め 合</w>
め た</w>
み そ</w>
まとめ 上げ</w>
まあ まあ</w>
ま な
まな ざし</w>
ま ぐる
まぐる し</w>
ふ くら
ぴ ら</w>
び 割れ</w>
び き</w>
ひ び割れ</w>
のん びり</w>
の ろ
の しかか</w>
に っこり</w>
な め
な いが
ないが しろ</w>
ど り</w>
て こ</w>
つま づ</w>
つぶ やき</w>
つくり あげ</w>
つ け
だ ら</w>
た ぶん
せ めて</w>
ず と</w>
すぐ れ</w>
す っ
しょ う
しき たり</w>
し びれ</w>
ざ わ
さ い</w>
ごちゃ ごちゃ</w>
こ ま</w>
け が</w>
ぐ っ</w>
ぐ さ</w>
が い
かか りつけ</w>
か ん
か り
か ばん</w>
お の
お さま</w>
うろ つ</w>
うら やまし</w>
う ね</w>
いか だ</w>
い じ
あ こがれ</w>
w ish</w>
v e</w>
t on
l d</w>
ic e</w>
g e
et h
eles cope</w>
c on
c ha
b e
av a</w>
an t</w>
ac e
a in
a b</w>
Zip car</w>
Yout ube</w>
You r
Worldof Warcraft</w>
World changing</w>
W IS
V E
U N
T o
T P</w>
S e
RIS M</w>
R E
Projec t</w>
P RISM</w>
On l
Ma c</w>
M e</w>
M E</w>
Kiv a</w>
J ava</w>
J PL</w>
I C</w>
Google Earth</w>
G r
G it</w>
F C</w>
Bl a
Amer ica</w>
AT P</w>
A B
8 60</w>
4 ,
196 6</w>
196 2</w>
195 6</w>
195 5</w>
19 41</w>
19 12</w>
-タ ベ</w>
- ルズ</w>
- ハ</w>
- ん</w>
鳴 り
高 次元</w>
高 架</w>
駆け 抜け</w>
駆け 上が</w>
飛び 出し</w>
音 域</w>
電 位</w>
雑 貨</w>
雑 学</w>
陰 気</w>
陣 取</w>
閣 僚</w>
関 わり
開 封</w>
閃 き</w>
長 旅</w>
鉄 線</w>
重 り</w>
酔っぱ ら</w>
遠 方</w>
過 密</w>
運 賃</w>
造 り出</w>
送 還</w>
退 け</w>
転 倒</w>
転 げ
軍 用</w>
軍 団</w>
身 なり</w>
躍 起</w>
赦 し</w>
質 疑</w>
賠 償</w>
貼 り</w>
譲 れ</w>
警 部</w>
講 堂</w>
読み 込</w>
誤 診</w>
誇 れ</w>
話し 合え</w>
詫 び</w>
触 感</w>
解 法</w>
見せ びらか</w>
見 開き</w>
見 通せ</w>
見 比べ</w>
見 張り</w>
見 定め</w>
見 合わせ</w>
襲 い
襲い かか</w>
補 修</w>
裏 打ち</w>
装 い</w>
表 わ</w>
行き 交</w>
血 統</w>
薄 め</w>
落ち 込み</w>
華 麗</w>
荘 厳</w>
荒 らし</w>
良 性</w>
舞い 降り</w>
自 足</w>
自 前</w>
脱 皮</w>
胎 内</w>
肘 掛け</w>
耐 熱</w>
置き 場</w>
縁 故</w>
緑 藻</w>
緑 茶</w>
総 計</w>
総 理</w>
絶 壁</w>
統 率</w>
結び 付</w>
経 典</w>
終 わり
紡 ぎ</w>
純 潔</w>
紐 解</w>
粘 性</w>
筋 力</w>
立ち あが</w>
積 も</w>
磁 界</w>
砕 屑</w>
石 版</w>
着 飾</w>
眼 窩</w>
真 菌</w>
相 続</w>
盲 目的</w>
目 当て</w>
登 頂</w>
発 祥</w>
癒 え</w>
留 置</w>
畏 怖</w>
産 科</w>
理 髪</w>
球 菌</w>
特 製</w>
物 的</w>
物 差し</w>
燃え 上が</w>
熱 望</w>
無 法</w>
無 残</w>
無 敵</w>
災 い</w>
火 花</w>
激 化</w>
潰 瘍</w>
漂 流</w>
満ち あふれ</w>
満 員</w>
湧 き出</w>
渦 巻き</w>
添 い</w>
海 山</w>
洋 上</w>
治 め</w>
沖 合</w>
決 別</w>
永 住</w>
氷 点</w>
水 着</w>
水 域</w>
気 道</w>
気 取</w>
死 神</w>
歴 代</w>
歪 曲</w>
樹 液</w>
構 内</w>
植 生</w>
植 木</w>
棲 み
棲み 家</w>
根 差</w>
枠 組</w>
村 々</w>
材 木</w>
未 遂</w>
木 の</w>
有 袋</w>
有 史</w>
有 刺</w>
最 貧困</w>
最 多</w>
暴 徒</w>
映 写</w>
旅 客</w>
施 工</w>
新 米</w>
新 婦</w>
新 入</w>
断 崖</w>
放 物</w>
改 ざ
改ざ ん</w>
撃 ち</w>
描 き
揃 い</w>
推 力</w>
排 斥</w>
押し 返</w>
抹 消</w>
打ち 消</w>
打 診</w>
手っ 取り</w>
手 口</w>
手 動</w>
戦 火</w>
悲 嘆</w>
悪 口</w>
悔 や</w>
恥 辱</w>
恣 意</w>
恍 惚</w>
怪 力</w>
思い 当た</w>
必 用</w>
心 情</w>
心 当たり</w>
微 分</w>
徘 徊</w>
影 響</w>
形 而</w>
弾 性</w>
張 り出</w>
引き 算</w>
弁 務</w>
建 材</w>
座 り込</w>
常 習</w>
左 足</w>
巡 回</w>
峡 谷</w>
岩 盤</w>
屋 根
居 続け</w>
少 佐</w>
小 路</w>
小 枝</w>
導き 出せ</w>
密 閉</w>
室 温</w>
安 堵</w>
安 らか</w>
始 末</w>
好 評</w>
失 語</w>
天 災</w>
大 笑い</w>
大 掛かり</w>
多 能</w>
夕 日</w>
堪 能</w>
堅 固</w>
埋め 立て</w>
地 底</w>
図 像</w>
団 地</w>
回 顧</w>
嚢 胞</w>
呼び 込</w>
同 志</w>
同 化</w>
台 帳</w>
口 コミ</w>
受け 持</w>
受け 手</w>
受け 取れ</w>
受 診</w>
受 付</w>
取り 換え</w>
取っ 手</w>
反 証</w>
双 眼</w>
博 愛</w>
医 用</w>
勝ち 目</w>
動 態</w>
助 け出</w>
割 と</w>
前 置き</w>
前 科</w>
刺 し</w>
別 種</w>
初 歩</w>
列 挙</w>
切り 絵</w>
切 れ
分け 与え</w>
分 身</w>
出 社</w>
凝 り</w>
凍 りつ</w>
写 実</w>
写 し</w>
内 在</w>
共 著</w>
共 演</w>
全 う</w>
先 史</w>
償 い</w>
偶 像</w>
停 車</w>
偏 移</w>
個 所</w>
修 繕</w>
保 温</w>
保 ち</w>
係 数</w>
使い 道</w>
作り 替え</w>
低 木</w>
似 つ</w>
会 談</w>
仕 込</w>
人 組</w>
予 告</w>
乗り 切</w>
乗 務</w>
乖 離</w>
主 食</w>
丸 々</w>
中 和</w>
不可 知</w>
不 滅</w>
不 尽</w>
万 年</w>
一人 っ子</w>
一 望</w>
一 晩</w>
一 度</w>
一 党</w>
ヴェ ラ</w>
ヴィ ヴァルディ</w>
ン エ</w>
ワイ ド</w>
ワ ナス</w>
ワ トル</w>
ワ タ</w>
ロデ オ</w>
ロッ キ</w>
ロ ワ</w>
ロ リ</w>
レッ ダ</w>
レジ スタンス</w>
レ セ
ルド マン</w>
ル 袋</w>
ル ル
リ ビン
リ ニア</w>
リ セット</w>
リ ジ</w>
リ カルド</w>
ラブ レス</w>
ライフ コ</w>
ライ ノウイルス</w>
ラ ルド</w>
ラ リティ</w>
ラ ファ
ラ ティブ</w>
ラ ジャ
ラ ウンド</w>
ヨン セ</w>
ヨル バ</w>
ヨ セミ
ヨセミ テ</w>
ユニ セフ</w>
ユニ コ</w>
ユウ ァン</w>
ユ ソ</w>
ヤ ン
ヤ -</w>
モン ス
モンス -ン</w>
モノ ロ</w>
モノ づくり</w>
モニ カ</w>
モ リ
モ ッ
モッ キン
モッキン バ</w>
モ チ</w>
モ ザ
モザ イク</w>
メ -ド</w>
ミ バエ</w>
ミ トラ</w>
マル タ</w>
マディ ソン</w>
マ ハ</w>
マ ダ</w>
マ ゼ
マゼ ラン</w>
マ エ
ボル チモア</w>
ホメ ロス</w>
ホッキョ ク</w>
ホ リ
ホ ホ
ホホ ジロザメ</w>
ホ ウ</w>
ペン タ
ペ テル
ベン ツ</w>
ベ テラン</w>
プン ソ-</w>
プロダ クト</w>
プロ ファイル</w>
プリ ウス</w>
プラ ノ</w>
プラ ネット</w>
プラ カ-ド</w>
プ ソル</w>
プ エル
プエル トリ
プエルトリ コ</w>
ブン ブン</w>
ブレ ッド</w>
ブル -ノ</w>
ブラン コ</w>
ブラ ヒ
ブラ ック
ブ レン
ブ エノ
フレ デリック</w>
フレ ア</w>
フラ ミンゴ</w>
フォ リオ</w>
フェ ムト</w>
フェ イ</w>
ファイ ア
ファ リ</w>
ファ -ジ</w>
フ ロッピ</w>
フ ロス</w>
フ ツ</w>
ピックアンドロ -</w>
ピエ ロ</w>
ピ ント</w>
ピ タゴラス</w>
ピ グミ</w>
ビ ヨンセ</w>
ビ ハ</w>
ビ ス
ビ -ナ</w>
ヒ マワリ</w>
パノ ラマ</w>
パ トロ-ル</w>
パ チ
バンコ ク</w>
バンガ ロ</w>
バビ ロニア</w>
バナ ナナ
バグ ダッド</w>
バイ メタル</w>
バ ロ
バ バ
バ チ
バ キア</w>
ハッ ハッ
ハ ルク</w>
ノウ ハウ</w>
ノ コ
ネッ タイ</w>
ネズ ミ
ネイ サン</w>
ネ ック
ニ ック
ナン シャル</w>
ナナ ワトル</w>
ナ ッツ
ナ ショ
ナ ウ</w>
ドミニ カ</w>
ド ネル</w>
ド ク</w>
ド アイランド</w>
トレ ッド
トレッド ミル</w>
トラ ップ</w>
トバ ゴ</w>
トゥ ラ
ト ルド</w>
ト ビル</w>
ト ビ</w>
デイ リ</w>
ディスカ ッション</w>
ディ ッシュ</w>
ディ スコ</w>
ディ アム</w>
ディ ア
テク ノ</w>
テク スチャ</w>
ティ アゴ</w>
テ ュ-</w>
テ セウス</w>
ッ ケル</w>
チルド レン</w>
チャイ ルド</w>
チェ ッカ</w>
チ ド</w>
ダ マスカ
ダ ビ</w>
タン ゴ</w>
タバ タ</w>
タイポ グラフィ</w>
タイ マ</w>
タ ブル</w>
ソナ リティ</w>
ソ ン
ソ ブリン</w>
ゼ ラ
セン トル
セン テ
セン サス</w>
セル ロ</w>
スラ ビア</w>
スプラ ッシ</w>
スナ ック</w>
スチ ロ</w>
スタン リ</w>
ス ワン</w>
ス ライン</w>
ス ネア</w>
ジン ジャ</w>
ジュ ディス</w>
ジャン クフ</w>
ジャ ブ</w>
ジャ ッキ</w>
ジャ ク</w>
ジ ットニ</w>
ジ -プ</w>
ショ パン</w>
シュ レッダ</w>
シュ ナ</w>
シャル ネットワ</w>
シャ ヒディ</w>
シマ カ</w>
シナ ロア</w>
シッ コ</w>
ザ イ</w>
サン ティアゴ</w>
サバイ バル</w>
サク セス</w>
サイエン ティスト</w>
サイ ロ</w>
サイ クロン</w>
サ ボ
サ ブ
サ クラ
サ -ジ</w>
ゴ ロ</w>
ゴ スラビア</w>
コントラ スト</w>
コン ロ</w>
コネ クション</w>
コ ルク</w>
コ リン</w>
コ マンド</w>
コ ッド</w>
ケ ストラ</w>
クレ ヨン</w>
ク チ
ク ジャク</w>
ク ウェ
ギ ン
ギ ザ</w>
ギ -ク</w>
キャラ メル</w>
ガル シア</w>
ガイ ガ</w>
カリ プソル</w>
カラ ヤン</w>
カラ チ</w>
カラ カス</w>
カフェ テリア</w>
カッ シ-</w>
カ レン</w>
カ ブ</w>
カ フ
カ ストロ</w>
カ スケ</w>
カ カ
カカ オ</w>
カ エ
カ ウント</w>
オラ ウ</w>
オサ ガメ</w>
オ ミ</w>
オ チ</w>
オ ズ
オ シッコ</w>
オ クタ</w>
エン コ</w>
エ ヴァ
エ ピック</w>
エ ス</w>
ウェブ ペ-ジ</w>
ウィ -</w>
ウ シャヒディ</w>
インフィ ニティ</w>
インテリ ジェント</w>
インスタ グラム</w>
イン ポスタ</w>
イン ディオ</w>
イ ヴァン</w>
イ ワシ</w>
イ キ
イ ェ</w>
アン ナ</w>
アン ケ-ト</w>
アレク シス</w>
アリ ソン</w>
アパラ チア</w>
アド リア</w>
アサン ガ</w>
アク ラ</w>
アク タ</w>
アキ レス</w>
アウ シュ
アイ レス</w>
ア ミン</w>
ア ベ
ア セ
ア スペ
ん ぼ</w>
ん ど</w>
わ え</w>
れ っき</w>
よ それ</w>
や たら</w>
や せ
もの ―</w>
も め</w>
も たれ</w>
も が</w>
む き出し</w>
み ん
み じめ</w>
まる まる</w>
ま ね
ま して</w>
ぼ け</w>
ほ のめ
ほ どん
ほ っと</w>
ほ こり</w>
ぺ ら
ふる ま</w>
ふ ん</w>
ひと まず</w>
ひっ そり</w>
ひ ざ
ひ きつけ</w>
ば ったり</w>
ば っかり</w>
ば い</w>
はい はい</w>
は め込</w>
は み出</w>
は さ</w>
は ぎ</w>
は か</w>
は ―
の び</w>
ね らい</w>
ね この</w>
なめ らか</w>
な だめ</w>
な ぞ
なぞ らえ</w>
どん 底</w>
ど っ</w>
と く</w>
つ ぎ
っ 端</w>
っ た
たば こ</w>
たと え話</w>
たち なら</w>
たち こそ</w>
そ の
ず け</w>
ず く</w>
す さま
すさま じ</w>
じ ろ</w>
し べ</w>
し の</w>
し っぽ</w>
ささ か</w>
さ ぞ</w>
ご とく</w>
この 頃</w>
こと ごとく</w>
こぎ つけ</w>
くち ばし</w>
く っきり</w>
く す
く ぐり
ぎ っしり</w>
が み</w>
かき たて</w>
か まし</w>
か なた</w>
か さ</w>
おび ただし</w>
お し</w>
え 立</w>
え 付け</w>
うっ とり</w>
う ち
う こんな</w>
う か</w>
いち いち</w>
い ささか</w>
v er</w>
ur e</w>
up id</w>
um an
ri end</w>
re at
ra in
r is
r a</w>
ou nd
ol l
m l</w>
m a
l l
itt le
it s</w>
igh t
ide T
ideT elescope</w>
i es</w>
i ent
i b
i B
g le</w>
es s
en ce</w>
as k
ag ram</w>
ac k</w>
ab le
WorldW ideTelescope</w>
Ub untu</w>
UNA IDS</w>
U S</w>
U B
TED Global</w>
T r
T O
Sen se</w>
S P
Red dit</w>
R es
P op
Onl ine</w>
N ot
N at
N O
M e
M ar
M ac
M C</w>
LOL cats</w>
L E</w>
J R</w>
J A</w>
Inst agram</w>
Im age
H uman
G o
G F
F in
E x
E n
E co
D u
C y
C upid</w>
B e
A M
A E</w>
7, 8</w>
6 500</w>
20 18</w>
2, 00</w>
2 ､
2 80</w>
196 4</w>
195 9</w>
195 8</w>
19 28</w>
1 番</w>
1 1,000</w>
-ム メ-ト</w>
-デ ニング</w>
- ラ
- ミング</w>
- プル</w>
- チ
- ゴ</w>
- コン</w>
- ガ</w>
黄 熱</w>
高 潮</w>
髄 液</w>
駆け 回</w>
馳 走</w>
飛び 跳ね</w>
飛び 散</w>
飛び 乗</w>
風 雨</w>
頭 でっ
頭でっ か
頭でっか ち</w>
領 主</w>
順 守</w>
靭 帯</w>
面白 み</w>
非 行</w>
非 情</w>
青 少年</w>
震 わせ</w>
震 え
集 権</w>
隔 絶</w>
随 意</w>
降 伏</w>
開 業</w>
門 番</w>
長 編</w>
鎮 圧</w>
野 鳥</w>
酔っ 払</w>
還 付</w>
選 考</w>
選 抜</w>
運び 込</w>
運 送</w>
遅 ら</w>
速 力</w>
通 院</w>
通 気</w>
途 絶え</w>
透 け</w>
逆 さ</w>
追い つけ</w>
追 尾</w>
追 っかけ</w>
近 々</w>
軽 度</w>
転げ 落ち</w>
転 売</w>
転 々</w>
身 内</w>
起こ り</w>
起 伏</w>
走り 去</w>
赤 子</w>
贈 賄</w>
貧 者</w>
譲 り
譜 面</w>
謎 め</w>
論 評</w>
調 律</w>
課 外</w>
試 食</w>
許 諾</w>
訂 正</w>
言葉 遣い</w>
解き ほぐ</w>
見 限</w>
見 開</w>
見 返</w>
見 越</w>
要 領</w>
襲 来</w>
補 佐</w>
裁 き</w>
被 曝</w>
表 裏</w>
行き 詰</w>
血 筋</w>
蛋 白</w>
蚊 除け</w>
虚 無</w>
薬 草</w>
薬 学</w>
落 っ
荷 台</w>
荒 っぽ</w>
荒 さ</w>
英 米</w>
若 齢</w>
芸 人</w>
花 蜜</w>
至 極</w>
脱 落</w>
胸 やけ</w>
胎 芽</w>
背 筋</w>
聞き 取れ</w>
聖 戦</w>
聖 地</w>
耕 地</w>
老 婆</w>
群 集</w>
群 が</w>
締 ま</w>
総 括</w>
綿 花</w>
絶 頂</w>
絡 み</w>
絡 ま</w>
経 口</w>
組み 込め</w>
組 立て</w>
紙 面</w>
納 ま</w>
紋 章</w>
系 譜</w>
粘 着</w>
等 分</w>
立ち 尽く</w>
窮 状</w>
税 制</w>
移り 変わり</w>
福 島</w>
福 利</w>
禁 断</w>
禁 じ</w>
神 託</w>
砂 岩</w>
石 英</w>
瞳 孔</w>
着 色</w>
真っ 向</w>
真 偽</w>
目覚 し</w>
盗 み
的 外れ</w>
発 疹</w>
発 散</w>
発 がん</w>
療 養</w>
痛 感</w>
痛 切</w>
甲 板</w>
用 量</w>
産 地</w>
産 め</w>
生まれ たて</w>
甘 美</w>
琥 珀</w>
王 妃</w>
獄 中</w>
特 技</w>
物 心</w>
牛 耳</w>
片 道</w>
片 田舎</w>
爽 やか</w>
煮 詰め</w>
照ら し
照らし 合わせ</w>
無 論</w>
無 尽</w>
点 々</w>
炭 坑</w>
漸 進</w>
漏 れ出</w>
滑 降</w>
溶 接</w>
湧 き上が</w>
温 泉</w>
温 床</w>
温 存</w>
渦 中</w>
渡 航</w>
減 退</w>
清 らか</w>
清 め</w>
深 淵</w>
深 層</w>
消 極</w>
浸 水</w>
海 草</w>
海 盆</w>
浮 力</w>
浮 き</w>
流 行
流 血</w>
活 き</w>
洗 面</w>
注 視</w>
泊 め</w>
油 脂</w>
決 議</w>
汚 名</w>
氷 棚</w>
水 草</w>
水 色</w>
気 難し</w>
気 遣い</w>
気 取り</w>
毛 虫</w>
残 光</w>
正 銘</w>
正 答</w>
正 真</w>
次 いで</w>
横 向き</w>
極 秘</w>
極 寒</w>
植 樹</w>
査 定</w>
来 場</w>
村 民</w>
材 質</w>
未 踏</w>
未 然</w>
未 亡
未亡 人</w>
木 部</w>
服 飾</w>
月 並み</w>
書き 残</w>
曲 がり
易 し</w>
明 言</w>
明 暗</w>
明 るみ</w>
早 口</w>
早 ま</w>
日 誌</w>
断 続</w>
敷 き</w>
数 列</w>
敬 愛</w>
教 鞭</w>
救 い
支 度</w>
操 れ</w>
撮 像</w>
撮 り</w>
掴 め</w>
探し 当て</w>
排 便</w>
振り かざ</w>
持ち 込め</w>
持ち 込み</w>
拾 え</w>
拍 動</w>
担 え</w>
押し 流</w>
択 一</w>
投 じ</w>
打 て</w>
手 柄</w>
手 厚</w>
所 定</w>
戯 言</w>
戦 線</w>
戦 死</w>
懸 け</w>
愛 人</w>
意 向</w>
悪 霊</w>
悪 徳</w>
恨 み</w>
恒 常</w>
性 差</w>
思い 切り</w>
応 急</w>
志 望</w>
微 速度</w>
微 々</w>
後ろ 側</w>
当て こす</w>
弾 き</w>
張り 裂け</w>
張 力</w>
弱 々し</w>
引き 渡</w>
引き 抜</w>
引き 下げ</w>
延 期</w>
店 頭</w>
広 島</w>
広 域</w>
幼 年</w>
幻 影</w>
年 中</w>
平 静</w>
平 地</w>
常 軌</w>
希 薄</w>
崩 れ去</w>
岩 礁</w>
履 修</w>
小 銭</w>
射 精</w>
射 出</w>
寝 かせ</w>
寒 冷</w>
家 長</w>
宝 飾</w>
学 際</w>
学 名</w>
字 体</w>
威 張</w>
女 児</w>
奥 地</w>
契 機</w>
失 踪</w>
天 職</w>
大 聖堂</w>
大 がかり</w>
多 面</w>
売り 込み</w>
報 せ</w>
坂 道</w>
地 産</w>
回 診</w>
唖 然</w>
呼 応</w>
呼 び</w>
吹き 抜け</w>
吹 き出</w>
名 簿</w>
同 数</w>
司 祭</w>
台 座</w>
可 聴</w>
古 び</w>
口 頭</w>
叡 智</w>
受け 渡</w>
受 験</w>
受 話</w>
原 虫</w>
原 住民</w>
厚 紙</w>
卵 胞</w>
即 効</w>
博 覧</w>
単 数</w>
卑 し</w>
半 々</w>
区 切り</w>
劇 団</w>
割 礼</w>
刺 青</w>
刷 り込</w>
判 例</w>
切り 離せ</w>
切り 捨て</w>
切り 口</w>
分 極</w>
刃 物</w>
出 し
凝 固</w>
凝 ら</w>
冥 界</w>
再 編</w>
円 錐</w>
円 滑</w>
共 謀</w>
光 り
光り 輝</w>
偏 執</w>
偏 光</w>
倒 壊</w>
倒 れ込</w>
個 数</w>
俗 説</w>
便 益</w>
体 臭</w>
体 操</w>
伯 爵</w>
仰 向け</w>
付け 足</w>
他 人事</w>
交 じ</w>
二 輪</w>
二 の
事 細か</w>
争 点</w>
予 後</w>
乳 首</w>
乳 母</w>
中 盤</w>
中 傷</w>
不可 思議</w>
不 穏</w>
不 潔</w>
不 審</w>
上 方</w>
万 国</w>
万 が
万が 一</w>
一 風</w>
一 通り</w>
一 様</w>
一 挙</w>
一 心</w>
ヴァ リッジ</w>
ヴァ -ナ</w>
ヴ ォ</w>
ン ピ-ス</w>
ロビ イスト</w>
ロッ テ
ロッ シ</w>
ロウ ロ</w>
ロ ピ
ロ -ナ</w>
レジリ エンス</w>
レイ ヤ</w>
レ ボ
レ ド</w>
レ ア</w>
ル アップ</w>
リキ ニア</w>
リア ント</w>
リア クション</w>
リ ブリ</w>
リ スペ
リ -ン・</w>
ラッ キ-</w>
ライ ブラリ</w>
ラ ティ
ラ タン</w>
ラ ソ</w>
ラ スト
ラ スコ</w>
ラ シ
ラ ザ
ヨハ ネス</w>
ヨハ ネ
ユ ナイ
ユナイ テッド</w>
ヤ ル
ヤ ニス</w>
ヤ ク</w>
モノ クロ</w>
メン テ
メンテ ナンス</w>
メカ ニカル</w>
メ テ
ム メンバ</w>
ム イン</w>
ム -ド</w>
ミッ チェル</w>
ミ トリ</w>
ミ ッキ</w>
ミ シン</w>
ミ イラ</w>
ミ -ル</w>
マン ソン</w>
マン ズ</w>
マル ドゥ
マルドゥ ク</w>
マル コム</w>
マル ケス</w>
マル ク</w>
マラ ウィ</w>
マッ サ-ジ</w>
マイ オス</w>
マ フィン</w>
マ ドリ</w>
マ ディ</w>
マ キャ
ポン テ</w>
ポップ コ-ン</w>
ポ ロ</w>
ボル ボ</w>
ボディラン ゲ-ジ</w>
ボディラン ゲ-</w>
ボ リス</w>
ホ ライ
ホ ノル
ホノル ル</w>
ホ ウ
ペンタ ゴン</w>
ペル シア</w>
ペテル ブルク</w>
ペイ リン</w>
ベ ヴァリッジ</w>
ベ タ</w>
ベ イル</w>
プレ ッツェル</w>
プ ランス</w>
プ トレ
プトレ マイオス</w>
プ コッド</w>
ブロ イド</w>
ブレン ダン</w>
ブレ ント</w>
ブル キ
ブリ トニ</w>
ブラヒ ム</w>
ブ ・</w>
ブ ザ</w>
ブ イ</w>
フォ ス
フォス ベリ</w>
フィル タリング</w>
フィリ ップス</w>
フィ ッシャ</w>
ファヴェ -ラ</w>
ファ ティ
ファ スト
ファ ク
フ ティ</w>
フ ッ
ピリ ピリ</w>
ピア ツ</w>
ピ チュ</w>
ビジネ スリ-</w>
ビ レッジ</w>
ビ ッツ</w>
ビ スケット</w>
ヒッ チ
ヒ 素</w>
ヒ ヒ</w>
ヒ トラ</w>
ヒ ット
ヒ ダ</w>
ヒ ゲ</w>
ヒ エ
パラ パラ</w>
パイ オ
パイオ ニア</w>
パ メラ</w>
パ ブロ
パ ニ</w>
パ テント</w>
パ チ</w>
バッ ファロ</w>
バチ カン</w>
バイ ダ</w>
バイ ソン</w>
バ ズ</w>
バ スキ
バスキ ア</w>
バ インド</w>
ハイ ヒ-</w>
ハイ デラ
ハイデラ バ</w>
ハ ハ
ハ ダ
ハ シ</w>
ハ サン</w>
ハ -ブ</w>
ハ -バ</w>
ノ ッ
ノ イド</w>
ネ リ</w>
ネ グロ
ネグロ ポンテ</w>
ニュ -ス</w>
ニア ス</w>
ニ ヤ
ニ モ</w>
ナル シ
ナ ラティブ</w>
ナ ッシュ</w>
ナ タ
ドキュ メント</w>
ド ン
ド -ア</w>
トラン ジット</w>
トラン ク</w>
トウ キビ</w>
トゥラ ママ</w>
トゥ ス</w>
デイ ヴィス</w>
デイ ジ</w>
ディキ ンソン</w>
ディ ミトリ</w>
ディ オ
デ モ
デ パ-ト</w>
デ ッド</w>
テン プレ-ト</w>
テル アビブ</w>
ツ ンドラ</w>
ツ メ</w>
ツ チ</w>
ツ ケ</w>
ツ ガ</w>
ップ カ</w>
ット ネス</w>
ッ ヒ</w>
チェ イ
チ サ</w>
ダン ボ</w>
ダマスカ ス</w>
ダイヤ モンド</w>
ダ ヴィ
ダ リア</w>
ダ ッ
タイ ム
タ リティ</w>
タ ミル</w>
タ ブロイド</w>
タ ツ
タ -ズ</w>
ゾ ル</w>
ソ ケット</w>
ソ クラテス</w>
ゼラ チン</w>
ゼ フ</w>
セントル イス</w>
ズ ナ</w>
スリ ック</w>
スプレ ッド</w>
スピリ ット</w>
スパ イス</w>
ストライ キ</w>
スティ ヌス</w>
ステ ノ</w>
スタン トマン</w>
スコ -</w>
スクリ プト</w>
ス ベリン</w>
ス フィ</w>
ス ウィ</w>
ス イング</w>
ス -ジ</w>
ジョ ル
ジョ セ
ジュ アル</w>
ジ ップカ</w>
ジ グラ</w>
ジ グ
ジ ウム</w>
シンフォ ニ</w>
シン プソン</w>
シン クレア</w>
シル エット</w>
ショ ンズ</w>
シュ レ</w>
シュ ルツ</w>
シャ レ</w>
シャ ベル</w>
シャ ク
シャ イン</w>
シナ ゴ</w>
シェ ン
シェ イラ</w>
シ リンダ</w>
シ スタ</w>
ザ リン
サン ダル</w>
サン ガ
サッ チャ</w>
サクラ メント</w>
サ ミ
サ ボ</w>
サ トウキビ</w>
サ ダム</w>
ゴ ワナス</w>
コネ クト
ケ ット
グロ リア</w>
グル ジア</w>
グリズ モ</w>
クレ タ</w>
クリ トリス</w>
クリ スティン</w>
クラ フト</w>
ク ロッ
ギャ レット</w>
ギガ バイト</w>
キロ ワット</w>
キュ ラソ</w>
キャン ペ</w>
キャン ベル</w>
キャ ッチャ</w>
キ ネ
キ チン
ガ チョウ</w>
ガ エル</w>
ガ イア</w>
カル タ</w>
カミ ソリ</w>
カウン トダウン</w>
カウ チサ</w>
カ ビ
カ チ
カ ス
カ ジュアル</w>
カ ジ
オペ ラント</w>
オ ピ
オ ニオン</w>
オ ッケ</w>
オ オ
エレ ノア</w>
エレ ズ</w>
エスカ レ</w>
エスカ レ-ト</w>
エ ヴァン</w>
エ リカ</w>
エ ッジ</w>
ウッ ディ</w>
ウォ ルド</w>
ウェ ット</w>
ウィ リ</w>
ウィ ッツ</w>
ウィ ッ
ウ ロウロ</w>
ウ ラ</w>
ウ チ</w>
ウ -</w>
イン デックス</w>
イヤ ホン</w>
イ ブラヒム</w>
イ ソ
アレ ッ
アルデ ヒド</w>
アル ビン</w>
アル コ-ル</w>
アラ ル</w>
アナ ン</w>
アト キンス</w>
アタ ック</w>
アタ カマ</w>
アグ ネス</w>
アウト ソ</w>
アウシュ ビッツ</w>
アウグ ストゥス</w>
アウグ スティヌス</w>
アイ ドル</w>
ア ホウ</w>
ア ホ</w>
ア ヌ
ア ディ
ん なり</w>
り ぎり</w>
ら わし</w>
やわ らか</w>
やっ つけ</w>
や かし</w>
もろ もろ</w>
も み
も た
む ら</w>
む ね</w>
まね く</w>
ま ぎれ</w>
ほのめ か</w>
ぺら ぺら</w>
ふ ら</w>
ひと とき</w>
ひ い</w>
ば ん
ば わり</w>
ば た</w>
は な
は ぐ
のぞ き
の べ</w>
な め</w>
ど っぷり</w>
とも な</w>
と こと
とこと ん</w>
で こぼこ</w>
つ づ</w>
っぽ り</w>
ちょ っ
ち そう</w>
だ まし
だ て</w>
たり まえ</w>
ため 息</w>
ため らい</w>
たぶん この</w>
ただ ちに</w>
そび え立</w>
ず る
しば し</w>
しか め
し ら</w>
し まい
し た
し ぐさ</w>
し お</w>
ざ っ</w>
さっ そく</w>
さか のぼり</w>
さえ ずり</w>
さ す</w>
さ しかか</w>
ご まか</w>
こ ろ
こ ら</w>
けっ して</w>
けっ こう</w>
く ゆ
く も</w>
ぎ りぎり</w>
き 目</w>
き た</w>
がら り</w>
が まし</w>
かわい らし</w>
かき 分け</w>
かき 乱</w>
か さ
か が</w>
か お</w>
か い
おお むね</w>
お れ</w>
お たく</w>
う こう</w>
い 骨</w>
い じり</w>
い かけ</w>
あり か</w>
あら われ</w>
あちら こちら</w>
あ まねく</w>
あ っさり</w>
あ たりまえ</w>
y th
v s</w>
un es</w>
ul t
u s</w>
si RNA</w>
s h
re t</w>
re m
r on
p at
ol ing
oling o</w>
oc k</w>
lo l</w>
kc al</w>
ir i</w>
h n
go v</w>
g ram</w>
f or</w>
et he
er se</w>
as s
ar d
ak s</w>
Z E</w>
X Y</w>
X P
XP RI
XPRI ZE</w>
Wor ld</w>
UB ER</w>
U E</w>
The T
T it
T ask
T A</w>
Sp ace
SO LE</w>
S w
S up
S iri</w>
R ob
P M</w>
OL PC</w>
M is
M ak
M TV</w>
L B</w>
ID E
Glob al
Fac e</w>
Ever y
E le
E CM</w>
E B</w>
Du olingo</w>
C ur
C al
B E
AI VA</w>
A w
A d
9 ,000</w>
8 ,000</w>
8 ,
5, 6</w>
3 ,</w>
20 25</w>
2 100</w>
198 1</w>
195 4</w>
195 2</w>
19 44</w>
19 38</w>
19 32</w>
19 25</w>
19 15</w>
18 90</w>
1 300</w>
1 2
1 14</w>
-ヴィ ング</w>
-ト フォリオ</w>
-キ ンス</w>
- ニ-</w>
- ッ</w>
- チュ-</w>
- ゼル</w>
- ジ
鷹 像</w>
魚 油</w>
魔 力</w>
髪 の毛</w>
飛び 乗り</w>
飛 翔</w>
類 推</w>
顔 色</w>
顔 立ち</w>
顔 つき</w>
預 か</w>
音 節</w>
静 ま</w>
露 骨</w>
露 目</w>
雨 期</w>
雑 把</w>
集 水</w>
集 い</w>
隠 ぺ
隠ぺ い</w>
階 下</w>
陰 嚢</w>
除 草</w>
関わり あ</w>
開 館</w>
鋳 型</w>
銅 像</w>
鉄 砲</w>
金 魚</w>
金 網</w>
金 槌</w>
金 庫</w>
里 子</w>
醸 造</w>
酒 屋</w>
遠 回り</w>
過 敏</w>
遍 在</w>
運 行</w>
連 な</w>
速 め</w>
通り かか</w>
這 い</w>
透 析</w>
退 場</w>
追い 立て</w>
迫 力</w>
農 夫</w>
輩 出</w>
軍 部</w>
軍 拡</w>
軍 備</w>
車 庫</w>
蹴 り</w>
踏 み</w>
路 面</w>
跡 形</w>
趣 向</w>
超 過</w>
超 常</w>
走り 抜け</w>
赤 線</w>
議 席</w>
謳 歌</w>
語り 口</w>
語 族</w>
語 句</w>
試 せ</w>
討 議</w>
計 器</w>
言い 張</w>
言 いか
言いか え</w>
触 り</w>
親 達</w>
親 交</w>
見 放</w>
見 世
見世 物</w>
見 なし</w>
覇 権</w>
要 人</w>
裁 縫</w>
被 せ</w>
袋 小路</w>
行き 届</w>
蝶 々</w>
薬 理</w>
蒸 留</w>
茶 番</w>
苦 悶</w>
苗 木</w>
苗 字</w>
花 畑</w>
芝 刈り</w>
自 販</w>
自 叙</w>
自 ずと</w>
腺 癌</w>
腰 痛</w>
脈 打</w>
脇 役</w>
胸 躍</w>
肋 骨</w>
聴 講</w>
羽ば た</w>
羨 まし</w>
美 女</w>
羊 皮</w>
繕 い</w>
繋 ぎ
縦 断</w>
総 量</w>
絶 や</w>
絨 毯</w>
給 油</w>
絡 め</w>
絞 首</w>
絞 り出</w>
絆 創</w>
終 点</w>
終 始</w>
細 管</w>
素 数</w>
素 手</w>
紛 失</w>
紙 お
紙お むつ</w>
納 屋</w>
糾 弾</w>
糸 状</w>
精 細</w>
米 粒</w>
等 身</w>
筆 者</w>
立ち 向かえ</w>
窪 み</w>
突き 刺</w>
突 出</w>
空 室</w>
空 力</w>
神 官</w>
社 説</w>
磁 器</w>
破 たん</w>
砂 場</w>
矢 理</w>
矢 じり</w>
着 ぐるみ</w>
真 髄</w>
真 鍮</w>
直 結</w>
直 入</w>
目 盛り</w>
監 察</w>
盛 り込</w>
盆 地</w>
百 聞</w>
白 目</w>
発 汗</w>
痛 々し</w>
疼 痛</w>
異 種</w>
留 意</w>
産 み
生まれ 持</w>
生き がい</w>
環 礁</w>
球 状</w>
王 者</w>
王 冠</w>
玉 虫</w>
狩 人</w>
狂 信</w>
物 静か</w>
牡 牛</w>
片 っ端</w>
爽 快</w>
然 り</w>
焦 り</w>
焦 げ</w>
無理 矢理</w>
無 礼</w>
無 為</w>
無 性</w>
無 形</w>
点 線</w>
点 火</w>
点 検</w>
災 厄</w>
激 増</w>
潜 め</w>
潔 白</w>
溶 解</w>
準 位</w>
混 じり</w>
深 入り</w>
浮き 輪</w>
浮き 上が</w>
流れ 落ち</w>
洗 い出</w>
泡 立</w>
法 海</w>
油 断</w>
没 入</w>
沈 没</w>
決 着</w>
決 壊</w>
氷 塊</w>
氷 冠</w>
水 星</w>
気 持</w>
母 胎</w>
殺 し合</w>
段 ボ-ル</w>
死 海</w>
死 期</w>
歳 入</w>
歯 ごたえ</w>
正 午</w>
模 造</w>
検 問</w>
植え つけ</w>
案 の
案の 定</w>
根 性</w>
東 ヨ</w>
村 長</w>
末 っ子</w>
未 開</w>
木 馬</w>
朝 日</w>
有 難</w>
有 性</w>
月 額</w>
月 日</w>
最 長寿</w>
曜 日</w>
暗 唱</w>
晩 ご飯</w>
時 人</w>
時 ―</w>
昼 休み</w>
明 細</w>
早 産</w>
旧 約</w>
日 程</w>
旗 章</w>
新 語</w>
新 兵</w>
敬 遠</w>
散 々</w>
教 本</w>
放 火</w>
支 払え</w>
揮 発</w>
探し 出せ</w>
探 偵</w>
探 せ</w>
振 舞い</w>
振 幅</w>
披 露目</w>
抜 き出</w>
折り 曲げ</w>
抗 原</w>
投 石</w>
技 量</w>
打 者</w>
手 腕</w>
手 探り</w>
手 持ち</w>
手 ごろ</w>
手 こ
戸 口</w>
成り 下が</w>
懲 罰</w>
憂 うつ</w>
慰 霊</w>
慎 まし</w>
愚 痴</w>
惜 し
惜し みな</w>
悲 哀</w>
悔 し</w>
息 切れ</w>
恩 返し</w>
恊 働</w>
性 病</w>
怠 慢</w>
怠 惰</w>
思い 知</w>
思い 悩</w>
応 力</w>
心地 良</w>
徴 候</w>
得 票</w>
得 て</w>
後ろ めた</w>
後 遺</w>
後 天</w>
後 任</w>
後 れ</w>
待ち 合わせ</w>
役 割り</w>
形 づくり</w>
当 分</w>
強 引</w>
強 奪</w>
張り 付</w>
引 越</w>
廃 品</w>
座 り込み</w>
度 肝</w>
幾 多</w>
幾 ら</w>
幻 聴</w>
平 野</w>
平 原</w>
干 し</w>
常 々</w>
帰 郷</w>
帰 納</w>
希 釈</w>
帆 走</w>
巻き 添え</w>
左 寄り</w>
工 面</w>
工 法</w>
工 員</w>
州 都</w>
川 岸</w>
崇 め</w>
履 行</w>
屈 服</w>
屈 曲</w>
尼 僧</w>
小 額</w>
小 腸</w>
小 指</w>
小 売り</w>
小 口</w>
小 包</w>
小 作</w>
導 火</w>
封 建</w>
対 局</w>
寝 転が</w>
寝 かし
寝かし つけ</w>
寄せ 合</w>
寄 稿</w>
家 内</w>
宣 誓</w>
官 庁</w>
安 置</w>
学 級</w>
始 点</w>
奇 想</w>
天 窓</w>
天 王</w>
大き め</w>
大 雑把</w>
大 違い</w>
大 理</w>
大 方</w>
大 帝</w>
大 作</w>
大 人
多 義</w>
多 用</w>
多 層</w>
夕 暮れ</w>
夏 季</w>
変 装</w>
売り 手</w>
売 れ
売 り物</w>
壮 観</w>
増 税</w>
増 減</w>
境 目</w>
塩 化</w>
塗り つぶ</w>
堅 実</w>
在 職</w>
圧 政</w>
土 産</w>
土 木</w>
国 税</w>
図 式</w>
回 遊</w>
四 半</w>
噛み 砕</w>
哀 れみ</w>
咀 嚼</w>
命 綱</w>
呼 気</w>
呼 ばわり</w>
味 わえ</w>
吹き 込み</w>
否 応</w>
名 高</w>
名 門</w>
名 字</w>
同 義</w>
同 心</w>
同 席</w>
同 一
同一 視</w>
台 風</w>
古 着</w>
口 紅</w>
受 益</w>
取り 扱い</w>
原 住</w>
即 ち</w>
占 い
博 識</w>
単 刀</w>
半 月</w>
医 院</w>
包 み
効 能</w>
励 まし</w>
劣 等</w>
創り だ</w>
創 れ</w>
剥 製</w>
前 触れ</w>
刻 み</w>
制 作者</w>
利 息</w>
初 恋</w>
刑 法</w>
刑 期</w>
分かち 合え</w>
分 数</w>
出 逢</w>
出 航</w>
再 来</w>
内 閣</w>
内 膜</w>
共 用</w>
公 認</w>
公 案</w>
入れ 込</w>
免 除</w>
光 量</w>
優 遇</w>
優 良</w>
傑 出</w>
偏 向</w>
修 辞</w>
便 宜</w>
作 法</w>
作 文</w>
余 白</w>
体 毛</w>
低 速</w>
付き 添い</w>
付き 添</w>
他 愛</w>
仕 分け</w>
仕 上が</w>
人 差し</w>
亜 種</w>
了 承</w>
乱 射</w>
乗 車</w>
中 道</w>
並 び
世 銀</w>
不可 触</w>
不 老</w>
不 純</w>
不 向き</w>
不 備</w>
下 方</w>
下 品</w>
上 限</w>
三 脚</w>
一 文</w>
一 句</w>
一 千</w>
ヵ 国</w>
ヴィ ラ</w>
ヴィ ッチ</w>
ヴィ クトリア</w>
ヴァ ンダ</w>
ヴ ュ</w>
ワ -ズ</w>
ロッテ ルダム</w>
ロック スタ</w>
ロス アン
ロイヤ ル</w>
ロ -リ</w>
ロ -ブ</w>
レン ダリング</w>
レボ キセチン</w>
レセ プタ</w>
レシ -ト</w>
レア ア</w>
レ タ</w>
レ スキュ</w>
レ ス
レ クリエ</w>
レ ウス</w>
レ -ル</w>
ルリ ヤ</w>
ル ビィ</w>
ル ソン</w>
ル スマン</w>
ル ストン</w>
リバ ウンド</w>
リス ナ</w>
リガ ニ</w>
リア ム</w>
リ レ</w>
リ バン</w>
リ ナ
リ ップ</w>
リ ックス</w>
リ タ
リ スキ</w>
ラン カ
ランカ スタ</w>
ラティ フ</w>
ライ ム</w>
ライ ナス</w>
ラ スト</w>
ラ ザン</w>
ラ ウル</w>
ヤ -ド</w>
モ スタット</w>
メテ ウス</w>
メ タ</w>
ム ラ
ム ク
ム アルデヒド</w>
ミ ナ</w>
ミ ッド
ミ ゲ-</w>
ミ -ン</w>
マル ハナバチ</w>
マリ ネ</w>
マク スウェル</w>
マイ ト</w>
マイ スタ</w>
マ リン</w>
マ タ</w>
マ ズ</w>
マ ジョ
マ クル</w>
マ ウイ</w>
ポピュ ラ</w>
ボル ツマン</w>
ホル ムアルデヒド</w>
ホ フマン</w>
ホ フ</w>
ホ イル</w>
ペ イド</w>
ベル ゲン</w>
ベ ヤ</w>
ベ ニヤ</w>
ベ ッツ
ベッツ ィ</w>
ベ チカ</w>
ベ キュ</w>
ベ ア
ヘル ベチカ</w>
プロ フィ-</w>
プロ バイダ</w>
プレゼ ンス</w>
プレ コ-</w>
プラ セ
プラセ ボ</w>
プ -ン</w>
ブレイ クスル</w>
ブルキ ナ
ブルキナ ファ
ブル ン
ブル ネル</w>
ブル カ</w>
ブラッド リ</w>
ブエノ ス
ブエノス アイレス</w>
フレイ ザ</w>
フォ ロワ</w>
フォ レスト</w>
フェ リス</w>
フェ ノ-</w>
フェ ッ
フェ ス</w>
フェ -ズ</w>
ファヴェ -</w>
ファティ マ</w>
ファイ ヤ</w>
ファ ッ
ファ クト</w>
フ ワ
ピ ロ</w>
ピ ル</w>
ビ ング
ビ ビアン</w>
ビ バリ</w>
ビ ダ</w>
ビ ジョナ
ビジョナ リ</w>
ビ ク</w>
ビ ク
ヒット ラ</w>
パン デ
パンデ ミック</w>
パワ メント</w>
パラ ボラ</w>
パ ンダ</w>
パ シ
パ キ
バリ ケ-</w>
バラ 色</w>
バカ げ</w>
バイ タル</w>
バ ロア</w>
バ プ
バ ツ</w>
バ スタ</w>
バ ザ</w>
ハン ディ
ハンディ キャップ</w>
ハン カチ</w>
ハッ と</w>
ハチ ドリ</w>
ハ ルト</w>
ハ ラ
ハ ディ
ハ ッチ</w>
ハ ック
ハ ダニ</w>
ノ オト
ノオト シ
ノオトシ ゴ</w>
ノ -ム</w>
ネック レス</w>
ネ パ-ル</w>
ネ ッツ</w>
ネ スト</w>
ネ ガ</w>
ニコ フ</w>
ニア ック</w>
ニ オ
ニ -ル・</w>
ナノ スケ-</w>
ナタ リア</w>
ナイ ロン</w>
ナ リ
ナ ブ</w>
ナ バ
ドロ ドロ</w>
ドル フィン</w>
ドラ ビダ</w>
ド レッ
ド レイク</w>
ド リンク</w>
トレ -ト</w>
トラン ザ
トラ ビス</w>
トラ イ</w>
ト レイ</w>
ト メント</w>
ト ッド</w>
ト ウェイン</w>
デュ マ</w>
デザ -ト</w>
ディズ ニ-</w>
ディ テ-ル</w>
ディ ジ
デ コボコ</w>
テレ プレゼンス</w>
テナ ガ</w>
テク ス</w>
テ ディ</w>
ツ ボ</w>
ッツ ァ</w>
ック マン</w>
チュ -ト</w>
チャ ップ
チェイ ニ</w>
チ キ</w>
ダン スパ</w>
ダイナミ クス</w>
ダイ ソン</w>
ダイ アン</w>
ダイ アル</w>
ダ ッチ
ダ コタ</w>
タン パ</w>
タリ ウム</w>
タミ ア</w>
タツ ノオトシゴ</w>
タイ ド</w>
タ レント</w>
タ リオ</w>
タ ズ
タズ タ</w>
タ -
ソ ン・</w>
ソ ロ
ソ プラノ</w>
ソ ニアン</w>
ソ -ト</w>
セミ ナ</w>
セット アップ</w>
セキュ ア</w>
セイ ヨウ</w>
セ ロ</w>
セ グ
ズ タズタ</w>
スパ ルタ</w>
ステン レス</w>
スティ チュ-ト</w>
スティ -ブ</w>
ステ キ</w>
ステ -キ</w>
スタ ディ</w>
スタ イリ
スタイリ ッシュ</w>
スコ -ド</w>
スク -ル</w>
スカ ウト</w>
スカ -フ</w>
ス ル-</w>
ス ミ</w>
ス プ-ン</w>
ス プ-</w>
ス イカ</w>
ジ ブラ
シン グル</w>
シン クロ
シル ヴィア</w>
シュ レ
シュ ミレ</w>
シャル ロット</w>
シャ バブ</w>
シェ イク</w>
シェ イ</w>
シ ニア</w>
シ ナ</w>
シ テ</w>
シ ダ</w>
ザ リガニ</w>
ザ インタフェ-ス</w>
サン シャイン</w>
サン クト
サル ディ</w>
サル ガ
サプライ ズ</w>
サイ キック</w>
サ ニ-</w>
サ ザ</w>
ゴン ベ</w>
コンビ ニ</w>
コンサル ティング</w>
コン マ</w>
コン ベヤ</w>
コン サル</w>
ゲ ル
ゲ ラ</w>
ゲ -ト・</w>
ケネ マ</w>
ケイ ティ</w>
ケ ベック</w>
グラン ト</w>
クレ オ
ク ラン</w>
ク スリ</w>
ク ギ</w>
ギャ ラップ</w>
キャロ ライン</w>
キャプ ション</w>
キャ ン</w>
キャ リバン</w>
キャ スタ</w>
キ レイ</w>
キ レ</w>
キ ツ</w>
キ ウ
ガ タ
ガ ウン</w>
カモ フラ</w>
カエ サル</w>
カウン ティ</w>
カウ チ</w>
カ ド</w>
カ オ
カ イト</w>
オン タリオ</w>
オキ アミ</w>
オ ラ</w>
オ ド
オ キュ
エントロ ピカ</w>
エン パワメント</w>
エリ ザ</w>
エリ オット</w>
エピ ジェネティクス</w>
エッ センス</w>
エコ ロジ</w>
エク ス
エイ トリ</w>
エ モ</w>
エ ナ
ウッ ズ</w>
ウォ ン</w>
ウォ ッチ</w>
ウェブ サ</w>
ウェ ルズ</w>
ウェ スタン</w>
ウィン ストン</w>
ウィキ リ</w>
ウ ラジ
ウ タ</w>
ウ オ</w>
イン スタント</w>
イン コ</w>
イニシア ティブ</w>
イ ディ
イ ック</w>
アン ドレ</w>
アン タ</w>
アン コ</w>
アルバ ニア</w>
アル テ
アリ エル</w>
アラ シ</w>
アポ フィス</w>
アフ タ</w>
アピ -</w>
アトラン ティック</w>
アッ パ</w>
アスペ ン</w>
アジ ア
アキ レウス</w>
アイ ゼン</w>
ア ブドゥ
ア ビ</w>
ア タ</w>
ア ステ
ア サ
ア グロ</w>
ろく ろ</w>
ろ く</w>
ら れ
ら り</w>
ゆ が</w>
やり 甲斐</w>
や ば</w>
や っ</w>
も どれ</w>
まとめ あげ</w>
ま ばら</w>
ま ち
ま じ
ま くり</w>
ま き散ら</w>
ほどん ど</w>
ほど け</w>
ぶら ぶ
ぶらぶ ら</w>
ふ もと</w>
び つ</w>
ひと まとめ</w>
ひと こと</w>
ひっ ぱ
ひっぱ た</w>
ひ 孫</w>
ひ る</w>
ひ び</w>
ばら ま</w>
はじ まり</w>
はぐ く</w>
は っと</w>
は かな</w>
の 間</w>
に ら
に ぎ
な び</w>
ど ―</w>
とび きり</w>
と ころ
でき ごと</w>
づ り</w>
つか さ
つかさ ど</w>
つ や</w>
つ まず</w>
っ から</w>
ちょ こ
ちっ ちゃ</w>
ち ぎ</w>
たた き
た わ
た ぎ</w>
た き火</w>
そう こう</w>
ぜん そく</w>
ぜ ん</w>
せ かけ</w>
ずる 賢</w>
ず ばり</w>
す ぼ
す っぽり</w>
す っきり</w>
しき い</w>
しか つ</w>
し 取</w>
し ぼ</w>
し たて</w>
し ごく</w>
ご ま
こん ばん
こ りゃ</w>
ぐ んと</w>
ぐ り</w>
くつ がえ</w>
くすぐ った</w>
くぐり 抜け</w>
くい 止め</w>
く そ
き 取</w>
き もの</w>
がら くた</w>
から しか</w>
かき 混ぜ</w>
かか と</w>
かえ って</w>
か れこれ</w>
お ぼ
お なか</w>
え ぇ</w>
うる か</w>
うな り声</w>
う んと</w>
う ん
う ず</w>
う ず
いっ そ</w>
い ちゃ
い だ</w>
い い</w>
あい さつ</w>
あ ぶ
y st
y n
w ater</w>
u n</w>
u e</w>
to Z</w>
s s
re ad
ox x</w>
or s
n ot
n ation
ma il</w>
m on
l ittle
k Cupid</w>
ir l
in ec
in eS
ineS ac
ineSac co</w>
ig n
iT unes</w>
i al</w>
her e</w>
er g
en d
ec t
e le
b y</w>
b er
as s</w>
ap t
a f
a e</w>
Y or
Y es</w>
Y R</w>
X E</w>
WorldW ide</w>
Wik i
WIS E</w>
Vi oxx</w>
VE Online</w>
V o
Univ erse</w>
Th ink
Task Rabbit</w>
TEDPriz e</w>
TED M
T ec
T Q</w>
S n
S ec
S UV</w>
S T
S H
RI AA</w>
R M</w>
R K
R C</w>
Q u
Pro t
P XE</w>
O o
O kCupid</w>
O N
New Yor
NI M</w>
N R
M on
M ap
M E
L iv
Just ineSacco</w>
Jo e</w>
Inter nation
IDE O</w>
I f
Human ae</w>
Heal th
H er
FI B</w>
F M</w>
Earth Witness</w>
E VEOnline</w>
D es
D V</w>
D SM</w>
Com p
Cl ou
CO AC
COAC H</w>
C our
C it
C ar</w>
C K</w>
BE RT</w>
B i
B FIB</w>
A toZ</w>
9 000</w>
7 500</w>
6 9</w>
3 21</w>
3 20</w>
20 17</w>
20 ,000</w>
2, 500</w>
19 39</w>
19 19</w>
18 80</w>
18 00</w>
10 3</w>
10 1</w>
1 12</w>
-リ シャス</w>
-ニ ョ</w>
-ニ バル</w>
-ト ケ-</w>
-ケ ンス</w>
- ヴ</w>
- ムズ</w>
- ヌ</w>
- ディ
- テ</w>
- ゲン</w>
- ケ-</w>
' s</w>
鼻 水</w>
黙 示</w>
高 給</w>
高 原</w>
駆け 引き</w>
飼い 犬</w>
食い 違</w>
飛び 去</w>
風 速</w>
風 洞</w>
頭 頂
頭頂 部</w>
頭 足</w>
頭 打ち</w>
頑 張り</w>
音 素</w>
面 影</w>
青 線</w>
霊 的</w>
震え 上が</w>
震 災</w>
震 撼</w>
雷 鳴</w>
雪 玉</w>
離れ 離れ</w>
雑 然</w>
雇 え</w>
雇 い</w>
雄 大</w>
階 乗</w>
隅 っこ</w>
陰 性</w>
防 波</w>
防 弾</w>
関 税</w>
開 心</w>
閉 路</w>
閉 経</w>
鉱 夫</w>
鉢 植え</w>
鉄 鋼</w>
金 髪</w>
金 塊</w>
野 放し</w>
重 宝</w>
釈 迦</w>
郵 送</w>
邸 宅</w>
遺 言</w>
遷 移</w>
適 性</w>
遡 れ</w>
道 士</w>
道 ばた</w>
遊 園</w>
進 み出</w>
連 ね</w>
速 ま</w>
通 じ
逆 行</w>
送 受信</w>
送 り返</w>
退 行</w>
追 い</w>
迷 宮</w>
返 り
近 視</w>
軽 やか</w>
転 職</w>
転 向</w>
車 載</w>
身 ごも</w>
踏 ん
跳 び
足 音</w>
起 用</w>
起 爆</w>
起 床</w>
起 き
赴 任</w>
賢 人</w>
賞 品</w>
賛 辞</w>
賛 美</w>
賑 やか</w>
貼 り
貯 ま</w>
貧 血</w>
豪 雨</w>
谷 間</w>
譲 歩</w>
識 者</w>
諮 問</w>
調 製</w>
読み 解</w>
誤 魔
誤 謬</w>
誤 認</w>
誘 致</w>
証 し</w>
訴 追</w>
計 量</w>
言い 表せ</w>
言い なり</w>
言い つけ</w>
言 わ</w>
触 角</w>
覚 書</w>
覗 き
見 送</w>
見 苦し</w>
見 舞い</w>
見 向き</w>
要 員</w>
製 鉄</w>
裏 返し</w>
裏 手</w>
表 向き</w>
街 娼</w>
術 師</w>
行 間</w>
血 まみれ</w>
虹 色</w>
虫 眼</w>
薄 ま</w>
落っ こち</w>
落ち 葉</w>
萌 芽</w>
荒れ 狂</w>
草 木</w>
草 むら</w>
英 訳</w>
船 酔い</w>
船 外</w>
船 上</w>
興 隆</w>
臨 機</w>
脳 梁</w>
脱 走</w>
脱 線</w>
脈 拍</w>
胚 性</w>
背 面</w>
胃 酸</w>
聞き 取</w>
耳 障り</w>
考え 込</w>
考え れ</w>
羨 望</w>
群 生</w>
羞 恥</w>
繁 華</w>
縮 み</w>
縫 製</w>
縫 合</w>
縦 穴</w>
編 隊</w>
総 体</w>
緊 縮</w>
絵 葉書</w>
結び 目</w>
組み 合せ</w>
組 換え</w>
終わり 頃</w>
素 描</w>
紛 れ込</w>
紙 袋</w>
紆 余</w>
精 緻</w>
粉 末</w>
箱 舟</w>
箇 条</w>
筆 跡</w>
立て 続け</w>
立ち 直り</w>
立ち 入</w>
立ち 上</w>
立 脚</w>
突っ 込み</w>
突き 当た</w>
突き 刺さ</w>
空 母</w>
税 収</w>
移 せ</w>
秘 策</w>
私 欲</w>
秀 で</w>
磁 力</w>
確 たる</w>
硝 酸</w>
短 所</w>
眼 前</w>
眩 し</w>
真 冬</w>
真 下</w>
目 まぐるし</w>
皮 切り</w>
白 亜</w>
登 れ</w>
登 り
発 病</w>
発 注</w>
発 情</w>
発 動</w>
痛 覚</w>
痛 烈</w>
画 鋲</w>
申し 込み</w>
申し 込</w>
甲 高</w>
甲 冑</w>
生まれ 変わり</w>
生まれ も</w>
生き 甲斐</w>
甚 だし</w>
環 状</w>
理 知</w>
現 世</w>
献 体</w>
猛 暑</w>
狭 間</w>
独 善</w>
特 長</w>
特 注</w>
物 音</w>
物 づくり</w>
牧 草</w>
片 腕</w>
父 方</w>
爆 笑</w>
熱 波</w>
照ら し出</w>
焼き 払</w>
焼き 付</w>
無 難</w>
焚 き火</w>
点 描</w>
炭 疽</w>
濃 密</w>
激 痛</w>
激 励</w>
澄 み
演 繹</w>
漆 黒</w>
漁 村</w>
漁 場</w>
滞 留</w>
滑り 落ち</w>
減 光</w>
混 獲</w>
淡 々</w>
消 沈</w>
涅 槃</w>
浸 し</w>
浴 び
流行 り</w>
流れ こ</w>
流 線</w>
流 儀</w>
活 き
活き 活き</w>
活 かせ</w>
洗い 流</w>
洗 車</w>
泳ぎ 回</w>
法 令</w>
治 ま</w>
油 滴</w>
河 口</w>
沖 縄</w>
決 め込</w>
氷 上</w>
水 生</w>
気 絶</w>
気 晴らし</w>
気 付け</w>
母 音</w>
殺 し
残 高</w>
残 し</w>
死 角</w>
歯 石</w>
歩 調</w>
正 味</w>
正 八</w>
欠 片</w>
樹 皮</w>
樹 上</w>
横 たえ</w>
極 東</w>
極 力</w>
植え 込</w>
桟 橋</w>
根 端</w>
根 こそ
核 酸</w>
校 区</w>
果た せ</w>
果 糖</w>
村 落</w>
机 上</w>
本 誌</w>
本 意</w>
本 心</w>
末 永</w>
服 薬</w>
有り 難う</w>
有 毛</w>
最 寄り</w>
書 面</w>
曲 折</w>
曇 り</w>
暫 定</w>
暫 く</w>
暗 算</w>
昼 寝</w>
映 え</w>
星 雲</w>
明 かし</w>
旧 来</w>
日 照</w>
方 位</w>
新 郎</w>
新 設</w>
新 作</w>
断 念</w>
敷 物</w>
散 り
教え 合</w>
救い 出し</w>
改 訂</w>
改 名</w>
撃ち 込</w>
推 量</w>
掘 っ
掘っ 立て</w>
授 粉</w>
捉え 直</w>
振り 払</w>
括 り付け</w>
拝 聴</w>
押し や</w>
押 収</w>
抹 殺</w>
抱き 上げ</w>
投げ 上げ</w>
投 機</w>
扶 助</w>
打ち 寄せ</w>
打ち つけ</w>
打 席</w>
手こ ず</w>
手 振り</w>
手 技</w>
手 強</w>
所 々</w>
戦 艦</w>
慈 しみ</w>
愛 護</w>
愛 おし</w>
惨 状</w>
情 け</w>
悲 壮</w>
悪 行</w>
悪 役</w>
恩 赦</w>
恩 師</w>
恐 縮</w>
思い 入れ</w>
思い 付き</w>
怒 り狂</w>
応 変</w>
忘 我</w>
忌 まわし</w>
従 軍</w>
従 属</w>
往 来</w>
彩 り</w>
当 社</w>
強 硬</w>
強 弱</w>
張り 巡ら</w>
引き 連れ</w>
引き 継ぎ</w>
引き 合い</w>
引 継ぎ</w>
引 っかけ</w>
底 引き</w>
平 常</w>
常 連</w>
帳 消し</w>
帯 水層</w>
市 政</w>
巣 作り</w>
州 立</w>
岸 辺</w>
山 腹</w>
屍 姦</w>
屋根 裏</w>
屈 指</w>
居 留</w>
小 部屋</w>
小 柄</w>
小 平</w>
導き だ</w>
導 電</w>
射 撃</w>
対 岸</w>
密 封</w>
寄せ 付け</w>
寄 宿</w>
宿 命</w>
家 政</w>
宙 返り</w>
安 物</w>
安 息</w>
守 護</w>
学 識</w>
学 徒</w>
孔 子</w>
婉 曲</w>
奔 走</w>
奇 形</w>
失 脚</w>
失 禁</w>
大 志</w>
大 当たり</w>
大 口</w>
大 元</w>
夜 更
夜 寝</w>
夜 勤</w>
多 角</w>
多 忙</w>
多 孔</w>
外 面</w>
変わり ゆ</w>
変 色</w>
変 移</w>
変 哲</w>
売り 払</w>
売 人</w>
壊 し</w>
増 長</w>
増 進</w>
塹 壕</w>
場 合
報 い</w>
堤 防</w>
堅 苦し</w>
堅 牢</w>
地 衣</w>
地 主</w>
在 来</w>
土 着</w>
図 示</w>
図 々し</w>
団 員</w>
四 季</w>
喫 緊</w>
問 合せ</w>
商 標</w>
命 取り</w>
命 中</w>
味 気</w>
吹き 付け</w>
吹 っ
吸い 取</w>
向き 直</w>
名 義</w>
同 伴</w>
各 州</w>
右 肩</w>
史 実</w>
口 づけ</w>
受け 継ぎ</w>
受 理</w>
受 取</w>
取り 違え</w>
取り 調べ</w>
取り 払い</w>
取り 憑</w>
取り 分</w>
取り 出し</w>
取り だ</w>
取 捨</w>
収 支</w>
収 拾</w>
占い 師</w>
半 端</w>
化 身</w>
勧 告</w>
勢 い
勘 定</w>
助 力</w>
助 け
副 業</w>
前 述</w>
前 足</w>
刻 印</w>
制 覇</w>
初 旬</w>
切れ 端</w>
切り 分け</w>
出 頭</w>
出 し合</w>
凹 凸</w>
凝 視</w>
冷 笑</w>
冷 水</w>
冷 気</w>
写 し出</w>
冒 涜</w>
内 訳</w>
公 判</w>
八 方</w>
全 額</w>
全 盛</w>
全 文</w>
入れ 替わり</w>
光 沢</w>
先 行き</w>
先 ず</w>
元 祖</w>
儒 教</w>
僧 院</w>
催 し</w>
備 え付け</w>
停 泊</w>
停 学</w>
借 用</w>
供 え</w>
例 示</w>
例 年</w>
使い 分け</w>
併 せ</w>
作 風</w>
余 談</w>
低 音</w>
伝 搬</w>
休 眠</w>
仰 天</w>
代 役</w>
他 所</w>
仕 上がり</w>
介 助</w>
人 誰</w>
人 柄</w>
人 参</w>
二 元</w>
乾 杯</w>
乾 季</w>
乾 か</w>
乳 ガン</w>
乗 馬</w>
久 し</w>
丸 ま</w>
中 高
中 期</w>
中 南米</w>
両 性</w>
両 党</w>
丘 陵</w>
不 調</w>
不 治</w>
上 腕</w>
万 全</w>
一 夫</w>
ヵ 年</w>
ヴォ ネガ
ヴォネガ ット</w>
ヴェ ン</w>
ヴィ ット</w>
ヴァ ル</w>
ン ラボ</w>
ン な</w>
ワ エル</w>
ロボットア -ム</w>
ロック ウェル</w>
ロ- リ-</w>
ロ ゴロ</w>
ロ ア
レン ジャ</w>
レジ デ
レ ズ</w>
レ ガシ</w>
ル ファ</w>
ル ハン</w>
ル デン
ル ストリ</w>
リック ライダ</w>
リオ シティ</w>
リア リズム</w>
リア リ</w>
リ ヒ
リ ゾ
リ ソ</w>
リ ズ
リズ ミカル</w>
リ ガン</w>
リ -ト</w>
ランド ルフ</w>
ラン タン</w>
ララララララララ ララララララララ
ラジ ウム</w>
ラザ ロ</w>
ラ ット
ラ ック</w>
ラ グ
ラ ウン
ラ ウス</w>
ヨハネ ス
ユ ング</w>
ユ リウス</w>
モン タ
モ ニア</w>
モ デル
モ イ</w>
メラ ニ</w>
メソ ポ
メソポ タミア</w>
メ イラ</w>
メ -ク</w>
ムカ つ</w>
ム リ
ム マシ</w>
ム センタ</w>
ム シック</w>
ム -サ</w>
ミネ ア
ミネア ポリス</w>
ミニ バン</w>
ミ ュ</w>
ミ サ</w>
ミ カ
ミカ エラ</w>
ミ エリン</w>
マン ジュ</w>
マル サス</w>
マル コ</w>
マト ライト</w>
マッ シュ
マジョ リティ</w>
マイ ル
マイ チ</w>
マイ シン</w>
マ リアン</w>
マ ノイド</w>
マ ット
マ ッカ</w>
マ チュ
マチュ ピチュ</w>
マ ダン</w>
マ ス
マ グ</w>
マ クロ
マ ウ</w>
マ インダ</w>
ポリ ネシア</w>
ポップ スタ</w>
ポ リン</w>
ポ ニ-</w>
ボン ベイ</w>
ボン ナノチュ-</w>
ボル ネオ</w>
ボク サ</w>
ボ ゴ
ボ ア</w>
ボ -ン</w>
ホライ ズン</w>
ペラ ペラ</w>
ペ テン</w>
ベン サム</w>
ベル ヌ</w>
ヘイ ト
ヘ ッ
プロスペ ラ</w>
プラ ク
プラク ティス</w>
プ ル
プ トン</w>
プ ッシュ</w>
プ イ</w>
ブロッ カ</w>
ブロ -チ</w>
ブレ タ</w>
ブルキナファ ソ</w>
ブリ リアント</w>
ブラン ト</w>
ブラ ン</w>
ブ リアナ</w>
ブ リア</w>
ブ ライト</w>
ブ ジョ
フレ キシ
フル シ
フルシ チョフ</w>
フラン チャ
フランチャ イズ</w>
フライ ヤ</w>
フラ ストレ</w>
フッ ティル</w>
フォ ン
フォ -ト</w>
フェ ン
フェ イク</w>
フェ イク
フェイク ニュ-</w>
フィラ メント</w>
ファ ソン</w>
ファ シズム</w>
ファ シスト</w>
ファ クタ</w>
フ ワ</w>
フ ライド</w>
フ ュ-</w>
フ ゴ
フゴ ウリ</w>
フ ウッ
フ アナ</w>
ピ タ</w>
ビ ルト</w>
ビ ッチ</w>
ビ エン
ヒン バ</w>
ヒ ル
ヒ ストリ</w>
ヒ ジャブ</w>
パン タ
パロ アルト</w>
パラダイ ス</w>
パラ シュ</w>
パラ グライダ</w>
パブロ フ</w>
パチ パチ</w>
パス フレ-ズ</w>
パイ ラ</w>
パイ ナッ
パイナッ プル</w>
パ リス</w>
パ リ
バン キング</w>
バレ エ
バラ エティ</w>
バニ ラ</w>
バナナナ ナナ
バイオ ガス</w>
バイ モ</w>
バイ ジャン</w>
バ トゥ</w>
バ -ニ</w>
ハン ブラ</w>
ハン スト</w>
ハ ナ</w>
ハ ット</w>
ハ ズ
ハ シカ</w>
ハ ザ
ハ イス
ノン ストップ</w>
ノコ ギリ</w>
ノ ック
ノ スタ
ノスタ ル
ネオ ナチ</w>
ネイ ザン</w>
ネ マン</w>
ネ タ
ネ オン</w>
ニン ジン</w>
ニック ネ-</w>
ニセ モノ</w>
ニ ング
ニ ル
ニ ッケル</w>
ナノ メ-</w>
ナッツ バタ</w>
ナショ ナリズム</w>
ナ メント</w>
ドリ ヒ</w>
ドラ ッカ</w>
ドゥ ルガ</w>
ドゥ ス</w>
ド メ-</w>
トン トン</w>
トレ ジャ</w>
トル ネック</w>
トリプ タミン</w>
トランザ クション</w>
トラン ポリン</w>
トカ ゲ</w>
ト ワ</w>
ト ロッコ</w>
ト ア
デジャ ヴュ</w>
デイ ヴ</w>
ディジ タル</w>
ディ フェンス</w>
ディ スタン</w>
デ マンド</w>
デ ブ</w>
デ ビット</w>
デ ビ</w>
テン ペスト</w>
テル ミン</w>
ティ ブ
ティ フアナ</w>
ティ ディベア</w>
テ プイ</w>
テ イ
ツイ スト</w>
ッ シング</w>
チョ ビ</w>
チャイルド シ</w>
チャイルド シ-</w>
チャ ゴ
チャゴ チャ</w>
チャ -ト</w>
ダヴィ ニア</w>
ダル フ-</w>
ダイ レ
ダイ マンジュ</w>
ダイ ブ</w>
ダイ オ</w>
ダイ オ
ダイオ ウ</w>
タ ル
タ ビジョン</w>
タ ネ</w>
タ -ル</w>
ソフ ィ</w>
ソナライ ゼ</w>
ソナライ ズ</w>
ゼル バイジャン</w>
ゼ -</w>
セル ジオ</w>
セミ トレ</w>
セグ メント</w>
セ ラム</w>
セ ブン</w>
セ -タ</w>
ズ リ</w>
スロ ベニア</w>
スプリン グス</w>
スパ ロフ</w>
ストロ マトライト</w>
ストラ ロピ
スト ラップ</w>
ステファ ニ</w>
スタ チン</w>
スクリ ット</w>
スキャ ロライナ</w>
ス ル
ス ミレ</w>
ジョセ フィ
ジョ リ</w>
ジョ ビ</w>
ジュ ラ</w>
ジュ ピタ</w>
ジャズ ミン</w>
ジャイ アント</w>
ジシャ ン
ジェン デ</w>
ジェネ ティック</w>
ジェ レミ</w>
ジェ ファソン</w>
ジ ド</w>
ジ ッパ</w>
ジ ストニア</w>
ジ ジ
ジ キ</w>
シンガ ポ</w>
シュタ -</w>
シュ リン</w>
シュ リ</w>
シュ ビル</w>
シャ ン</w>
シャ ロン</w>
シャ バ</w>
シフ ティング</w>
シフ タブル</w>
シチ リア</w>
シ ボレ</w>
シ ブル</w>
シ ネ
シ シ</w>
サンタ クロ</w>
サンクト ペテルブルク</w>
サンガ ミトラ</w>
サン スクリット</w>
サル サ</w>
サイ クリスト</w>
サ ポ-</w>
サ フ
サ ビ</w>
サ ッ</w>
ゴル ファ</w>
ゴ ロゴロ</w>
ゴ チャゴチャ</w>
コンピ ュ</w>
コン パイラ</w>
コン ドル</w>
コルチ ゾ</w>
コネ ク
ココ ナッツ</w>
コウ ノ</w>
コ ネ</w>
コ ッ
コ コア</w>
コ ウ</w>
ケン ダル</w>
ケン サ</w>
グル マン</w>
グル マップ</w>
グル -プ
グラ スゴ</w>
クロス ワ-ド</w>
クル ディスタン</w>
クル クル</w>
クライ バ</w>
クラ ウス</w>
ク ネット</w>
ク ダ</w>
ク ショ</w>
ク シティ</w>
キュ リオシティ</w>
キチン と</w>
キ ミックス</w>
キ ハダ
キ スト</w>
キ キ</w>
ガラ ガラ</w>
ガタ ガタ</w>
ガ ニ</w>
ガ ウス</w>
ガ -ド</w>
カル フォルニア</w>
カル カッタ</w>
カリ フラワ</w>
カラ ッ
カフ カ</w>
カオ ナシ</w>
カ プラン</w>
カ ハ-</w>
カ スパロフ</w>
カ シュ</w>
オロ カナ</w>
オリン ズ</w>
オビ オ
オビオ バト</w>
オ ルド
オ マ</w>
オ シャレ</w>
オ コナ</w>
オ -</w>
エヴァ ンズ</w>
エンパイ ア
エンパイア ステ</w>
エンケラ ドゥス</w>
エン ロン</w>
エン ドルフィン</w>
エド ワ-ド</w>
エド ガ</w>
エク マン</w>
エイ ド
エア ロ
エ ポ
エ ッグ</w>
エ スプレ
エ コロ
エ アリエル</w>
ウラ ニウム</w>
ウミ ウシ</w>
ウォル マ-</w>
ウォ ルト</w>
ウォ -ク</w>
ウェ スト
ウェ アラ
ウェアラ ブル</w>
ウィッ テン</w>
ウィ ンド
ウィ ック</w>
ウ ズ
ウ ケ</w>
イン チキ</w>
イン ダ
イン クル</w>
イタ チ</w>
イタ ズラ</w>
イスタン ブ-</w>
イ マイチ</w>
イ ノ</w>
イ ト
イ ジ
イ シ
アンドロ ゲン</w>
アン リ</w>
アン マン</w>
アン ド
アン ソク</w>
アン サリ</w>
アレ フ</w>
アルゴ ア</w>
アル ハンブラ</w>
アリ バイ</w>
アリ -ナ</w>
アマ ロ</w>
アブ ダビ</w>
アナ ト
アド リブ</w>
アド ベンチ</w>
アダ ムズ</w>
アジア ゾウ</w>
アク アポ
アウト プット</w>
アウト ドア</w>
アウグ スタ</w>
アウ ストラロピ
ア トリウム</w>
ア ゼルバイジャン</w>
ア ズ
ア ジェンデ</w>
ア シ</w>
わ る</w>
わ が
わが まま</w>
り ゅう</w>
り あ</w>
ゆ で
ゆで 卵</w>
ゆ くゆ
ゆくゆ く</w>
やり 残</w>
やり とげ</w>
や み
もろ こし</w>
もの さし</w>
も も</w>
め ど</w>
め つけ</w>
み ごと</w>
まる っきり</w>
まぶ た</w>
ま やかし</w>
ま ま
ま がい
まがい 物</w>
へ その
へその 緒</w>
へ え</w>
ぶつ かり</w>
ぶ し</w>
ふれ あい</w>
ふる まい</w>
ふ れ出</w>
び やか</w>
ひざ まず</w>
ひ ね
ひ つ
ひつ じ</w>
ひ ずみ</w>
ばら まき</w>
ば め</w>
ば く</w>
はじ き出</w>
は ったり</w>
は た</w>
は け
はけ 口</w>
は か
のみ ち</w>
の ろ</w>
の ば</w>
の う</w>
ね ずみ</w>
に こ
なだ れ込</w>
なが らえ</w>
ど のみち</w>
とり こ</w>
とり あげ</w>
とう もろこし</w>
て －</w>
つ れ
つ づり</w>
つ くり</w>
つ い
っ たい</w>
っ すり</w>
ち 合</w>
だ く</w>
たど り</w>
たた か</w>
た ら
そ ぐ</w>
ず まず</w>
すっ ご</w>
す んなり</w>
す すでに</w>
す し</w>
じゃ ん</w>
しる べ</w>
しゃ ぶり</w>
し り</w>
し ゃ</w>
し ぶ</w>
し だい</w>
し きり</w>
ざわ めき</w>
さ ん
ごま かし</w>
こん ど</w>
こじ 開け</w>
こ な
こ ども</w>
こ ぞ</w>
け 込</w>
け りゃ</w>
ぐ っすり</w>
く やみ</w>
く ま</w>
く そ</w>
き 止め</w>
き め
き な</w>
き っちり</w>
が わし</w>
が れ
から くり</w>
かぶ せ</w>
かす め</w>
かく れ
かか せ</w>
か 弱</w>
か ただ</w>
おの の</w>
おっ ぱい</w>
うろ たえ</w>
う ―</w>
いざ な</w>
いか がわし</w>
い く
あわ て</w>
あ ふれ出</w>
あ しら</w>
あ ざ</w>
あ ざ
y m
u ff
t s</w>
t r
s hop</w>
s he
ra g
r ic
p ro
our n
ou t
os yn
os t</w>
ol d
of the
m in</w>
m c</w>
little B
littleB its</w>
k e</w>
it e</w>
is t</w>
is m
i x
i um</w>
i r</w>
i ld
i e
ha ha
h an
g oo
en c
e y</w>
e el
d es
b ox</w>
b o
b l
at e
ap min</w>
an y</w>
ac t
a a
Wit h
Wi i</w>
Wi Fi</w>
WW F</w>
W h</w>
V ot
U p
U AE</w>
TED x
TED wish</w>
TED Tal
SO LA</w>
S am
R L</w>
Phot o</w>
P ost</w>
P ar
P T</w>
P SA</w>
P J</w>
P AC</w>
P A
Op en
O ver
O r
NR K</w>
NA N
NAN D</w>
N et</w>
N BC</w>
Map s</w>
M I
LGB TQ</w>
K IP
KIP P</w>
J ourn
Image Net</w>
I X</w>
GN H</w>
GM T</w>
G iv
G irl
G apmin</w>
G CH
GCH Q</w>
FE MA</w>
F ound
Eco s
E PA</w>
E I
DM CA</w>
D ig
D ay
Cour ser
CO X</w>
C ap
BR CK</w>
B re
B O</w>
B B</w>
A K</w>
9 96</w>
50 ,000</w>
5 500</w>
4, 500</w>
4 42</w>
20 40</w>
20 27</w>
2 人組</w>
2 25</w>
190 8</w>
19 43</w>
19 14</w>
19 10</w>
18 5</w>
18 58</w>
15 ,000</w>
1 47</w>
1 35</w>
00 00
-ヴェ イ</w>
-プン デ-</w>
-フ ボ-ド</w>
-ト センタ</w>
-ティ ション</w>
- ロン</w>
- ミ</w>
- パミン</w>
- ディ</w>
- コ</w>
- ガン</w>
, 300</w>
鼻 先</w>
黒 海</w>
麻 疹</w>
鳥 肌</w>
高 熱</w>
高 山</w>
高 卒</w>
高 値</w>
騒 ぎ
騒ぎ 立て</w>
駐 留</w>
香 辛</w>
飽 き
飼い 猫</w>
飲み 干</w>
飲 食</w>
飯 事</w>
飢 え
飢え 死に</w>
食 虫</w>
食 後</w>
飛び 抜け</w>
飛 ばせ</w>
風 変り</w>
風 呂
風呂 場</w>
類 義</w>
頭 頂</w>
頭 数</w>
韻 律</w>
靱 性</w>
面 談</w>
面 々</w>
非 難し</w>
静 粛</w>
露 店</w>
零 度</w>
雪 解け</w>
雨 量</w>
難 点</w>
難 局</w>
難 な</w>
離れ ば
離れば なれ</w>
離 陸
隠し 事</w>
隔 膜</w>
隊 長</w>
院 内</w>
防 腐</w>
開 会</w>
閃 光</w>
長 め</w>
長 々</w>
鑑 み</w>
銃 殺</w>
鉱 脈</w>
鉄 鉱</w>
釣り 人</w>
金 鉱</w>
金 利</w>
量 衡</w>
重 金属</w>
里 親</w>
醍 醐</w>
酸 味</w>
酷 使</w>
酵 母</w>
配 合</w>
酋 長</w>
遺 骨</w>
遺 志</w>
選り 分け</w>
適 量</w>
適 者</w>
適 任</w>
遠 の</w>
遠 し</w>
過 誤</w>
過 熱</w>
過 信</w>
遊 泳</w>
連 載</w>
造 影</w>
通り す
通りす がり</w>
通 い</w>
透 き
透き 通</w>
透 か</w>
逆 手</w>
逃げ 込</w>
送り こ</w>
送 り合</w>
近 縁</w>
辛 子</w>
辛 口</w>
輸 血</w>
転 写</w>
転 げ</w>
軍 服</w>
軍 医</w>
踏み 切</w>
踊 れ</w>
起 立</w>
走 査</w>
賃 貸</w>
貸 せ</w>
買 物</w>
買 春</w>
貴 様</w>
責 め
講 習</w>
謙 遜</w>
論 説</w>
論 拠</w>
請 け
調 印</w>
読み 漁</w>
説 き
説き 伏せ</w>
語り 部</w>
詰め 物</w>
試 金</w>
許 せ</w>
言い 伝え</w>
言い 争</w>
覗 き</w>
視 差</w>
見い 出せ</w>
見 晴らし</w>
覆 面</w>
製 鋼</w>
裏 腹</w>
表 象</w>
街 並み</w>
行く 手</w>
行き 会</w>
行 先</w>
蝶 番</w>
虚 し</w>
薄 切り</w>
蓄 音</w>
荒 削り</w>
草 分け</w>
茶 飯事</w>
茶 葉</w>
苦 心</w>
若 造</w>
花 屋</w>
色 鮮やか</w>
艦 隊</w>
船 首</w>
船 旅</w>
自 負</w>
自 惚れ</w>
自 室</w>
自 助</w>
膳 立て</w>
腫 れ
脳 内部</w>
脚 部</w>
脚 色</w>
脚 注</w>
脈 動</w>
脇 道</w>
胸 郭</w>
背 びれ</w>
肉 屋</w>
職 探し</w>
聞き 取り</w>
老 若</w>
老 朽</w>
老 女</w>
美 大</w>
羅 列</w>
縮 図</w>
締 切</w>
総 意</w>
綿 花畑</w>
続 行</w>
絵 描き</w>
給 仕</w>
絞 め</w>
結 べ</w>
組み 替え</w>
終 着</w>
細 め</w>
素 性</w>
紙 上</w>
純 真</w>
粉 塵</w>
節 点</w>
算 術</w>
筆 頭</w>
筆 記</w>
競 泳</w>
競 売</w>
童 話</w>
立ち 並</w>
立 役者</w>
突っ 切</w>
突き 付け</w>
突 進</w>
突 発</w>
突 撃</w>
突 き</w>
空 手</w>
穴 埋め</w>
種 目</w>
種 明かし</w>
程 よ</w>
移 譲</w>
私 利</w>
禁 酒</w>
神 権</w>
石 斧</w>
石 投げ</w>
石 工</w>
石 場</w>
着 工</w>
着 々</w>
真 価</w>
相 同</w>
直 腸</w>
直 射</w>
盲 導</w>
盛り 上がり</w>
盛 衰</w>
益 虫</w>
皿 洗い</w>
白 熱</w>
白 日</w>
痛 めつけ</w>
病 巣</w>
病 因</w>
異 変</w>
番 人</w>
略 称</w>
留 め
画 材</w>
申し 分</w>
産 生</w>
生 還</w>
生 贄</w>
生 得</w>
生 前</w>
王 政</w>
王 家</w>
狭 ま</w>
狂 人</w>
狂 乱</w>
犬 種</w>
物 量</w>
爪 痕</w>
爆 音</w>
燃え 盛</w>
熱 源</w>
熊 蜂</w>
煮 え
煮え たぎ</w>
照 会</w>
無 茶</w>
無 私</w>
無 生物</w>
無 味</w>
為 替</w>
灼 熱</w>
灯 台</w>
瀕 死</w>
澄み 切</w>
漕 ぎ</w>
漂 着</w>
漂 白</w>
漁 網</w>
滑 車</w>
滑 液</w>
滅 裂</w>
溺 死</w>
湿 原</w>
測 位</w>
測 り</w>
温 血</w>
減 衰</w>
減 らせ</w>
清 算</w>
混 み合</w>
深 まり</w>
液 化</w>
浴 場</w>
浮 揚</w>
流れ 着</w>
没 落</w>
汎 心</w>
水 田</w>
水 浸し</w>
水 流</w>
気 配り</w>
民 権</w>
民 兵</w>
毛 長</w>
毛 繕い</w>
毎 時</w>
毎 度</w>
母 熊</w>
母 校</w>
母 性</w>
殺 傷</w>
殺 せ</w>
殴 打</w>
残 留</w>
歯 が
歯が ゆ</w>
歩き 去</w>
次 期</w>
欠 席</w>
機 転</w>
機 種</w>
横 糸</w>
榴 弾</w>
業 種</w>
根こそ ぎ</w>
枚 挙</w>
枕 元</w>
束 ね</w>
本 音</w>
本 業</w>
本 文</w>
本 国</w>
書き 直</w>
書き 手</w>
暴 れ</w>
暖 ま</w>
晦 日</w>
時 父</w>
明け 暮れ</w>
旱 魃</w>
日 用</w>
日 時</w>
日 の</w>
族 長</w>
施 術</w>
新 曲</w>
新 入り</w>
斡 旋</w>
教 官</w>
放 電</w>
改 宗</w>
支 離</w>
擬 態</w>
撒 き散ら</w>
撃ち 殺</w>
摂 理</w>
揺 す</w>
換 わ</w>
掴 ま</w>
採 鉱</w>
採 り入れ</w>
掛け 人</w>
捻 出</w>
挿 絵</w>
振り 分け</w>
振 れ</w>
持ち 運べ</w>
持 久</w>
担 体</w>
押し 殺</w>
抱 き合</w>
抜 歯</w>
投 降</w>
抑 え込</w>
打ち 付け</w>
手 続</w>
手 直し</w>
手 応え</w>
手 先</w>
手 伝え</w>
所 詮</w>
所 見</w>
戸 惑
戸惑 い</w>
戦 力</w>
慣 行</w>
感 電</w>
愛 犬</w>
惨 劇</w>
惚 れ込</w>
悪 評</w>
悪 習</w>
悩 まし</w>
恰 好</w>
息 吹</w>
急 落</w>
急 務</w>
思い っきり</w>
思 わ</w>
怒 れ</w>
心 構え</w>
心 奪</w>
微 視</w>
微 塵</w>
得 体</w>
後ろ 向き</w>
後 進</w>
後 ず
待ち 遠し</w>
形 作り</w>
当たり 障り</w>
弾 薬</w>
強 風</w>
強 靭</w>
弱 虫</w>
引っ 込め</w>
引っ 掛け</w>
引っ か</w>
引 越し</w>
弁 論</w>
建 て
度 量衡</w>
店 長</w>
序 列</w>
広 州</w>
幻 視</w>
年 内</w>
干 支</w>
帳 簿</w>
師 匠</w>
市 旗</w>
巻き 付け</w>
差し 支え</w>
差 分</w>
山 奥</w>
居 酒屋</w>
局 長</w>
局 部</w>
尾 鉱</w>
尾 根</w>
尽 くせ</w>
尻 込み</w>
小さ め</w>
小 隊</w>
小 銃</w>
小 瓶</w>
小 片</w>
小 国</w>
導 師</w>
寝 袋</w>
寝 か</w>
寛 解</w>
寄 贈</w>
容 態</w>
家 業</w>
宣 戦</w>
客 室</w>
実 権</w>
定 規</w>
定 番</w>
完ぺ きな</w>
宅 配</w>
孫 子</w>
学 派</w>
存 亡</w>
媚 薬</w>
姦 通</w>
好 戦</w>
女 装</w>
奮い 起こ</w>
奮 起</w>
奪い 去</w>
奇 術</w>
失 格</w>
失 く</w>
太 もも</w>
天 外</w>
大人 し</w>
大 隊</w>
大 腿</w>
大 罪</w>
大 波</w>
大 晦日</w>
大 成</w>
大 将</w>
大 変化</w>
大 分</w>
大 佐</w>
多 糖</w>
多 幸</w>
壁 紙</w>
増 設</w>
堕 胎</w>
基 部</w>
執 務</w>
執 り
埋め 合わせ</w>
地 道</w>
圏 内</w>
国 歌</w>
回 想</w>
回 せ</w>
噴 霧</w>
噛 みつ</w>
嗅ぎ 分け</w>
喋 り</w>
善 玉</w>
善 し
善し 悪し</w>
問 診</w>
商 工</w>
唐 辛子</w>
品 々</w>
命 じ</w>
呪 術</w>
吹き 飛</w>
吹き 返</w>
君 臨</w>
向 けれ</w>
名 目</w>
名 案</w>
名 札</w>
名 手</w>
吊 り
吃 音</w>
右 足</w>
可哀 そう</w>
可 変</w>
叩き のめ</w>
叩 きつけ</w>
口 腔</w>
口 元</w>
受け とめ</w>
受け と</w>
受 入れ</w>
取り 返し</w>
取り 直</w>
取り 壊し</w>
取り やめ</w>
取り つ</w>
反 感</w>
反 動</w>
参 観</w>
参 り</w>
原 爆</w>
原 案</w>
原 本</w>
厚 生</w>
厚 かまし</w>
卵 管</w>
占 星</w>
南 洋</w>
卓 球</w>
半 額</w>
千 尋</w>
区 分け</w>
包 含</w>
割り 振</w>
剥 奪</w>
前 景</w>
前 奏</w>
刺 身</w>
別 人</w>
判 読</w>
初 回</w>
切り 抜</w>
分 譲</w>
分 け合</w>
出 迎え</w>
出 掛け</w>
出 っ
凍 て</w>
冷 血</w>
冷 房</w>
写 し取</w>
再 編成</w>
再 帰</w>
兵 役</w>
共 進</w>
公 私</w>
公 用</w>
公 募</w>
全 人生</w>
入り 江</w>
入 札</w>
党 首</w>
先 方</w>
先 手</w>
元 老</w>
償 却</w>
働き づめ</w>
偏 重</w>
偏 差</w>
倒 し</w>
依 拠</w>
供 与</w>
使 者</w>
使 徒</w>
低 速度</w>
低 地</w>
伸び 縮み</w>
伴 奏</w>
休 業</w>
付け 根</w>
付き 合え</w>
仕 掛け人</w>
仕 入れ</w>
今 皆</w>
今 時</w>
人 知れ</w>
人 殺し</w>
人 影</w>
人 型</w>
人 件</w>
交 友</w>
亡 骸</w>
互 角</w>
互 換</w>
二の 次</w>
事 欠</w>
予 兆</w>
乾 期</w>
乗り 手</w>
乗り 回</w>
乗 用</w>
乗 員</w>
主 語</w>
主 力</w>
丸 見え</w>
並び 替え</w>
両 論</w>
不 発</w>
不 動</w>
下 級</w>
上り 坂</w>
万 歳</w>
万 有</w>
万 一</w>
一 転</w>
一 睡</w>
一 生涯</w>
一 応</w>
一 律</w>
一 室</w>
一 婦</w>
ヴォ ル
ヴェ イ
ヴィ ッツ</w>
ヴィ ック</w>
ング ライタ</w>
ン ビル</w>
ン ズ
ン スト</w>
ン ウォルド</w>
ン ウォ-ル</w>
ワイ パ</w>
ワ ッフル</w>
ワ オ</w>
ワ -
ロド トス</w>
ロッ プ
ロスアン ジェルス</w>
ロイ タ</w>
ロ ファ</w>
ロ スト</w>
ロ ジ
レン ツ</w>
レジ リン</w>
レイ モンド</w>
レイ アウト</w>
レ ヴィン</w>
レ モネ</w>
レ ビ</w>
レ ド
レ トリック</w>
レ ツ</w>
レ ク
ル メリット</w>
ル ビ-</w>
ル ネ</w>
ル ケ-</w>
リン バ</w>
リン ドン</w>
リナ ックス</w>
リ マ</w>
リ ポ</w>
リ ニコフ</w>
リ ディア</w>
リ ティ
リ ッキ</w>
リ タ</w>
リ -ズ</w>
ラム ゼ</w>
ラブ スト</w>
ラスト ラク
ラストラク チャ</w>
ラジ カ</w>
ラグ ビ</w>
ライ ・</w>
ライ プ
ライ ゾン</w>
ライ ゼン</w>
ラ マダン</w>
ラ ホ-</w>
ラ ブレタ</w>
ラ テ</w>
ラ シック</w>
ヨ ルド</w>
ユニ フォ-ム</w>
ユ ビキ
ユビキ タス</w>
ユ ヌス</w>
ヤ レド</w>
ヤ ツメ</w>
モンテ レ</w>
モデ ム</w>
モ ンド
モ ラス</w>
モ ニュ
モニュ メント</w>
モ ナ
モ グラ</w>
モ カ
メン ズ</w>
メル ケル</w>
メラ ノ</w>
メディ ケア</w>
メタ ナラティブ</w>
メソ ッド</w>
メイ ヨ</w>
メ レン
メ ッド</w>
メ カ</w>
ム ビデオ</w>
ム ソン</w>
ム ウッド</w>
ミン ティ</w>
ミン スキ</w>
ミレ ニアル</w>
ミル ケン</w>
ミリ グラム</w>
ミッド タウン</w>
ミ ランダ</w>
ミ アン</w>
ミ アボ
ミアボ ルド</w>
マッシュ ル-</w>
マッ ハ</w>
マッ チョ</w>
マッ サ</w>
マッ ケン
マダ ラ</w>
マグ ニ
マキャ ベリ</w>
マカ シ</w>
マウン テン
マイ ダン</w>
マイ コ
マ ナ
マ スト
マスト ドン</w>
マ スタ
マ シュ</w>
マ キ
マ -ス</w>
ポリ 袋</w>
ポテン シャル</w>
ポスト モダン</w>
ポ ネ
ポ ス
ポ エ
ポ ウ</w>
ボン ベ</w>
ボル ダ</w>
ボリ ュ-</w>
ボス ウェル</w>
ボク シング</w>
ホメ オ
ホッキョ ク
ホッキョク グマ</w>
ホイ ットニ</w>
ホ ルト</w>
ホ ル</w>
ホ ヤ</w>
ホ ムス</w>
ホ -ン</w>
ペル セ
ペリ シテ</w>
ペ リン</w>
ペ ス</w>
ペ イント</w>
ペ イン</w>
ベン チ
ベネ チア</w>
ベ ツ</w>
ベ -</w>
ヘル シウム</w>
ヘ ンド
ヘ ンダ</w>
ヘ ロドトス</w>
ヘ ル</w>
ヘ ラジカ</w>
ヘ ラ</w>
プロダ クション</w>
プロセ ニアム</w>
プロ ム</w>
プロ ポ-ズ</w>
プロ パン</w>
プロ バイオ
プロバイオ ティクス</w>
プリン ティング</w>
プリン セス</w>
プライ ム</w>
プラ カシュ</w>
プ リズム</w>
プ リア
ブロ ンド</w>
ブルン ジ</w>
ブラン ドン</w>
ブラン ソン</w>
ブラン カ</w>
ブラ ブラ</w>
ブ バ</w>
ブ ック
ブ ダ
ブダ ペスト</w>
フワ フワ</w>
フロ イド</w>
フレキシ ブル</w>
フレ イツ</w>
フリ ル</w>
フラン ク
フラ フ</w>
フラ ッグ</w>
フラ ッキング</w>
フラ イング</w>
フォル ム</w>
フォト ジャ-</w>
フォ ニ</w>
フォ ニ-</w>
フォ -ト
フォ -ス</w>
フェル ナンド</w>
フェッ テ</w>
フェ ラ
フィ ヨルド</w>
フィ シェリ</w>
ファイア ウォ-</w>
ファ ミ
ファ ブリ
ファ イン
フ フ</w>
フ ナ</w>
フ タ
フ ス</w>
フ グ</w>
ピン ポン</w>
ピック アップ</w>
ピア ス</w>
ビル ディング</w>
ビエン ナ-</w>
ビ ンド</w>
ビ クタ</w>
ヒ レル</w>
ヒ ックス</w>
ヒ ゲ
ヒ クイ
ヒクイ ドリ</w>
ヒ エロ
ヒ アリング</w>
ヒ -ト</w>
パロ キセチン</w>
パラド クス</w>
パラ ガス</w>
パブリ ック
パタ ゴ
パタゴ ニア</w>
パ ワ-</w>
パ レ</w>
パ チン
パ シュ
パ イル</w>
バンガ ロ-ル</w>
バン デュ
バレンタ インカ</w>
バリ チェリ</w>
バニ スタ</w>
バナナナナナ ナ</w>
バイ ロン</w>
バ メ</w>
バ ドル</w>
バ スル-</w>
バ -ニ-</w>
ハリ ス</w>
ハリ ケ</w>
ハビ タ
ハック ル</w>
ハイ パ-</w>
ハイ ト</w>
ハイ ジャック</w>
ハイ クオリティ</w>
ハ リ-</w>
ハ マス</w>
ハ バナ</w>
ハ ズレ</w>
ハ ガキ</w>
ネ パ</w>
ネ ザル</w>
ネ -ト</w>
ニル ヴァ-ナ</w>
ニコ ニコ</w>
ニオ イ</w>
ニ 族</w>
ニ ナ</w>
ニ オ</w>
ナッ シュビル</w>
ナイ ト
ナ ボ
ナ テンベレラ</w>
ナ オミ</w>
ドレッ シング</w>
ドラ ッグ
ドラッグ ストア</w>
ド センタ</w>
ド セル</w>
ド スト</w>
ド ジャ-</w>
ド -</w>
トロ イア</w>
トレイ ト</w>
トリ ップ</w>
トランジ ション</w>
トラン ス
トライ アス
トラ フィック</w>
トラ コ-</w>
トゥル カナ</w>
トゥ ル</w>
ト ライト</w>
ト メッセ</w>
ト ボ-ド</w>
ト スカ</w>
ト イン</w>
ト ア</w>
ト -プ</w>
デレ ック</w>
デュ ルケ-</w>
デジ タ
デジタ ルツ</w>
ディン ゴ</w>
ディ ング
ディ -ズ</w>
デ ボラ</w>
デ ブリ</w>
デ ビュ-</w>
デ ニ-</w>
テン ボロ</w>
テン ベルグ</w>
テロメ レ-</w>
テレ パシ</w>
テナ ント</w>
テク システ
テクシステ カ
テクシステカ トル</w>
テ トラ</w>
ツ ノ</w>
ツ イン</w>
ット メント</w>
ッ キリ</w>
チャル ア</w>
チャ ンドラ</w>
チャ プレン</w>
チャ ズ</w>
チャ イ</w>
チェン ジ</w>
チ ル
チ ラ
チ バ</w>
チ ナ</w>
チ キス</w>
チ ガ
ダダ ダダ
ダウン ロ</w>
ダイレ クト</w>
ダイ ナ
ダ マ</w>
ダ ボス</w>
ダ ブル
ダ ナ</w>
ダ クション</w>
ダ ウ</w>
タイ ムス</w>
タ マ</w>
タ ッパ</w>
タ チップ</w>
タ チ</w>
タ ス
タ ゲ-</w>
タ キシ
ソフト ウエア</w>
ソ ンズ</w>
ソ ングライタ</w>
ソ ワ
ソ ナタ</w>
センチ メ</w>
セル マ</w>
セル フィ</w>
セ ルフ</w>
セ リ</w>
セ リ-</w>
セ フト</w>
スペ シャ
スペシャ リスト</w>
スペ -ド</w>
スピ ノサウルス</w>
スパイ ア</w>
スト リアル</w>
スト ッツェル</w>
スティ テュ-</w>
ステ ン</w>
スチ レン</w>
スタン トン</w>
スタイ リスト</w>
スタイ ネム</w>
スタ ミナ</w>
スキ ナ</w>
スカ ルピ</w>
ス ノウ</w>
ス スタディ</w>
ス ス</w>
ス ザンヌ</w>
ス サイト</w>
ス ギ</w>
ス ガ</w>
ス イス
ス ―</w>
ジョ プリン</w>
ジャン ボ</w>
ジャ ワ</w>
ジャ ミ</w>
ジェ ラルド</w>
ジ ロ</w>
ジ ッ
シュ ラ</w>
シャ ム</w>
シャ ボン</w>
シャ ド</w>
シャ ット
シャ サ</w>
シマ ウマ</w>
シック デ</w>
システ マ</w>
シェ -</w>
シ フ</w>
シ チュ</w>
シ オン</w>
シ オ</w>
ザ ギザ</w>
サンド リン</w>
サンタ バ</w>
サルガ ッソ</w>
サル バドル</w>
サリ -ム</w>
サラ -</w>
サプライ ヤ</w>
サイ クリ
サイクリ ング</w>
ゴ ニ
ゴ -</w>
コン ベア</w>
コン プレ</w>
コン テキスト</w>
コルチ コ
コミ ットメント</w>
コミ コン</w>
コネクト -</w>
コカ コ</w>
コ ナン</w>
ゲン ハイム</w>
ゲ ロ</w>
ゲ イ
ケン カ</w>
ケ ン・</w>
ケ ブラ</w>
ケ タ</w>
グリズ リ</w>
グラ ミ</w>
グッ ピ</w>
グッ ゲンハイム</w>
グ マン</w>
クロ ア
クロア チア</w>
クレ バス</w>
クレ ット</w>
クリスト フ</w>
クリ フ</w>
クリ チバ</w>
クリ ケット</w>
ク レス</w>
ク ルド</w>
ク ルス</w>
ク マン</w>
ク ティブ</w>
ク セン
ク ジ</w>
ギル バ-ト</w>
ギ ラ</w>
ギ プス</w>
ギ ス</w>
ギ ザギザ</w>
キン シャサ</w>
キュ ラ</w>
キャン ドル</w>
キャビ テ</w>
キャッサ バ</w>
キャ ベツ</w>
キャ シ</w>
キハダ マグロ</w>
キネ クト</w>
キウ キ</w>
キ ングス</w>
キ ッシュ</w>
キ オ</w>
キ エフ</w>
キ ア
ガ ム
カン マ</w>
カン ブリア</w>
カン パニ</w>
カロ ライナ</w>
カブ ト
カジ ノ</w>
カサ ブランカ</w>
カ ワ
カ バン</w>
カ ト
カ ップ
カ シミ</w>
カ サス</w>
オン デマンド</w>
オラ ニ族</w>
オラ クル</w>
オタ ワ</w>
オズ マカシ</w>
オクタ ビオ</w>
オキュ ラス</w>
オ バ</w>
オ ニ</w>
オ ッ
エンリ ケス</w>
エル ビス</w>
エル ニ</w>
エリ サ</w>
エポ キシ</w>
エピ ト-プ</w>
エナ メル</w>
エド ウィン</w>
エッ チング</w>
エスプレ ッソ</w>
エイド リアン</w>
エイ ダ</w>
エ ント</w>
エ モリ</w>
エ ミ</w>
エ フスキ</w>
エ フ
エ ピ</w>
エ ストラ
エ スタ</w>
ェ ア</w>
ウラジ ミ-</w>
ウズ ベ
ウォ レン</w>
ウエ スト
ウェン ディ</w>
ウェ ポン</w>
ウィン ザ</w>
ウ ロス</w>
ウ ク</w>
ウ キウキ</w>
ウ エイ
インフ ラストラクチャ</w>
インド ラ</w>
インダ ストリアル</w>
インタビ ュ
イン スパイア</w>
イン シュリン</w>
イデ ア</w>
イソ プレン</w>
イキ モノ</w>
イ ロ
イ ミ
イ エン
アントニ ウス</w>
アン ドロ</w>
アン ドレ
アン ティ-</w>
アン ケ</w>
アレ グ</w>
アルミ ホイル</w>
アル トス</w>
アル カ</w>
アメ -</w>
アミ ラ</w>
アフ ラ</w>
アヌ ック</w>
アッ ラ</w>
アッ テンボロ</w>
アス リ</w>
アス パラガス</w>
アシュ レ</w>
アク ティブ</w>
アオ コ</w>
アウト ソ-</w>
アウストラロピ テクス</w>
アイ ツ</w>
ア ヤ
ア フ</w>
ア ディ</w>
わき まえ</w>
ろ くに</w>
ろ ぎ</w>
れ －</w>
れ やれ</w>
り ま</w>
ら み</w>
ら っしゃ</w>
よ せ</w>
よ じ</w>
よ お</w>
ょ う</w>
ゆる やか</w>
ゆ がめ</w>
や れやれ</w>
もっ て
もって の
もっての ほか</w>
も しか</w>
も う
め ぐ
む ろ</w>
む ち
むち 打ち</w>
む しゃ
む き</w>
む か</w>
み かけ</w>
み ―</w>
まば たき</w>
まと い</w>
まっ ぴら</w>
ま ぜ</w>
ま ずまず</w>
ま さ</w>
ま かなえ</w>
ぼろ ぼろ</w>
ほ と
ぺ ん</w>
べ ス</w>
ぶつ け合</w>
ぶっ 飛</w>
ぶ れ</w>
ふる さと</w>
ふさ が</w>
ふ ら
ひとり でに</w>
ひと 言</w>
ひと 息</w>
ひっ かか</w>
ひそ か</w>
ひ な
は さみ</w>
は ぐれ</w>
のぞき こ</w>
のぞ き込</w>
の 世</w>
の っと</w>
の こ</w>
ね じ</w>
なり すま</w>
な まり</w>
な ぎ
なぎ 倒</w>
な おか
なおか つ</w>
ど ろ</w>
ど っと</w>
とり つ</w>
とり かか</w>
とっ さ</w>
とおり これ</w>
つか み</w>
つ ん
つ ぼ</w>
つ とめ</w>
つ て</w>
つ つ
つ っ
つ じ
つじ つま</w>
っ ちゃ
ち ょ</w>
だまし 絵</w>
ただ れ</w>
たか お</w>
た ため</w>
た たえ</w>
そび え</w>
そ か</w>
ぜ い
すれ 違</w>
すぼ らし</w>
す じ</w>
す き</w>
す え</w>
す ―
しゃ が</w>
しぶ しぶ</w>
しか め</w>
し っ
し だ</w>
し あ</w>
さん こう</w>
ささ やき</w>
さ へ</w>
さ ざ
さ が</w>
さ い
さ ―</w>
ご わ</w>
ご り</w>
こ らえ</w>
こ ま
こ け</w>
げ ん</w>
け り</w>
け ど―</w>
ぐる り</w>
ぐ ず</w>
くつ ろぎ</w>
く び</w>
く くり
き 寄せ</w>
き らか</w>
き ら
き っぱり</w>
き たり</w>
がれ き</w>
が た
かくれ んぼ</w>
かか れ</w>
かい つま</w>
か たど</w>
か ?</w>
おび き寄せ</w>
お 蔭</w>
お く</w>
お いで</w>
え 上げ</w>
うん ち</w>
うわ っ</w>
う る</w>
いっ ぺん</w>
いちゃ つ</w>
い ま
い びき</w>
い そ
い じく</w>
あり 余</w>
あり かつ</w>
あ ま</w>
あ ふれ
あ さ</w>
あ きらか</w>
― パ</w>
y ou
wor ld
w h
w at
ut e</w>
us ion</w>
un g
u se</w>
u c
t ro
t o</w>
s k
s ec
rip t</w>
rag on</w>
ow n
ov e</w>
ou t</w>
osyn th</w>
olo g
o st
n -
m y
m g</w>
lo w</w>
le d
le IX</w>
is h
in t
im p
ic ip
i e</w>
hoo hoo
h er</w>
h e</w>
g h</w>
g e</w>
es e</w>
es av
esav er</w>
er s</w>
ec h</w>
e ar
c t</w>
av en</w>
as t</w>
ar i</w>
ab le</w>
a k</w>
a g</w>
\& T</w>
Your L
Wiki Le
WikiLe aks</w>
Wik i</w>
W eb
W ater</w>
W TO</w>
U SA</w>
U RL</w>
U C</w>
U AV</w>
Tit leIX</w>
TEDTal ks</w>
TEDM ED</w>
TED ster</w>
T R
Sup er
Sp e
Sc ript</w>
SS RI</w>
S ha
S PE
SPE CT</w>
S I
RK CP</w>
RI C</w>
R os
R TP</w>
R P</w>
Phot osynth</w>
P er
P at
P art
P O
On e
OK Go</w>
O ur
NI N
NIN JA</w>
NI C
N ike</w>
N PR</w>
N D
Microsof t
Liv es</w>
Lif esaver</w>
La Cur
LaCur a</w>
L ive
L i</w>
L SD</w>
L S
L FC</w>
K P
K E
Internation al</w>
I n</w>
I R
I II</w>
I G
H z</w>
H ub</w>
H om
H at
G mail</w>
G B</w>
F N</w>
F A</w>
Ecos ia</w>
E Q</w>
D on
D S
Clou d</w>
CS I</w>
C od
C ar
C I</w>
C C</w>
Black Lives</w>
Bl ack</w>
B ot</w>
App le
Ap p</w>
AT \&T</w>
AT CG</w>
AR ES</w>
AP I</w>
A t
A re
A d</w>
4 66</w>
4 500</w>
3, 4</w>
3, 00</w>
2､ 3</w>
20 3</w>
2 5,000</w>
19 46</w>
19 26</w>
19 17</w>
18 6</w>
15 6</w>
10 9</w>
10 2</w>
1 45</w>
1 36</w>
1 32</w>
1 2,000</w>
-ヴ ル</w>
-ン チェア</w>
-ン アカデミ</w>
-ス デ</w>
- ボ</w>
- ブ
- フォ-</w>
- バ-</w>
- ネ</w>
- ドゥ</w>
- トル</w>
- ディ・</w>
- チン</w>
- ジュ</w>
, 5</w>
鼻 歌</w>
鼻 孔</w>
黙 認</w>
黄 斑</w>
鳴り 響</w>
鳥 獣</w>
鯨 肉</w>
魚 釣り</w>
高 低</w>
高 位</w>
駆け 込</w>
駆け 落ち</w>
馬鹿 馬鹿
馬鹿馬鹿 し</w>
馬 蹄</w>
館 長</w>
館 内</w>
飾 り立て</w>
飽き 飽き</w>
飼い なら</w>
飲み 込み</w>
飲み 会</w>
飲 ま</w>
食 いつ</w>
飛び かか</w>
類 型</w>
願 書</w>
顕 在</w>
頼 り
頭 骨</w>
領 地</w>
頓 着</w>
順 風</w>
靴 底</w>
靴 屋</w>
靭 性</w>
面 持ち</w>
非 力</w>
露 天</w>
露 呈</w>
電 解</w>
電 光</w>
雪 山</w>
雨 粒</w>
難 破</w>
雇 い
集 大成</w>
雄 牛</w>
隣 り合</w>
隠 遁</w>
陸 運</w>
陸 棚</w>
陶 磁器</w>
陳 列</w>
陥 落</w>
陣 痛</w>
降 参</w>
防 犯</w>
間 力</w>
開 講</w>
閉じ こめ</w>
鑑 識</w>
鎮 静</w>
鎖 骨</w>
鍛 錬</w>
錆 びつ</w>
鉄 筋</w>
鉄 則</w>
野 良
野 焼き</w>
野 次</w>
重 体</w>
重 み
醸 成</w>
醸 し出</w>
酒 場</w>
郷 愁</w>
遺 灰</w>
適 格</w>
遠 回し</w>
道 順</w>
過 渡</w>
運び 上げ</w>
遊 離</w>
進 軍</w>
進 み</w>
造 れ</w>
造 り上げ</w>
造 り
逞 し</w>
這い 回</w>
逃げ 惑</w>
逃げ 去</w>
逃 せ</w>
送り 出せ</w>
送り 主</w>
退 避</w>
追い 回</w>
追 随</w>
追 従</w>
返り 咲</w>
返 品</w>
近 傍</w>
辿 り</w>
辻 褄</w>
辞 儀</w>
輝 け</w>
転 がり
転がり 落ち</w>
軍 曹</w>
身 障</w>
身 柄</w>
躁 鬱</w>
踏み 外</w>
跳ね 上が</w>
路 肩</w>
足 並み</w>
足 がかり</w>
足 かせ</w>
走り 回り</w>
赤 貧</w>
赤 ちゃんと</w>
贋 作</w>
貼り 紙</w>
貼 り合わせ</w>
貸 出</w>
貸 し出</w>
貸 し</w>
貫 き</w>
負 わ</w>
象 形</w>
譲り 受け</w>
警 視</w>
謎 解き</w>
諸 説</w>
論 法</w>
請 願</w>
談 話</w>
調 度</w>
読 点</w>
読 心</w>
語 法</w>
認 め合</w>
誉 め</w>
訝 し</w>
言い 放</w>
言い 合</w>
言い 争い</w>
言 説</w>
観 覧</w>
観 血</w>
観 葉</w>
覚 せい</w>
規 約</w>
見 逃せ</w>
見 誤</w>
見 渡し</w>
見 出
見 とれ</w>
褒め 称え</w>
製 法</w>
表 題</w>
街 区</w>
行き 場</w>
血 清</w>
虹 彩</w>
虫 害</w>
蓄 電池</w>
葉 緑</w>
落 着</w>
荷 重</w>
荷 車</w>
荒れ 地</w>
草 案</w>
苦 汁</w>
苛 酷</w>
苛 立たし</w>
芽 腫</w>
芳 香</w>
色 づけ</w>
航 程</w>
航 海
航海 士</w>
自 重</w>
自 生</w>
臨 時</w>
膣 内</w>
腺 房</w>
腹 側</w>
腐 食</w>
能 率</w>
胴 衣</w>
肥 溜め</w>
肥 やし</w>
股 間</w>
肛 門</w>
肌 色</w>
肉 類</w>
聞き 分け</w>
聞 き出</w>
聖 杯</w>
耳 飾り</w>
耳 打ち</w>
習 わし</w>
羽 化</w>
義 母</w>
義 憤</w>
義 姉</w>
群 島</w>
羊 毛</w>
罵 倒</w>
置き 換わ</w>
繫 がり</w>
縄 跳び</w>
締め 出し</w>
緑 道</w>
綿 棒</w>
給 餌</w>
給 湯</w>
結び 合わせ</w>
結び 付き</w>
経 度</w>
細 やか</w>
索 引</w>
素 顔</w>
素 子</w>
紛 ら
紛ら わ</w>
級 数</w>
粘 膜</w>
管 状</w>
等 価</w>
笑 )</w>
立ち 現れ</w>
空 論</w>
穏 健</w>
積み 上が</w>
積 層</w>
穂 軸</w>
租 税</w>
秘 伝</w>
秀 逸</w>
禅 師</w>
神 論</w>
神 経路</w>
神 戸</w>
祝 賀</w>
示 し</w>
磨 き上げ</w>
破 局</w>
砲 撃</w>
研 ぎ
短 絡</w>
真っ 当</w>
真 贋</w>
真 意</w>
相 方</w>
直 行</w>
目 録</w>
目 盛</w>
目 次</w>
目 先</w>
盛 り上げ</w>
盗 品</w>
白 鳥</w>
白 質</w>
白 昼</w>
発 熱</w>
発 し</w>
癒 せ</w>
痛 手</w>
痛 み
病 床</w>
疑 い
疑い 深</w>
甲 羅</w>
用 務</w>
産 休</w>
生み 出し</w>
生き もの</w>
生 物
生 業</w>
現 職</w>
現 生</w>
現 況</w>
現 像</w>
王 座</w>
玄 武</w>
独り ぼっち</w>
特 色</w>
特 派</w>
物 語り</w>
物 忘れ</w>
物 々</w>
牧 民</w>
片 面</w>
燃 やせ</w>
熟 成</w>
照 りつけ</w>
煉 瓦</w>
焼け つ</w>
無 茶苦茶</w>
無 臭</w>
無 職</w>
無 神論</w>
点 群</w>
灯 油</w>
火 種</w>
灌 木</w>
濡 ら</w>
潰 せ</w>
潜 れ</w>
漏 洩</w>
滅 菌</w>
満 面</w>
満 載</w>
満 帆</w>
満 場</w>
港 湾</w>
渡り 鳥</w>
渇 き</w>
添 加</w>
添 付</w>
海 鳥</w>
海 溝</w>
海 嶺</w>
流 布</w>
流 せ</w>
津 々</w>
洗 礼</w>
注 釈</w>
注 げ</w>
泥 沼</w>
泡 立て</w>
法 外</w>
治 世</w>
沸き 立</w>
沈 着</w>
沈 み込</w>
決 闘</w>
汲 み</w>
汚 し</w>
永 らえ</w>
氷 瀑</w>
氷 水</w>
水 量</w>
水 洗</w>
水 利権</w>
気 高</w>
気 泡</w>
気 まま</w>
民 意</w>
民 俗</w>
毛 髪</w>
毛 細管</w>
比 べ
母 娘</w>
段 差</w>
残 像</w>
殉 教</w>
歩み 去</w>
歩 数</w>
歩 め</w>
正 誤</w>
正 装</w>
正 に</w>
樹 状</w>
楽 焼</w>
極 論</w>
極 冠</w>
極 み</w>
検 疫</w>
検 挙</w>
棚 氷</w>
染 み込</w>
枢 軸</w>
枝 状</w>
松 葉</w>
東 莞</w>
来 館</w>
本 数</w>
本 件</w>
末 梢</w>
未 完</w>
木 片</w>
木 工</w>
最 深</w>
最 少</w>
曾 祖父</w>
書き 込め</w>
書 評</w>
曲がり 角</w>
暴 風雨</w>
暗 がり</w>
時 誰</w>
時 制</w>
星 間</w>
星 占い</w>
昔 話</w>
明 記</w>
昇 降</w>
日 雇い</w>
施 策</w>
断 食</w>
文 面</w>
文 言</w>
文 芸</w>
文 筆</w>
文 盲</w>
文 体</w>
整 脈</w>
整 地</w>
散 弾</w>
散 在</w>
教 書</w>
教 徒</w>
教 壇</w>
政 情</w>
放 散</w>
支 え
擦 り
摘 み取</w>
提 議</w>
提 訴</w>
控 訴</w>
探 り出</w>
採 算</w>
採 石</w>
振り 返り</w>
振り 上げ</w>
振り かけ</w>
挙 句</w>
持ち 帰れ</w>
拮 抗</w>
拭 い
拒 食</w>
押し 戻</w>
押さえ 込</w>
押さえ つけ</w>
押 せ</w>
抜け 落ち</w>
抜き ん
折 れ
抗 菌</w>
投 球</w>
投 棄</w>
扶 養</w>
払い 箱</w>
打ち 込め</w>
打ち 合わせ</w>
打ち 切</w>
打 倒</w>
才 気</w>
手 製</w>
手 榴弾</w>
手 当たり</w>
手 ごわ</w>
戦 利</w>
戦 え</w>
戒 め</w>
成 年</w>
懸 垂</w>
懐 胎</w>
憑 りつ</w>
慣 ら</w>
愛 称</w>
意 匠</w>
悪 路</w>
悪 戦</w>
息 継ぎ</w>
息 づかい</w>
恒 例</w>
性 急</w>
思い 上が</w>
思い とどま</w>
怖 ろし</w>
念 慮</w>
忘 却</w>
忍 ば</w>
心 房</w>
後ず さり</w>
後 頭部</w>
後 回し</w>
後 ニュ-</w>
待 て</w>
彩 色</w>
形 勢</w>
強 気</w>
張 り合</w>
弱 拍</w>
弱 冠</w>
引っ 込み</w>
引き 締ま</w>
引き 立</w>
引き 止め</w>
引き 合</w>
引き 入れ</w>
引き こも</w>
弓 矢</w>
廉 価</w>
廃 物</w>
庭 師</w>
度 合</w>
店 内</w>
底 部</w>
年 取</w>
平 然</w>
平 日</w>
常 在</w>
布 教</w>
布 切れ</w>
巻 きつけ</w>
差 出</w>
巣 立</w>
巡 り
山 登り</w>
尾 羽</w>
小 魚</w>
小 節</w>
小 物</w>
小 分け</w>
尋 常</w>
射 手</w>
寝 泊まり</w>
寓 意</w>
富 士</w>
密 漁</w>
宿 敵</w>
家 禽</w>
客 体</w>
実 況</w>
実 数</w>
定 式</w>
定 常</w>
安 門</w>
子 馬</w>
子 持ち</w>
子 守</w>
妬 み</w>
奇 襲</w>
失 効</w>
天 安門</w>
大 陸棚</w>
大 柄</w>
大 家</w>
大 公</w>
外 輪</w>
外 装</w>
外 敵</w>
外 せ</w>
夕 べ</w>
変 速</w>
売り 場</w>
声 援</w>
士 気</w>
増 産</w>
増 えれ</w>
基 調</w>
執り 行</w>
執 拗</w>
執 事</w>
垣間 見せ</w>
均 整</w>
地 盤</w>
地 滑り</w>
地 溝</w>
土 俵</w>
国 益</w>
困 憊</w>
団 長</w>
回 腸</w>
四 足</w>
四 川</w>
四 六</w>
四 つん
噂 話</w>
嘆 か
嘆か わし</w>
問い 直</w>
品 格</w>
咎 め</w>
呵 責</w>
味 見</w>
呪 縛</w>
呆 然</w>
吸い 出</w>
否 定説</w>
向き 合え</w>
向かい 側</w>
同 額</w>
同 量</w>
同 じ
合 戦</w>
召 喚</w>
句 読点</w>
口 説</w>
口 外</w>
口 内</w>
口 先</w>
受 注</w>
受 か</w>
取り 返</w>
取り 持</w>
取り 下げ</w>
取り あえず</w>
取 扱</w>
参 列</w>
原 野</w>
厚 板</w>
危 ぶ</w>
南 ス</w>
協 賛</w>
北 方</w>
北 岸</w>
北 上</w>
包み 隠</w>
包 摂</w>
包 丁</w>
勤 労</w>
勢い づ</w>
勝ち 負け</w>
勝 敗</w>
勘 弁</w>
動き 回れ</w>
動 乱</w>
創 傷</w>
割 愛</w>
剣 闘士</w>
剛 体</w>
前 帯状</w>
前 側</w>
利 率</w>
利 得</w>
利 尿</w>
初 潮</w>
切り 込み</w>
切り 詰め</w>
分 り</w>
出来 あが</w>
出し 入れ</w>
出 題</w>
出 糸</w>
出 歩</w>
出 国</w>
凝 集</w>
再 訪</w>
内 圧</w>
兵 舎</w>
共 犯</w>
公 聴</w>
全 麦</w>
全 霊</w>
全 盲</w>
入 射</w>
入 出力</w>
入 会</w>
先 ん</w>
兄 貴</w>
元 手</w>
働き 者</w>
働き 盛り</w>
働き 口</w>
傷 心</w>
傷 め</w>
傭 兵</w>
偽 装</w>
偽 者</w>
停 留</w>
倦 怠</w>
値 札</w>
値 上げ</w>
値 上がり</w>
修 道士</w>
俗 語</w>
係 わ</w>
便 器</w>
使い 回</w>
何 色</w>
体 質</w>
体 表</w>
体 勢</w>
住み 込み</w>
低 俗</w>
位 相</w>
伸び 悩</w>
伯 母</w>
企 み</w>
仲 直り</w>
代 数学</w>
付き 物</w>
仕 立て
人 選</w>
人 造</w>
人 文学</w>
交 錯</w>
亡 霊</w>
五 千</w>
二 流</w>
二 千</w>
乗り 気</w>
乗り 合わせ</w>
乗っ か</w>
乗 っ</w>
主 拍</w>
中高 年</w>
中 高</w>
中 腹</w>
中 米</w>
並 はずれ</w>
下 ろ
上り 下り</w>
上 質</w>
上 場</w>
上 げ
三 輪</w>
一 過</w>
一 説</w>
一 色</w>
一 新</w>
一 つ</w>
ヶ 条</w>
ヴォ イ</w>
ヴィン セント</w>
ヴァイ キング</w>
ヴ ンソン</w>
ヴ ン</w>
ン スパン</w>
ン :</w>
ワン ガリ</w>
ワイ プ</w>
ワイ オ
ワイオ ミング</w>
ワ ル</w>
ワ スカ</w>
ワ -ルド
ロ ニ-</w>
ロ ドニ</w>
ロ ッド</w>
ロ ズ
ロ スフィア</w>
ロ スコ</w>
ロ ジャ-</w>
ロ シ
ロ ザリ</w>
レズ リ</w>
レス リング</w>
レイ ユ</w>
レイ ノル
レイノル ズ</w>
レ ルワ</w>
レ リア</w>
レ ム
レ フ</w>
レ ッチ</w>
レ ック</w>
レ ク</w>
レ アンドロ</w>
ル マ-ト</w>
ル ディ</w>
ル タル</w>
ル ギタ</w>
リン ポ
リン ピック</w>
リョ ウ
リョウ コ</w>
リビン グル-</w>
リバ モア</w>
リタ リン</w>
リス ボン</w>
リ モア</w>
リ ム</w>
リ ポ-ト</w>
リ ビング
リビング ストン</w>
リ ニスト</w>
リ ッツ</w>
リ ッタ</w>
リ ダクション</w>
リ シャス</w>
ラン ボ</w>
ラン セット</w>
ラト ステネス</w>
ラジ カル</w>
ラク シュ
ラクシュ ミ</w>
ライフ ライン</w>
ライ オ
ライオ ネル</w>
ラ ムズ
ラムズ フェルド</w>
ラ ブラ
ラブラ ド</w>
ラ フ
ラ ピッ
ラピッ ズ</w>
ラ ビン</w>
ラ ビ
ラ パ
ラ シア</w>
ラ ク</w>
ラ ギラ</w>
ヨハネス ブルグ</w>
ョ ル
ユニ リ-</w>
ヤ ブ
ヤ フ</w>
モン ストレ</w>
モン キ</w>
モハメ ッド</w>
モノ ハシ</w>
モニ デス</w>
モザン ビ
モザンビ -ク</w>
モカ イン</w>
モ ルドバ</w>
モ ラン</w>
モ フ</w>
モ ナ</w>
モ テ</w>
モ スコ
モ シ</w>
モ ク</w>
モ ウ</w>
メン デル</w>
メディ ナ</w>
メディ ア
メッ キ</w>
メイ シャ</w>
メ ドウ</w>
メ ダ</w>
メ クジ</w>
メ イン
メ -ル
ム ワ-</w>
ム バ</w>
ム チ-</w>
ム ジャ
ミ ノ
ミ ソ</w>
ミ ズ
ミ スマ
ミスマ ッチ</w>
ミ スト</w>
ミ クロ
ミクロ ネシア</w>
ミ カ</w>
マン ネリ</w>
マン ディ</w>
マル ティ
マル セル</w>
マネ キン</w>
マトリ クス</w>
マット レス</w>
マッ ティ</w>
マッ シ
マッ カラム</w>
マジ ック
マサ リ</w>
マケ ドニア</w>
マクロ ファ-ジ</w>
マエ ストロ</w>
マイコ プラズマ</w>
マイ リ</w>
マイ コ</w>
マ ロリ</w>
マ リス</w>
マ メ</w>
マ ニアック</w>
マ ドリ
マドリ ッド</w>
マ ダム</w>
マ ギ</w>
ポリ プ</w>
ポリ ティカル</w>
ポス ドク</w>
ポエ トリ</w>
ポ ケ
ポ -ラ</w>
ボゴ タ</w>
ボ ルド</w>
ボ ルタ</w>
ボ ラン</w>
ボ トルネック</w>
ボ ト
ボ コボコ</w>
ホル ン</w>
ホメオ パシ</w>
ホ リ</w>
ホ モ
ペ ロ
ペ ネ
ペ トリ</w>
ペ タ</w>
ベン タ</w>
ベン ション</w>
ベッ ドル</w>
ベ リンダ</w>
ベ ニュ</w>
ベ ッド
ベ ジ</w>
ベ イト</w>
ヘル メス</w>
ヘル マン</w>
ヘル パ</w>
ヘル シ</w>
ヘ リング</w>
ヘ ム</w>
ヘ ス</w>
ヘ クト</w>
ヘ イリ</w>
ヘ イ</w>
プン タ</w>
プロ ニア
プロニア ジド</w>
プロ グ
プロ イ
プロイ セン</w>
プリア モス</w>
プリ ペイド</w>
プラット ホ-</w>
プライ ス</w>
プラ バスタ
プラバスタ チン</w>
プラ ネ
プラ チナ</w>
プラ シ</w>
ブレ ナン</w>
ブル クロス</w>
ブリ ス
ブリス ベン</w>
ブリ キ</w>
ブリ ガム</w>
ブラ ハム</w>
ブラ クダ</w>
ブジョ ルド</w>
ブ ワ-ム</w>
ブ レンド</w>
ブ レンダ</w>
ブ ミカ</w>
ブ ックス</w>
ブ ソン</w>
フラン ツ</w>
フラン キ</w>
フォル クス</w>
フェア トレ</w>
フェ ルト</w>
フェ デックス</w>
フィ ナンシャル</w>
フィ デ</w>
ファン ディング</w>
ファラ オ</w>
ファブリ ケ</w>
ファスト フ-ド</w>
ファク トリ</w>
ファ ル</w>
ファ ライ</w>
ファ ウ
ファ -ム</w>
フ ラン</w>
ピン ポイント</w>
ピン セット</w>
ピッ チャ</w>
ピク ニック</w>
ピ シャ
ビン ラディン</w>
ビュ ッ
ビュッ フェ</w>
ビク ビク</w>
ビ サ</w>
ビ ウス</w>
ビ アフラ</w>
ヒュ -ズ</w>
ヒゲ クジラ</w>
ヒエ ロン</w>
ヒ ナ</w>
ヒ ズ
ヒズ ボラ</w>
パン ケ-</w>
パラ レルワ</w>
パラ リンピック</w>
パラ シュ-</w>
パラ オ</w>
パラ インフルエンザ</w>
パブリック ア</w>
パト ロン</w>
パウ エル</w>
パ ルト</w>
パ リン</w>
パ ニ
パ ドル</w>
パ ックマン</w>
パ シティ</w>
パ ウンド</w>
バンデュ -ラ</w>
バングラデ ッシュ</w>
バン ディ</w>
バン ジ</w>
バン カ</w>
バレン シア</w>
バリ ュ</w>
バラ スト</w>
バカ バカ
バカバカ し</w>
バイオ リニスト</w>
バイオ ファブリケ</w>
バイ ラル</w>
バイ ブレ</w>
バ ロ</w>
バ ルズ</w>
バ ミュ-</w>
バ ディ</w>
バ ジル</w>
バ シル</w>
ハロ ウィ-ン</w>
ハム スタ</w>
ハチ の</w>
ハズ ブロ</w>
ハイス ピ</w>
ハ ル
ハ ラ-</w>
ハ ミング</w>
ハ バス</w>
ハ コ
ノン フィクション</w>
ノック アウト</w>
ノ ロ</w>
ノ ピ</w>
ノ ット</w>
ノ )</w>
ネ スティ</w>
ヌ クレオ
ヌクレオ チド</w>
ニョ ム</w>
ニ カラ
ニカラ グア</w>
ニ -タ</w>
ナルシ シズム</w>
ナボ コフ</w>
ナバ ホ</w>
ナノ テク</w>
ナ メクジ</w>
ナ マコ</w>
ナ ナ</w>
ナ ット</w>
ナ ガ
ドロ ップ</w>
ドル ビ</w>
ドラ コレ
ドラコレ ックス</w>
ドミ ノ</w>
ドゥ -</w>
ド ルフ</w>
ド リ-</w>
ド ップ
ドップ ラ</w>
ド タバタ</w>
ド イル</w>
ド アップ</w>
ド -ン</w>
トロ サウルス</w>
トレイ シ</w>
トレ ッド</w>
トリ ッヒ</w>
トライアス ロン</w>
トラ ス</w>
トバ リアリ</w>
トイ レ
ト ロジ</w>
ト リアス</w>
ト モ
ト ノ
ト ツ</w>
ト サ
ト ゲン
ト ウェイ</w>
ト ア-ト</w>
デン プン</w>
デラ ウェア</w>
デモ ステネス</w>
デス バレ</w>
ディン バラ</w>
ディ ベ</w>
ディ テ-</w>
ディ スト</w>
デ モンストレ</w>
デ ップ</w>
デ シ
デシ ベル</w>
デ キ</w>
テラ バイト</w>
ティ モシ</w>
ティ タン</w>
ティ スタ</w>
テ レ</w>
テ ムズ</w>
テ トリス</w>
テ グ
テ クト</w>
テ イク
テ -ム</w>
テ -ト</w>
ツェ ッ
ツェッ ペリン</w>
ツ ン</w>
ツ インタ
ッ ペ</w>
ッ ピング</w>
ッ チング</w>
チョ コ
チュ ラ</w>
チュ ニス</w>
チュ チュ</w>
チャップ リン</w>
チャ ペル</w>
チガ チ</w>
チェ イス</w>
チ オ</w>
チ アリ</w>
ダッチ マン</w>
ダイ ニング</w>
ダ リ</w>
ダ シアン</w>
ダ ウ
ダ イス
ダイス ゲ</w>
タン タル</w>
タキシ -ド</w>
タ ・</w>
タ リスト</w>
タ モデル</w>
タ ム</w>
タ ック</w>
タ ジ
ソ レイユ</w>
ソ ナル
セレ ブ
セイ ガ</w>
セ レン
セ ラス</w>
セ サミ
ズ ズ
ズ ス</w>
スリ ッパ</w>
スマ トラ</w>
スピ ルバ</w>
ストロ ム</w>
ストロ ベリ</w>
スト レッチ</w>
スト クラス</w>
ステ ラ</w>
スケ プ
スクリ ュ</w>
スキ タイ</w>
スカ -</w>
ス ワイプ</w>
ス レッド</w>
ス レ-</w>
ス ラング</w>
ス ラッシュ</w>
ス ミ
ス プリング</w>
ス ッキリ</w>
ス ッ</w>
ス キャンプ</w>
ス -ス</w>
ジョル ジュ</w>
ジョセフィ -ヌ</w>
ジョ ゼフ</w>
ジョ スリン</w>
ジョ イス</w>
ジュ ン</w>
ジュ ラシック</w>
ジャン スキ</w>
ジャズ ミュ-</w>
ジャコ メッ
ジャイ プ-</w>
ジャ グラ</w>
ジブラ ルタル</w>
ジェネ リック</w>
ジェ ル
ジ ス</w>
ジ グス</w>
ジ グ</w>
ジ -ラ</w>
シンセ ティック</w>
シン ボル
シン シナ
シンシナ ティ</w>
シン クロ</w>
シン ギュ
ショ -ン</w>
シュ ル
シュ モク</w>
シュ マ</w>
シュ ウ
シュ :</w>
シャン ティ</w>
シャット ダウン</w>
シャ フト</w>
シナ イ</w>
シエラ ネバダ</w>
シエ ナ</w>
シェ ルパ</w>
シア ム</w>
シ ラク
シ ブ</w>
シ ク</w>
シ エラ</w>
ザリン ジャ</w>
ザ メ
ザ マ</w>
ザ バリ</w>
ザ ッ
ザ グ</w>
サンド ウィ
サンドウィ ッチ</w>
サン ノ
サン ト
サル マン</w>
サル タン</w>
サル コ
サルコ ジ</w>
サラ ・</w>
サラ ウンド</w>
サボ テン</w>
サバイ バ</w>
サッ コ</w>
サウ ロ</w>
サイ レント</w>
サイ ユ</w>
サ タ</w>
ゴルフ ボ</w>
ゴルフ コ-ス</w>
ゴ ラン</w>
ゴ ド</w>
ゴ ッ</w>
コン ビ</w>
コルチコ ステロイド</w>
コル ベア</w>
コス ミン</w>
コ ミット</w>
コ マドリ</w>
コ ブラクダ</w>
コ フスキ</w>
コ ットン</w>
コ スト
コ オロギ</w>
コ イ</w>
ゲ ジ</w>
ケ モカイン</w>
ケ ファ
ケ トル</w>
ケ チ</w>
グレイ ブ</w>
グレ アム</w>
グル -ム</w>
グリ ッシュ</w>
グラン デ</w>
グラ デ</w>
グ グ</w>
グ ァ
クロス ワ</w>
クロ ック</w>
クレ -ン</w>
クラス メ-ト</w>
クライ ム</w>
クラ マ</w>
クラ クション</w>
クス クス</w>
クウェ -ト</w>
ク ランク</w>
ク ラン
ク ニョム</w>
ク ッ</w>
ク ソ
ク セ</w>
ク エン
ク ウク</w>
ギュ ッ</w>
ギ ルバ</w>
ギ ルド</w>
ギ ラギラ</w>
ギ ム
キュ ア</w>
キャラ バン</w>
キャ リ</w>
キャ ビン</w>
キャ ビア</w>
キャ パシティ</w>
キャ ノピ</w>
キャ スティング</w>
キ ンズ</w>
キ ルト</w>
キ ル</w>
キ ブ</w>
キ トンボ</w>
キ テクト</w>
キ ック
キ サンドリア</w>
キ ガリ</w>
ガリ フナ</w>
ガ チガチ</w>
ガ -ル</w>
カン フ</w>
カン クン</w>
カレ ドニア</w>
カル メン</w>
カリ ヨ</w>
カラッ カラッ
カモ メ</w>
カプ グラ</w>
カプ -</w>
カト マンズ</w>
カッ シ</w>
カチ カチ</w>
カスタマイ ゼ-</w>
カスタ ム</w>
カイ パ</w>
カ レス</w>
カ モノハシ</w>
カ マ
カ ボ</w>
カ ブ-</w>
カ ット
オルド リン</w>
オクタ ウィ
オクタウィ ア
オクタウィア ヌス</w>
オ ロ</w>
オ プ
オ ファ</w>
オ ニ
オ ケ</w>
オ ク
オ キ</w>
オ -ラ</w>
オ -ケ</w>
エロ チック</w>
エレクトロ ラックス</w>
エレク トゥス</w>
エレガ ンス</w>
エレ ア
エレア ノア</w>
エル ヴィス</w>
エフ ド</w>
エディ タ</w>
エストラ ゴン</w>
エコロ ジカル</w>
エイ リ</w>
エイ ブラハム</w>
エイ ジ</w>
エア バス</w>
エ ラトステネス</w>
エ ディンバラ</w>
エ ックス</w>
ウン ザリ</w>
ウバ ト</w>
ウォ レス</w>
ウォ ッシュ</w>
ウェ ハ</w>
ウィンド ウ</w>
ウィル キンス</w>
ウィ ットネス</w>
ウ ッ</w>
ウ ダ</w>
ウ スバ</w>
インタビュ ア</w>
イン ドア</w>
イン ディ</w>
イン グリッド</w>
イン グリッシュ</w>
イル ズ</w>
イヤ リング</w>
イノ シシ</w>
イスタン ブ</w>
イグ ノ</w>
イ プロニアジド</w>
イ プ
イ ソ</w>
ィ -</w>
アンドロ メダ</w>
アン ビエ
アン ネ
アロ イス</w>
アレ ント</w>
アレ キサンドリア</w>
アルミ ラリア</w>
アルジャ ジ-ラ</w>
アル バイト</w>
アラ ビンド</w>
アラ ニン</w>
アラ ップ</w>
アヤ ワスカ</w>
アム ネスティ</w>
アフ ロ</w>
アフ マダ</w>
アド ベンチャ</w>
アダ ムス</w>
アステ カ</w>
アス ベスト</w>
アイ ドリス</w>
アイ アンマン</w>
ア レン
ア マ</w>
ア ボット</w>
ア プ</w>
ア ニ-</w>
ア ット</w>
ア ッシュ</w>
ア ッ</w>
ア ズ</w>
ア ゴラ</w>
ア コ</w>
ア ク</w>
ア -チ</w>
わり と</w>
わ ら</w>
ろう ろ</w>
る か</w>
り 好み</w>
り かご</w>
よ り
ゆ とり</w>
ゆ う</w>
やみ くも</w>
や す
や き声</w>
もた げ</w>
も じ</w>
め まい</w>
め がけ</w>
め かし</w>
む せ
みん など</w>
み な
み っ
み その</w>
み すぼらし</w>
み あ</w>
まぶ し</w>
まば ゆ</w>
まじ ない</w>
ま ざる</w>
ぽ っちゃ
ぽっちゃ り</w>
ほど これ</w>
ほ どこ</w>
ほ とり</w>
ふくら ま</w>
ふ ち</w>
ふ た
び っしり</w>
び く</w>
び く
びく びく</w>
ひょ う</w>
ひょ う
ひね くれ</w>
ひっ くり
ひき 起こ</w>
ひ そ</w>
ひ け</w>
ぱ っ</w>
ばか す</w>
ば ね</w>
はな は
は ん</w>
は なれ</w>
は ず
は しか</w>
の ぼれ</w>
の け
ね つ
ねつ 造</w>
ね だ</w>
にぎ やか</w>
に わか</w>
なに せ</w>
なだ らか</w>
な どんな</w>
どう し</w>
ど っさり</w>
ど け</w>
ど か</w>
とり とめ</w>
と なり</w>
と がめ</w>
と え</w>
でっち あげ</w>
でっ か</w>
て らっしゃ</w>
づ れ</w>
つま り
つぶ し</w>
つなぎ あわせ</w>
つなが り合</w>
つき あ</w>
つか の間</w>
つ む
っぽ う</w>
っぺ ら</w>
った け</w>
っ か</w>
ち ら
たた ず</w>
たか だか</w>
た びれ</w>
た どれ</w>
た じろ</w>
そ り
そ ばかす</w>
そ ぎ</w>
ず 者</w>
ず ぐず</w>
す すご</w>
す き
す か</w>
じ ん</w>
しょう い</w>
しまい 込</w>
しかめ 面</w>
しか つて</w>
し 身</w>
し ら
し みこ</w>
し ずく</w>
し こり</w>
さざ 波</w>
ささ やき声</w>
さか のぼれ</w>
さ び</w>
さ げ</w>
さ か</w>
ごちゃ まぜ</w>
ご ま</w>
ご ひげ</w>
ご し</w>
ご く
こんばん は</w>
こま ごま</w>
こな せ</w>
こと ば</w>
こそ こそ</w>
こ まね</w>
こ ぶ</w>
こ ね</w>
げ っ</w>
け ―</w>
ぐ ずぐず</w>
くる め</w>
くくり つけ</w>
く 手</w>
く それぞれ</w>
く そう</w>
ぎ 落と</w>
ぎ 捨て</w>
きら びやか</w>
きめ 細か</w>
き かけ</w>
がん じ</w>
がら み</w>
が らめ</w>
が っしり</w>
が たいてい</w>
が き</w>
かし こ</w>
か 黒</w>
か み
か ぶり</w>
か ば</w>
か がみ</w>
およ ぼ</w>
お 払い箱</w>
お ん
お やつ</w>
お ち</w>
お しゃぶり</w>
お さえ</w>
お ご</w>
え ん</w>
え り好み</w>
え -</w>
うな ずけ</w>
うっ 血</w>
う わさ</w>
う そ</w>
いや 味</w>
いそ し</w>
いき さつ</w>
いか さま</w>
い 込</w>
い っ</w>
い せい</w>
あ や
あ の世</w>
あ て
あ っ
あ たし</w>
あ ごひげ</w>
あ きれ</w>
― ニュ</w>
y c
world changing</w>
w ake</w>
us t</w>
um p
ub er
u to
to N
toN ight</w>
sha y
sc ient
s ion
s .</w>
ru ct
ro p</w>
ro p
ri b
reat h</w>
re at</w>
r y
r ome</w>
r it
p a
oc a</w>
n- gram</w>
m ur
m er
m ent</w>
m e</w>
m e
m ar
m an</w>
li ke</w>
li g
le x</w>
l y</w>
l am
k er</w>
j a
it Hub</w>
is m</w>
is e
ir e</w>
inec t</w>
in the
ic t
ic es</w>
i ous</w>
i o</w>
i a
i OS</w>
ho ho
f ul</w>
f riend</w>
f ox</w>
f low</w>
es a</w>
er n
en ter
eg end</w>
eel F
eelF ine</w>
doub t</w>
d ay</w>
cor n</w>
co d
c ep
b u
ar d</w>
apt ree</w>
an k
ala ab
alaab oca</w>
al e
ack Over
ackOver flow</w>
a pp
a p</w>
a o
\& am
YourL egend</w>
Y ou</w>
Y es
Y B</w>
Wor d</w>
Wh ale
We F
WeF eelFine</w>
W al
W L</w>
Vot e</w>
V o</w>
Up wake</w>
US C</w>
U NI
The Inter
Th is</w>
TT P</w>
TE M
TEM PT</w>
T i</w>
T B</w>
Sw aptree</w>
St ackOverflow</w>
Space X</w>
Sp ace</w>
Sec ret</w>
S ur
S ub</w>
S il
RO V</w>
RO M</w>
R ep
R V</w>
R CA</w>
Prot on</w>
Projec t
Pr ess</w>
Pop corn</w>
Pl an
Part icip
PL C</w>
P i
P al</w>
P V</w>
P MT
PMT CT</w>
P H</w>
P G
OL D</w>
O WL</w>
O N</w>
New s</w>
N ov
N ES
NES S</w>
Mo b
Mat ter</w>
Ma il</w>
MA PS</w>
M in
M et
M G</w>
M D
Live YourLegend</w>
Lif e
L oc
L L</w>
L C</w>
K inect</w>
J F
JF K</w>
J E</w>
J A
In My
IS S</w>
IN G</w>
IG F</w>
I ll
Hat z
H ouse</w>
H TTP</w>
Global Vote</w>
GN P</w>
GM O</w>
G u
G ra
G itHub</w>
Found ation</w>
For t
Faceb ook
FOX ニュ-</w>
FO RM</w>
F ire
F ED</w>
F A
E y
De ep
Day toNight</w>
DM V</w>
DAR w
D re
D ay</w>
D H
D F
Courser a</w>
Comp any</w>
C ris
C oll
C alaaboca</w>
Bu y</w>
Bla Car</w>
Bla BlaCar</w>
Bl ue</w>
BR D</w>
B ir
B et
B an</w>
B PA</w>
Apple II</w>
AD D</w>
AC S</w>
A g
A ct
A A
9 ,
5 30</w>
4 30</w>
30 ,000</w>
3 90</w>
3 80</w>
3 600</w>
3 30</w>
2, 30</w>
2, 300</w>
2 700</w>
2 56</w>
2 49</w>
196 1</w>
195 1</w>
19 42</w>
19 31</w>
19 11</w>
18 85</w>
18 70</w>
18 60</w>
18 49</w>
18 3</w>
17 50</w>
17 1</w>
15 8</w>
10 8</w>
10 000</w>
1 65</w>
1 28</w>
1 22</w>
1 18</w>
1 11</w>
0 1</w>
-ラ タ</w>
-プン スペ-</w>
-ナ -ド</w>
-ト ナ-</w>
-ト ジャ</w>
-ディ エンス</w>
-ク ネット</w>
- ロパ</w>
- ロ
- ヤ</w>
- ゾ</w>
- カ</w>
, 800</w>
, 0
黒 鉛</w>
黒 子</w>
黄 緑</w>
黄 疸</w>
鶏 卵</w>
魚 雷</w>
高 慢</w>
高 ぶ</w>
髄 鞘</w>
騎 兵</w>
駐 在</w>
養 父</w>
養 液</w>
飲 ん</w>
食い 違い</w>
食い 物</w>
食 費</w>
食 感</w>
飛び 移</w>
飛 梁</w>
飛 来</w>
飛 散</w>
風 通し</w>
風 向き</w>
風 体</w>
類 い</w>
頼り な</w>
頼 もし</w>
頸 部</w>
頭 字</w>
頬 骨</w>
順 列</w>
音 調</w>
面 通し</w>
静 ま
静ま り返</w>
青 銅</w>
青 緑色</w>
青 々</w>
露 光</w>
震 い</w>
雨 漏
雨漏 り</w>
難 航</w>
難 攻</w>
離陸 機</w>
離 職</w>
離 着陸</w>
雑 談</w>
雑 用</w>
雌 馬</w>
雄 しべ</w>
障 が</w>
隆 起</w>
陸 生</w>
陰 影</w>
除 隊</w>
降 着</w>
防 除</w>
防 空</w>
闘 病</w>
開 通</w>
開 眼</w>
開 け
閉 店</w>
閉 め
閉め 出</w>
門 外</w>
長 身</w>
長 方形</w>
長 文</w>
長 女</w>
鏡 映</w>
鏡 像</w>
鍛 冶
鍛冶 屋</w>
鋼 材</w>
銅 線</w>
銃 身</w>
鉢 盂</w>
鉄 製</w>
鉄 板</w>
鈍 感</w>
釣 り上げ</w>
針 刺し</w>
金 本位</w>
量 販</w>
野良 犬</w>
野 獣</w>
野 火</w>
野 営</w>
重 罪</w>
重 さ</w>
酸 欠</w>
酒 飲み</w>
配 電</w>
選び 取</w>
遮 光</w>
遣 わ</w>
達 し</w>
道 程</w>
道 標</w>
道 楽</w>
過 労</w>
運び 屋</w>
進 言</w>
連 発</w>
連 星</w>
造 作</w>
速 報</w>
通り 越</w>
通 達</w>
這 い出</w>
逐 一</w>
送り つけ</w>
退 廃物</w>
退 任</w>
退 き</w>
返 還</w>
近 づき</w>
辿 れ</w>
込み 上げ</w>
込 ま</w>
農 耕地</w>
辟 易</w>
辛 苦</w>
辛 う</w>
転 校</w>
転 嫁</w>
転 び</w>
軍 縮</w>
身 震い</w>
踏み 出せ</w>
足 早</w>
足 掛かり</w>
越 冬</w>
起 草</w>
贈 呈</w>
賃 上げ</w>
貼 り出</w>
貸し 付け</w>
貴 州</w>
貯 え</w>
責め 立て</w>
財 宝</w>
豊 胸</w>
豊 穣</w>
谷 山</w>
議 決</w>
論 破</w>
調 味</w>
読み 返</w>
読み 物</w>
読 字</w>
誤魔 化</w>
語 ら</w>
話 術</w>
詰め かけ</w>
詮 索</w>
試 薬</w>
試 作品</w>
訳 者</w>
許 士</w>
記 譜</w>
記 章</w>
言い 寄</w>
言い 切</w>
言い ふら</w>
解 散</w>
解 凍</w>
解 か</w>
角 膜</w>
親 身</w>
覗き 見</w>
視 認</w>
見つ かり</w>
見 過ごせ</w>
見 知り</w>
見 切り</w>
覆 いか
覆いか ぶ
西 ドイツ</w>
製 粉</w>
裸 眼</w>
補 食</w>
補 え</w>
裏 面</w>
裏 話</w>
裏 口</w>
袈 裟</w>
表 土</w>
衣 料</w>
術 野</w>
血 症</w>
蜂 起</w>
蜂 群</w>
虫 垂</w>
虚 栄</w>
薄 給</w>
薄 型</w>
蔑 視</w>
蔑 ろ</w>
蓄 電</w>
落ち 度</w>
荒 地</w>
英 文</w>
苦 笑い</w>
苦 味</w>
花 束</w>
花 崗</w>
花 婿</w>
船 室</w>
舞 踏</w>
至 急</w>
至 る</w>
自 軍</w>
自 認</w>
腸 炎</w>
腕 力</w>
腐 葉</w>
脳 死</w>
脱 塩</w>
脱 北</w>
脱 げ</w>
脚 光</w>
脂 っこ</w>
胸 骨</w>
胚 幹</w>
胃 腸</w>
肩 書</w>
肩 代わり</w>
肥 や</w>
職 位</w>
聴 音</w>
聴 取</w>
聴 き
聞き 入れ</w>
聖 櫃</w>
耳 鳴り</w>
習 熟</w>
翌 月</w>
義 父</w>
義 兄</w>
美 味</w>
羊 飼</w>
罵 声</w>
罪 深</w>
罪 人</w>
缶 詰め</w>
繊 毛</w>
繁 茂</w>
縮 こま</w>
縫い 目</w>
縫い 合わせ</w>
線 状</w>
総 じて</w>
網 目</w>
綱 引き</w>
継 手</w>
継 げ</w>
絶 賛</w>
結 社</w>
結 実</w>
経 ち</w>
組み 直</w>
組み 合</w>
組 込</w>
組 合わせ</w>
終 着地</w>
細 身</w>
累 乗</w>
素 通り</w>
紙 吹雪</w>
純 度</w>
糞 尿</w>
糖 質</w>
精 錬</w>
米 兵</w>
米 中</w>
節 電</w>
箱 入り</w>
筋 書</w>
等 級</w>
等 式</w>
笑い 飛ば</w>
立ち 直
立ち直 れ</w>
立ち 上がれ</w>
立ち すく</w>
立 屋</w>
立 上げ</w>
突き 合わ</w>
穿 刺</w>
空 地</w>
空 事</w>
穴 居</w>
穢 れ</w>
積 雪</w>
積 造</w>
積 載</w>
種 間</w>
種 苗</w>
移 ろ</w>
移 れ</w>
禁 制</w>
社 名</w>
磨 り
破 線</w>
砕 石</w>
砕 け
砕け 散</w>
研 磨</w>
砂 塵</w>
石 柱</w>
石 こう</w>
短 調</w>
睫 毛</w>
着 席</w>
真っ 青</w>
真 核</w>
真 性</w>
直 進</w>
直 下</w>
目 散</w>
盗み 聞き</w>
盗 め</w>
益 々</w>
白 鯨</w>
白 身</w>
発 狂</w>
発 振</w>
瘢 痕</w>
痛み 止め</w>
病 死</w>
病 名</w>
疎 水</w>
異 教</w>
異 形</w>
番 犬</w>
留め 具</w>
畑 仕事</w>
畏 れ</w>
画 策</w>
申 立</w>
由 々し</w>
田舎 者</w>
用 地</w>
用 品</w>
用 件</w>
産 婦</w>
生まれ つ</w>
生き 返り</w>
生き のび</w>
生 意気</w>
生 デ-タ</w>
生 け
甘 やか</w>
環 流</w>
理 解法</w>
球 形</w>
珍 味</w>
王 権</w>
王 女</w>
玉 子</w>
獰 猛</w>
猟 師</w>
猜 疑</w>
狭 窄</w>
独 習</w>
独 断</w>
特 急</w>
物 言い</w>
片 鱗</w>
燃え つき</w>
熱 愛</w>
煩 雑</w>
照 れ</w>
焦 が</w>
無 辺</w>
無 益</w>
無 学</w>
無 くし</w>
火 球</w>
漬 物</w>
漏 え
漏え い</w>
滲 み出</w>
滑り 台</w>
溜 め込</w>
満 潮</w>
湖 畔</w>
温 かみ</w>
渡 米</w>
減 税</w>
添 え
添え 木</w>
混 成
混成 語</w>
混 み</w>
淑 女</w>
浸 潤</w>
浴び せかけ</w>
浚 渫</w>
流 木</w>
流 し出</w>
波 頭</w>
法 規</w>
油 絵</w>
油 濁</w>
沸 か</w>
沐 浴</w>
汽 車</w>
決め 付け</w>
決 算</w>
江 戸</w>
汚 らわし</w>
永 劫</w>
氷 期</w>
水 際</w>
水 性</w>
水 彩</w>
水 場</w>
水 かき</w>
氏 名</w>
比べ 物</w>
比 類</w>
比 重</w>
毒 薬</w>
残 業</w>
残 存</w>
殆 んど</w>
歯 止め</w>
正 方</w>
正 弦</w>
正 々</w>
歌 い</w>
次 男</w>
機 具</w>
樹 立</w>
横 顔</w>
横 領</w>
横 道</w>
横 柄</w>
横 取り</w>
横 並び</w>
横 ばい</w>
概 観</w>
楽 勝</w>
植え 込み</w>
棒 形</w>
棄 権</w>
案 外</w>
核 内</w>
柱 廊</w>
架 か</w>
林 檎</w>
来 院</w>
本 職</w>
未 払い</w>
木 質</w>
木 こり</w>
有 線</w>
有 料</w>
月 給</w>
最 上層</w>
曾 孫</w>
書き 記</w>
書き 直し</w>
更 衣</w>
更 年</w>
更 地</w>
曲 率</w>
暴 落</w>
暗 に</w>
晴 れ
晴 ら</w>
時 心</w>
昼 ドラ</w>
昨 夏</w>
星 系</w>
星 団</w>
早 起き</w>
日 食</w>
日 除け</w>
日 課</w>
日 経</w>
日 数</w>
日 当たり</w>
日 夜</w>
日 和
日和 見</w>
日 ごろ</w>
旗 手</w>
旅 費</w>
旅 立ち</w>
新 卒</w>
文 末</w>
敷 居</w>
敵 国</w>
数 行</w>
数 多</w>
散 策</w>
散 文</w>
敗 訴</w>
政 官</w>
放 水</w>
放 せ</w>
攻 防</w>
攻 略</w>
改 築</w>
支え あ</w>
擦 れ</w>
撥 水</w>
換 金</w>
揚 力</w>
描き 直</w>
推 察</w>
接 ぎ
接ぎ 木</w>
採 石場</w>
採 り</w>
掘り 起こし</w>
授 精</w>
授 か
授か り物</w>
掃 射</w>
捻 挫</w>
捉え どころ</w>
挿 管</w>
振り 絞</w>
挟 ま</w>
拭 き取</w>
拠 地</w>
拠 出</w>
拘 わ</w>
押し 潰</w>
押し 下げ</w>
押し とどめ</w>
押 しかけ</w>
抵 触</w>
抱き つ</w>
抱 え込</w>
抜 群</w>
折り 畳
折り 合</w>
払 わ</w>
打ち 返</w>
打ち 消し</w>
手 芸</w>
手 綱</w>
手 漕ぎ</w>
手 放せ</w>
手 押し</w>
手 形</w>
手 引</w>
手 帳</w>
手 上げ</w>
手 だて</w>
所 要</w>
戸 外</w>
戸 別</w>
戦 うか</w>
成 型</w>
成 否</w>
懺 悔</w>
懸 賞</w>
憐 憫</w>
憐 れみ</w>
憂 き目</w>
慈 し</w>
感 応</w>
感 冒</w>
愛 用</w>
愉 し</w>
情 けな</w>
悶 え</w>
悔 い</w>
恐 れ
恋 心</w>
急 死</w>
思い 至</w>
怖 じ</w>
怒 鳴
念 願</w>
念 じ</w>
快 活</w>
応 対</w>
忍び 寄</w>
忍 者</w>
必 修</w>
心 音</w>
微 弱</w>
微 動</w>
御 名</w>
従 者</w>
従 妹</w>
後ろ 足</w>
後ろ 盾</w>
後 続</w>
後 年</w>
役 柄</w>
当て ず
当 地</w>
弾 み</w>
強 者</w>
張 れ</w>
引っ 込</w>
引き 起</w>
引き 立て</w>
引き 留め</w>
引き 剥が</w>
弁 証</w>
弁 解</w>
廃 絶</w>
座 りこ</w>
度 胸</w>
度 数</w>
底 上げ</w>
序 章</w>
広 角</w>
広 々</w>
幼 体</w>
年 輪</w>
年 周</w>
常 駐</w>
常 用</w>
常 勤</w>
帳 面</w>
帰 路</w>
希 求</w>
市 警</w>
巻き 上が</w>
巻 尺</w>
己 心</w>
差し 込み</w>
差し だ</w>
差 しかか</w>
巨 石</w>
巨 星</w>
左 腕</w>
島 国</w>
岩 肌</w>
岐 路</w>
山 積</w>
山 場</w>
局 地</w>
尾 部</w>
尾 びれ</w>
尽 くし</w>
尖 塔</w>
小 鳥</w>
小 難し</w>
小 管</w>
小 島</w>
導 け</w>
尊 大</w>
将 官</w>
専 業</w>
寿 司
審 美</w>
寝 床</w>
富 め</w>
寄り かか</w>
寂 れ</w>
容 体</w>
家 出</w>
害 悪</w>
客 船</w>
実 線</w>
実 害</w>
実 名</w>
定 形</w>
完 走</w>
完 成形</w>
安 静</w>
安 値</w>
安 住</w>
安 ら</w>
守 衛</w>
守 備</w>
学び と</w>
学 科</w>
存 命</w>
子 熊</w>
娼 婦</w>
委 譲</w>
委 任</w>
始 祖</w>
如 実</w>
如 何
如何 なる</w>
好 感</w>
女 医</w>
奔 放</w>
奇 人</w>
失 読</w>
失 態</w>
失 いかけ</w>
太 子</w>
天 罰</w>
大 麦</w>
大 賞</w>
大 叔父</w>
大 ざ
大ざ っぱ</w>
夜更 かし</w>
夜 行</w>
夜 景</w>
多 国</w>
多 剤</w>
外 枠</w>
外 向き</w>
変 質</w>
変 種</w>
変 曲</w>
変 態</w>
変 圧</w>
売り 買い</w>
売り 切れ</w>
売 店</w>
壮 麗</w>
壮 絶</w>
壊 死</w>
増 築</w>
墓 穴</w>
塩 生</w>
塩 漬け</w>
塩 気</w>
塞 が</w>
塗 布</w>
執 政官</w>
垂れ 下が</w>
地 消</w>
地 名</w>
国 有</w>
国 名</w>
国 別</w>
四つん 這い</w>
噴 水</w>
噴 射</w>
噛み 付</w>
喫 茶</w>
喋 れ</w>
哀 歌</w>
咽 喉</w>
咄 嗟</w>
周 到</w>
吹き 出し</w>
吸 水</w>
吸 気</w>
含 意</w>
否 決</w>
向かい 合わせ</w>
向かい 合い</w>
名 曲</w>
名 所</w>
同 質</w>
同 窓</w>
同 社</w>
同 い
同い 年</w>
合 言葉</w>
合 わ
各 部</w>
各 辺</w>
各 章</w>
右 心室</w>
台 車</w>
可哀 相</w>
召 使</w>
古 生</w>
口 火</w>
口 径</w>
口 出し</w>
口 ごも</w>
口 々</w>
受け 渡し</w>
受け 持ち</w>
受 身</w>
取り 立て</w>
取り 消し</w>
取り 得</w>
取り あげ</w>
取っ つ</w>
取 っ</w>
収 賄</w>
収 まり</w>
反 戦</w>
叉 骨</w>
去 れ</w>
厳 粛</w>
原 種</w>
原 産</w>
南 氷</w>
半 田</w>
半 円</w>
北 緯</w>
北 端</w>
北 海</w>
匂 いや味</w>
勲 章</w>
勝ち 得</w>
動 かすか</w>
勇 者</w>
勇 まし</w>
勃 興</w>
効 き目</w>
加 味</w>
力 量</w>
力 説</w>
力 持ち</w>
力 ずく</w>
創り あげ</w>
割 り込</w>
副 次</w>
剥 ぎ取</w>
前 駆</w>
前 腕</w>
前 庭</w>
前 作</w>
前 人</w>
前 世</w>
前 かがみ</w>
刷 り込み</w>
制 止</w>
利 己心</w>
別 れ
別れ 際</w>
切 込み</w>
切 ら</w>
分 母</w>
出 自</w>
出 港</w>
出 典</w>
凌 ぎ</w>
冷 淡</w>
冷 ま</w>
冤 罪</w>
冠 状</w>
再 選</w>
冊 子</w>
円 状</w>
内 腔</w>
内 密</w>
内 壁</w>
具 象</w>
兵 力</w>
共 益</w>
共 振</w>
公 選</w>
公 社</w>
公 安</w>
公 会</w>
八 百</w>
全 貌</w>
全 容</w>
全 デ-タ</w>
入れ 歯</w>
入り 交じ</w>
入り 乱れ</w>
入 金</w>
入 試</w>
入 社</w>
党 員</w>
免 責</w>
免 税</w>
光 熱</w>
光 点</w>
先 陣</w>
先 送り</w>
先 取り</w>
充 填</w>
元 凶</w>
働き 手</w>
傷 み</w>
備 品</w>
偽 名</w>
偶 奇</w>
側 近</w>
側 方</w>
偏 屈</w>
値 踏み</w>
値 下げ</w>
借 り物</w>
倍 数</w>
修 飾</w>
修 得</w>
信 徒</w>
便 箋</w>
便 座</w>
供 述</w>
使い 回し</w>
作り 込</w>
作り 笑い</w>
作 詞</w>
余 生</w>
余 波</w>
何 もの</w>
体 躯</w>
体 裁</w>
低 空</w>
似 顔</w>
伸 長</w>
伝 授</w>
会 得</w>
休 戦</w>
任 天</w>
仲 裁</w>
代 喩</w>
代 り</w>
仕立て 上げ</w>
仕 送り</w>
仕 立屋</w>
仕 事柄</w>
介 添え</w>
今 更</w>
今 一</w>
今 どき</w>
今 し
今し がた</w>
人 知</w>
人 皆</w>
人 混み</w>
交 じり</w>
五 輪</w>
五 行</w>
二 百</w>
二 分</w>
事 案</w>
予 行</w>
乳 歯</w>
乗り 切れ</w>
丸 み</w>
中 型</w>
中 南部</w>
中 ごろ</w>
両 隣</w>
両 脇</w>
両 肩</w>
両 目</w>
与 え合</w>
不 落</w>
不 乱</w>
下ろ せ</w>
下 顎</w>
下 達</w>
下 肢</w>
下 山</w>
下 向き</w>
上 訴</w>
上 行</w>
上 段</w>
上 乗せ</w>
三 十</w>
丁 目</w>
一人 前</w>
一 髪</w>
一 語</w>
一 翼</w>
一 瞥</w>
一 目散</w>
一 理</w>
一 極</w>
一 撃</w>
一 押し</w>
一 息</w>
一 味</w>
一 介</w>
・ ビュ-</w>
・ チュ-</w>
・ ジョ</w>
ヶ 月経</w>
ヴェ -</w>
ヴィ ラ
ヴィ チ</w>
ヴィ スワ
ヴィ エ
ヴァ シェ
ヴァシェ ム</w>
ヴァ イ</w>
ンド ルファ</w>
ン ・
ン ヘン</w>
ン ナ</w>
ワル シャワ</w>
ワ- ビ
ワ-ビ -
ワ-ビ- パ-</w>
ワ ナ</w>
ワ ッツ</w>
ワ ックス</w>
ワ オラニ族</w>
ワ ォ
ロマン チ
ロック ン</w>
ロ ル
ロル カイ
ロルカイ ニ
ロルカイニ ド</w>
ロ ベルト</w>
ロ ベ-ル</w>
ロ ビア</w>
ロ ドリ
ロ ップ</w>
ロ イト</w>
レッ チャ</w>
レスト レ</w>
レジデ ント</w>
レシ ピエ
レシピエ ント</w>
レ ル
レ リ
レ ブロン</w>
レ ビュ-</w>
レ ノン</w>
レ ッグ</w>
レ ソト</w>
レ スリ</w>
レ スラ</w>
レ シュマ</w>
レ ザ</w>
ルン バ</w>
ルン ギ</w>
ルド ワ-ク</w>
ルド レッド</w>
ルド ルフ</w>
ル 語</w>
ル ルル</w>
ル リッジ</w>
ル ファ-</w>
ル パ-</w>
ル ティ</w>
ル ックス</w>
ル サイド</w>
ル クセン
ル ガイ</w>
ル イス
ル -ス</w>
リン 酸</w>
リン クト
リンクト イン</w>
リン ガ</w>
リュ ステ
リュステ ウス</w>
リベ ット</w>
リビン グル-ム</w>
リスペ クト</w>
リ リ-</w>
リ モ</w>
リ プリ</w>
リ フォ-ム</w>
リ フ</w>
リ バ-</w>
リ トル
リ トア
リトア ニア</w>
リ ゾ</w>
リ ゼ</w>
リ スティックス</w>
リ ザ</w>
リ カ
リ エル</w>
ラン ダル</w>
ラファ エロ</w>
ラト レイ</w>
ラッ シ</w>
ラジャ スタン</w>
ラウン ジ</w>
ライプ ニ
ライプニ ッツ</w>
ラ ロイド</w>
ラ ボ
ラ ニ</w>
ラ ドン</w>
ラ ド
ラ トリ</w>
ラ ト</w>
ラ ッサ</w>
ラ シュ
ラ ゴン</w>
ラ -ス</w>
ヨ ッ
ヨッ レ</w>
ユ リ</w>
ユ カ
ユカ タン</w>
ュ リ</w>
ヤマ ネコ</w>
ヤマ アラシ</w>
ヤ ム
ヤ バ</w>
ヤ ド</w>
ヤ キ
モンド ラゴン</w>
モンテ ッソ</w>
モンゴ メリ</w>
モン ロビア</w>
モン ティ</w>
モン ス-</w>
モロ ク</w>
モル モット</w>
モル ヒ
モルヒ ネ</w>
モル ガン</w>
モスコ ウィッツ</w>
モザン ビ</w>
モ ロ</w>
モ ラリティ</w>
モ ブツ</w>
モ ビ</w>
モ ッツ</w>
モ ジュラ</w>
メレン ゲ</w>
メル トダウン</w>
メリ ッサ</w>
メディ スン</w>
メッ ゲ
メッゲ ンドルファ</w>
メソ ジスト</w>
メガ ヘルツ</w>
メカ ジキ</w>
メ ンス</w>
メ ニア</w>
メ ニ
メニ スタン</w>
メ トリ
メ ト
メ チャ
メチャ クチャ</w>
メ ダ
メ インフレ</w>
ムク ドリ</w>
ム ランナ</w>
ム プレ</w>
ム バ-グ</w>
ム ニスト</w>
ム ジカ</w>
ム ウェル</w>
ミング ウェイ</w>
ミュ ンヘン</w>
ミノ タ
ミノタ ウロス</w>
ミ ロ
ミ ルドレッド</w>
ミ ノス</w>
ミ ドル
ミ ディアム</w>
ミ シュ
ミ シア</w>
ミ クロス</w>
ミ キュ</w>
ミ カン</w>
マン トロ
マントロ ウト</w>
マン スフィ</w>
マン シェット</w>
マン ゴ</w>
マル ティン</w>
マリ オン</w>
マラ ミュ</w>
マヌ ケ</w>
マド ンナ</w>
マド フ</w>
マスタ ベ</w>
マエ ダ</w>
マイクロ ロ</w>
マイ ド</w>
マ レク</w>
マ ミ</w>
マ ペ
マ パ</w>
マ ニズム</w>
マ ドゥ</w>
マ ティクス</w>
マ ティ
マ ツ</w>
マ ツ
マ チュ</w>
マ タイ</w>
マ グリ
マ グマ</w>
マ クマ</w>
マ インド
ポリ スチレン</w>
ポネ ソス</w>
ポジ ショ
ポジショ ニング</w>
ポケ ベル</w>
ポ ラロイド</w>
ポ テンツ</w>
ポ キ
ボル ヘス</w>
ボト ックス</w>
ボ リック</w>
ボ ウイ</w>
ボ イス
ボイス メ-</w>
ホル ダ</w>
ホリ スティック</w>
ホッ チキス</w>
ホスピ タル</w>
ホイ ヘ
ホイヘ ンス</w>
ホ バ</w>
ホ バ
ホバ リング</w>
ホ コリ</w>
ホ グ
ホ -ル・</w>
ホ -ク</w>
ペルセ フォ
ペルセフォ ネ</w>
ペル ム</w>
ペネ ロ
ペイ ズリ</w>
ペ ンス</w>
ペ プ
ペプ チド</w>
ペ ドロ</w>
ペ ソ</w>
ペ アレント</w>
ベンチ マ</w>
ベン ガ
ベル ル
ベッド サイド</w>
ベ レ</w>
ベ リ-</w>
ベ ラル</w>
ベ ト</w>
ベ タ
ベ ゾ
ベゾ ス</w>
ベ イカ</w>
ベ -ジ</w>
ヘン デル</w>
ヘル ム</w>
ヘッド レスト</w>
ヘッド ライン</w>
ヘ パリン</w>
プン ソ</w>
プン な</w>
プロト タイピング</w>
プロジェ クション</w>
プロ レス</w>
プロ メテウス</w>
プロ ゲ
プロゲ ステロン</w>
プレ デタ</w>
プリン シ
プリンシ ペ</w>
プラット フォ</w>
プライ マリ</w>
プラ イ</w>
プ ブル</w>
プ チ</w>
プ チ
プチ プチ</w>
ブレ トン
ブレトン ウッズ</w>
ブリ ストル</w>
ブリ ジット</w>
ブラン ディング</w>
ブラン ケット</w>
ブラウ ジング</w>
ブライ エン</w>
ブラ ット</w>
ブラ ッグ</w>
ブラ ジ
ブラジ リア</w>
ブラ ウン
ブッ ポウ</w>
ブ ンス</w>
ブ クト
ブクト ゥ</w>
ブ カルド</w>
ブ カ
ブ -ル</w>
フレ スコ</w>
フレ イ</w>
フレ -ク</w>
フリ ックス</w>
フランク フ
フランクフ ルト</w>
[...]
